{
  "version": "1.0",
  "truncation": null,
  "padding": null,
  "added_tokens": [
    {
      "id": 0,
      "content": "[UNK]",
      "single_word": false,
      "lstrip": false,
      "rstrip": false,
      "normalized": false,
      "special": true
    },
    {
      "id": 1,
      "content": "[PAD]",
      "single_word": false,
      "lstrip": false,
      "rstrip": false,
      "normalized": false,
      "special": true
    },
    {
      "id": 2,
      "content": "[BOS]",
      "single_word": false,
      "lstrip": false,
      "rstrip": false,
      "normalized": false,
      "special": true
    },
    {
      "id": 3,
      "content": "[EOS]",
      "single_word": false,
      "lstrip": false,
      "rstrip": false,
      "normalized": false,
      "special": true
    }
  ],
  "normalizer": null,
  "pre_tokenizer": {
    "type": "Whitespace"
  },
  "post_processor": null,
  "decoder": null,
  "model": {
    "type": "BPE",
    "dropout": null,
    "unk_token": "[UNK]",
    "continuing_subword_prefix": null,
    "end_of_word_suffix": null,
    "fuse_unk": false,
    "byte_fallback": false,
    "ignore_merges": false,
    "vocab": {
      "[UNK]": 0,
      "[PAD]": 1,
      "[BOS]": 2,
      "[EOS]": 3,
      "!": 4,
      "\"": 5,
      "$": 6,
      "&": 7,
      "'": 8,
      "(": 9,
      ")": 10,
      "*": 11,
      ",": 12,
      "-": 13,
      ".": 14,
      "/": 15,
      "0": 16,
      "1": 17,
      "2": 18,
      "3": 19,
      "4": 20,
      "5": 21,
      "6": 22,
      "7": 23,
      "8": 24,
      "9": 25,
      ":": 26,
      ";": 27,
      "<": 28,
      "=": 29,
      ">": 30,
      "?": 31,
      "@": 32,
      "A": 33,
      "B": 34,
      "C": 35,
      "D": 36,
      "E": 37,
      "F": 38,
      "G": 39,
      "H": 40,
      "I": 41,
      "J": 42,
      "K": 43,
      "L": 44,
      "M": 45,
      "N": 46,
      "O": 47,
      "P": 48,
      "Q": 49,
      "R": 50,
      "S": 51,
      "T": 52,
      "U": 53,
      "V": 54,
      "W": 55,
      "X": 56,
      "Y": 57,
      "Z": 58,
      "[": 59,
      "]": 60,
      "_": 61,
      "a": 62,
      "b": 63,
      "c": 64,
      "d": 65,
      "e": 66,
      "f": 67,
      "g": 68,
      "h": 69,
      "i": 70,
      "j": 71,
      "k": 72,
      "l": 73,
      "m": 74,
      "n": 75,
      "o": 76,
      "p": 77,
      "q": 78,
      "r": 79,
      "s": 80,
      "t": 81,
      "u": 82,
      "v": 83,
      "w": 84,
      "x": 85,
      "y": 86,
      "z": 87,
      "|": 88,
      "": 89,
      "": 90,
      "": 91,
      "": 92,
      "¼": 93,
      "â": 94,
      "è": 95,
      "ê": 96,
      "Œ": 97,
      "œ": 98,
      "—": 99,
      "‘": 100,
      "’": 101,
      "“": 102,
      "”": 103,
      "…": 104,
      "th": 105,
      "the": 106,
      "an": 107,
      "in": 108,
      "re": 109,
      "and": 110,
      "ou": 111,
      "he": 112,
      "of": 113,
      "is": 114,
      "at": 115,
      "on": 116,
      "er": 117,
      "or": 118,
      "ll": 119,
      "to": 120,
      "en": 121,
      "ha": 122,
      "es": 123,
      "ed": 124,
      "as": 125,
      "ar": 126,
      "ing": 127,
      "hi": 128,
      "nd": 129,
      "it": 130,
      "se": 131,
      "be": 132,
      "me": 133,
      "st": 134,
      "wi": 135,
      "le": 136,
      "no": 137,
      "that": 138,
      "And": 139,
      "ve": 140,
      "ay": 141,
      "ro": 142,
      "gh": 143,
      "his": 144,
      "for": 145,
      "ld": 146,
      "ce": 147,
      "sha": 148,
      "un": 149,
      "ch": 150,
      "id": 151,
      "we": 152,
      "ir": 153,
      "all": 154,
      "sa": 155,
      "ght": 156,
      "ho": 157,
      "our": 158,
      "ut": 159,
      "od": 160,
      "shall": 161,
      "with": 162,
      "de": 163,
      "not": 164,
      "li": 165,
      "ri": 166,
      "ent": 167,
      "him": 168,
      "al": 169,
      "ke": 170,
      "so": 171,
      "ra": 172,
      "ver": 173,
      "thou": 174,
      "co": 175,
      "unto": 176,
      "The": 177,
      "ther": 178,
      "us": 179,
      "my": 180,
      "ow": 181,
      "they": 182,
      "them": 183,
      "was": 184,
      "ad": 185,
      "am": 186,
      "ly": 187,
      "ye": 188,
      "up": 189,
      "lo": 190,
      "ain": 191,
      "pe": 192,
      "OR": 193,
      "ore": 194,
      "man": 195,
      "are": 196,
      "you": 197,
      "whi": 198,
      "est": 199,
      "ion": 200,
      "thy": 201,
      "ord": 202,
      "hat": 203,
      "ur": 204,
      "ORD": 205,
      "LORD": 206,
      "have": 207,
      "ess": 208,
      "one": 209,
      "fe": 210,
      "her": 211,
      "ca": 212,
      "ter": 213,
      "there": 214,
      "go": 215,
      "will": 216,
      "rom": 217,
      "ma": 218,
      "ne": 219,
      "this": 220,
      "hou": 221,
      "which": 222,
      "ven": 223,
      "ab": 224,
      "whe": 225,
      "out": 226,
      "ge": 227,
      "il": 228,
      "their": 229,
      "God": 230,
      "thee": 231,
      "do": 232,
      "from": 233,
      "by": 234,
      "te": 235,
      "said": 236,
      "fa": 237,
      "el": 238,
      "king": 239,
      "fore": 240,
      "were": 241,
      "fi": 242,
      "la": 243,
      "but": 244,
      "ine": 245,
      "now": 246,
      "ck": 247,
      "con": 248,
      "ight": 249,
      "art": 250,
      "your": 251,
      "su": 252,
      "son": 253,
      "she": 254,
      "ple": 255,
      "po": 256,
      "ti": 257,
      "ard": 258,
      "ast": 259,
      "ag": 260,
      "ru": 261,
      "For": 262,
      "rou": 263,
      "who": 264,
      "ah": 265,
      "say": 266,
      "had": 267,
      "ant": 268,
      "day": 269,
      "red": 270,
      "ren": 271,
      "when": 272,
      "ul": 273,
      "com": 274,
      "wo": 275,
      "sel": 276,
      "upon": 277,
      "But": 278,
      "ever": 279,
      "et": 280,
      "end": 281,
      "He": 282,
      "Is": 283,
      "res": 284,
      "hath": 285,
      "come": 286,
      "ac": 287,
      "thing": 288,
      "ers": 289,
      "ation": 290,
      "ong": 291,
      "men": 292,
      "qu": 293,
      "ith": 294,
      "wor": 295,
      "if": 296,
      "chi": 297,
      "way": 298,
      "sp": 299,
      "ous": 300,
      "gre": 301,
      "again": 302,
      "mo": 303,
      "That": 304,
      "lt": 305,
      "own": 306,
      "ake": 307,
      "ise": 308,
      "ity": 309,
      "ct": 310,
      "ok": 311,
      "hand": 312,
      "ness": 313,
      "may": 314,
      "ak": 315,
      "pro": 316,
      "rael": 317,
      "Israel": 318,
      "af": 319,
      "pr": 320,
      "ind": 321,
      "gi": 322,
      "came": 323,
      "word": 324,
      "10": 325,
      "ath": 326,
      "11": 327,
      "oun": 328,
      "bo": 329,
      "urn": 330,
      "well": 331,
      "pt": 332,
      "house": 333,
      "ass": 334,
      "ep": 335,
      "peo": 336,
      "ould": 337,
      "into": 338,
      "people": 339,
      "ud": 340,
      "use": 341,
      "see": 342,
      "child": 343,
      "ser": 344,
      "To": 345,
      "know": 346,
      "then": 347,
      "off": 348,
      "land": 349,
      "ment": 350,
      "what": 351,
      "und": 352,
      "ry": 353,
      "per": 354,
      "ves": 355,
      "ate": 356,
      "ear": 357,
      "hold": 358,
      "mb": 359,
      "13": 360,
      "ist": 361,
      "went": 362,
      "before": 363,
      "di": 364,
      "let": 365,
      "12": 366,
      "good": 367,
      "14": 368,
      "made": 369,
      "right": 370,
      "ill": 371,
      "more": 372,
      "Be": 373,
      "ance": 374,
      "So": 375,
      "ved": 376,
      "row": 377,
      "other": 378,
      "ure": 379,
      "great": 380,
      "fo": 381,
      "ans": 382,
      "ide": 383,
      "cause": 384,
      "im": 385,
      "also": 386,
      "against": 387,
      "children": 388,
      "here": 389,
      "father": 390,
      "bre": 391,
      "make": 392,
      "ap": 393,
      "spe": 394,
      "ull": 395,
      "self": 396,
      "na": 397,
      "15": 398,
      "ound": 399,
      "hould": 400,
      "ust": 401,
      "Then": 402,
      "nor": 403,
      "shalt": 404,
      "cha": 405,
      "over": 406,
      "As": 407,
      "ies": 408,
      "any": 409,
      "pl": 410,
      "br": 411,
      "should": 412,
      "che": 413,
      "Th": 414,
      "Of": 415,
      "16": 416,
      "heart": 417,
      "In": 418,
      "eth": 419,
      "av": 420,
      "ci": 421,
      "ig": 422,
      "aven": 423,
      "after": 424,
      "might": 425,
      "less": 426,
      "18": 427,
      "ev": 428,
      "every": 429,
      "hast": 430,
      "ree": 431,
      "where": 432,
      "would": 433,
      "pass": 434,
      "ice": 435,
      "ence": 436,
      "pla": 437,
      "did": 438,
      "than": 439,
      "these": 440,
      "ars": 441,
      "comm": 442,
      "ward": 443,
      "down": 444,
      "even": 445,
      "orn": 446,
      "19": 447,
      "17": 448,
      "ish": 449,
      "ave": 450,
      "sin": 451,
      "can": 452,
      "like": 453,
      "tru": 454,
      "ount": 455,
      ",*": 456,
      "serv": 457,
      "20": 458,
      "irst": 459,
      "fl": 460,
      "pri": 461,
      "ts": 462,
      "des": 463,
      "ose": 464,
      "os": 465,
      "ex": 466,
      "21": 467,
      "22": 468,
      "ol": 469,
      "love": 470,
      "saying": 471,
      "Lord": 472,
      "dis": 473,
      "ces": 474,
      "cer": 475,
      "call": 476,
      "itt": 477,
      "things": 478,
      "ang": 479,
      "give": 480,
      "ret": 481,
      "name": 482,
      "ught": 483,
      "forth": 484,
      "EN": 485,
      "saith": 486,
      "ful": 487,
      "ite": 488,
      "time": 489,
      "ither": 490,
      "how": 491,
      "hear": 492,
      "full": 493,
      "ering": 494,
      "bro": 495,
      "gl": 496,
      "IN": 497,
      "put": 498,
      "take": 499,
      "23": 500,
      "ue": 501,
      "ft": 502,
      "mer": 503,
      "Thou": 504,
      "earth": 505,
      "ken": 506,
      "yet": 507,
      "two": 508,
      "rought": 509,
      "iah": 510,
      "IO": 511,
      "part": 512,
      "mon": 513,
      "sou": 514,
      "24": 515,
      "sons": 516,
      "med": 517,
      "mine": 518,
      "acc": 519,
      "What": 520,
      "ign": 521,
      "pre": 522,
      "jo": 523,
      "ink": 524,
      "This": 525,
      "cl": 526,
      "thine": 527,
      "Now": 528,
      "ble": 529,
      "oth": 530,
      "away": 531,
      "bl": 532,
      "cri": 533,
      "ot": 534,
      "live": 535,
      "si": 536,
      "There": 537,
      "Jes": 538,
      "night": 539,
      "under": 540,
      "hen": 541,
      "some": 542,
      "servant": 543,
      ".”": 544,
      "whom": 545,
      "gra": 546,
      "place": 547,
      "da": 548,
      "AR": 549,
      "stand": 550,
      "set": 551,
      "lord": 552,
      "read": 553,
      "25": 554,
      "ress": 555,
      "first": 556,
      "because": 557,
      "rough": 558,
      "vo": 559,
      "light": 560,
      "such": 561,
      "many": 562,
      "bu": 563,
      "26": 564,
      "command": 565,
      "Dav": 566,
      "David": 567,
      "hy": 568,
      "sent": 569,
      "ort": 570,
      "int": 571,
      "op": 572,
      "life": 573,
      "therefore": 574,
      "eld": 575,
      "work": 576,
      "Je": 577,
      "ach": 578,
      "ace": 579,
      "wat": 580,
      "Jer": 581,
      "heaven": 582,
      "among": 583,
      "bring": 584,
      "Jesus": 585,
      "ey": 586,
      "brought": 587,
      "em": 588,
      "priest": 589,
      "dom": 590,
      ",”": 591,
      "beg": 592,
      "able": 593,
      "pray": 594,
      "city": 595,
      "thus": 596,
      "ty": 597,
      "head": 598,
      "If": 599,
      "days": 600,
      "took": 601,
      "led": 602,
      "offering": 603,
      "27": 604,
      "ase": 605,
      "har": 606,
      "speak": 607,
      "With": 608,
      "uch": 609,
      "old": 610,
      "jud": 611,
      "hr": 612,
      "new": 613,
      "ef": 614,
      "str": 615,
      "thereof": 616,
      "ites": 617,
      "Ab": 618,
      "age": 619,
      "lem": 620,
      "heard": 621,
      "Jud": 622,
      "tell": 623,
      "death": 624,
      "om": 625,
      "saw": 626,
      "through": 627,
      "wife": 628,
      "ba": 629,
      "28": 630,
      "lood": 631,
      "tain": 632,
      "ark": 633,
      "bet": 634,
      "done": 635,
      "US": 636,
      "bit": 637,
      "eat": 638,
      "My": 639,
      "sto": 640,
      "phe": 641,
      "about": 642,
      "behold": 643,
      "cei": 644,
      "um": 645,
      "lie": 646,
      "We": 647,
      "found": 648,
      "high": 649,
      "llow": 650,
      "neither": 651,
      "oses": 652,
      "ving": 653,
      "accord": 654,
      "cle": 655,
      "usa": 656,
      "law": 657,
      "Moses": 658,
      "wr": 659,
      "bes": 660,
      "Who": 661,
      "long": 662,
      "sh": 663,
      "ings": 664,
      "been": 665,
      "rest": 666,
      "shi": 667,
      "ond": 668,
      "ale": 669,
      "daught": 670,
      "irit": 671,
      "29": 672,
      "Where": 673,
      "hon": 674,
      "vi": 675,
      "Chr": 676,
      "pos": 677,
      "ory": 678,
      "hed": 679,
      "lay": 680,
      "gy": 681,
      "though": 682,
      "called": 683,
      "Jerusa": 684,
      "Jerusalem": 685,
      "must": 686,
      "selves": 687,
      "round": 688,
      "words": 689,
      "blood": 690,
      "sand": 691,
      "ations": 692,
      "Judah": 693,
      "himself": 694,
      "When": 695,
      "soul": 696,
      "tri": 697,
      "burn": 698,
      "according": 699,
      "Whi": 700,
      "ten": 701,
      "ange": 702,
      "world": 703,
      "fire": 704,
      "turn": 705,
      "war": 706,
      "roy": 707,
      "evil": 708,
      "cre": 709,
      "cked": 710,
      "brother": 711,
      "fall": 712,
      "both": 713,
      "gold": 714,
      "den": 715,
      "thousand": 716,
      "30": 717,
      "She": 718,
      "dr": 719,
      "wise": 720,
      "spake": 721,
      "Egy": 722,
      "swe": 723,
      "mber": 724,
      "31": 725,
      "car": 726,
      "dest": 727,
      "much": 728,
      "those": 729,
      "ower": 730,
      "UC": 731,
      "gu": 732,
      "Jo": 733,
      "cast": 734,
      "ng": 735,
      "tre": 736,
      "orrow": 737,
      "pi": 738,
      "eyes": 739,
      "without": 740,
      "Christ": 741,
      "tem": 742,
      "cour": 743,
      "ome": 744,
      "ning": 745,
      "most": 746,
      "ER": 747,
      "They": 748,
      "It": 749,
      "none": 750,
      "alt": 751,
      "keep": 752,
      "ING": 753,
      "AN": 754,
      "given": 755,
      "host": 756,
      "side": 757,
      "cy": 758,
      "ily": 759,
      "sle": 760,
      "esh": 761,
      "undred": 762,
      "hundred": 763,
      "ph": 764,
      "prophe": 765,
      "spo": 766,
      "dead": 767,
      "att": 768,
      "clo": 769,
      "Thus": 770,
      "Let": 771,
      "three": 772,
      "32": 773,
      "very": 774,
      "pres": 775,
      "ire": 776,
      "fear": 777,
      "aul": 778,
      "ction": 779,
      "mount": 780,
      "dwell": 781,
      "look": 782,
      "cont": 783,
      "years": 784,
      "hu": 785,
      "never": 786,
      "another": 787,
      "pleas": 788,
      "ga": 789,
      "ls": 790,
      "les": 791,
      "face": 792,
      "ced": 793,
      "mar": 794,
      "seven": 795,
      "alk": 796,
      "fri": 797,
      "ES": 798,
      "ments": 799,
      "char": 800,
      "kind": 801,
      "His": 802,
      "eous": 803,
      "rem": 804,
      "cut": 805,
      "die": 806,
      "voice": 807,
      "peace": 808,
      "four": 809,
      "pp": 810,
      "ities": 811,
      "ary": 812,
      "thought": 813,
      "ET": 814,
      "woman": 815,
      "hor": 816,
      "How": 817,
      "gether": 818,
      "dev": 819,
      "ms": 820,
      "Which": 821,
      "count": 822,
      "holy": 823,
      "Egypt": 824,
      "pur": 825,
      "Go": 826,
      "Ye": 827,
      "gave": 828,
      "judg": 829,
      "33": 830,
      "together": 831,
      "prin": 832,
      "ittle": 833,
      "Behold": 834,
      "Or": 835,
      "unt": 836,
      "wa": 837,
      "ove": 838,
      "All": 839,
      "sm": 840,
      "righteous": 841,
      "ised": 842,
      "ps": 843,
      "ste": 844,
      "hands": 845,
      "little": 846,
      "sub": 847,
      "return": 848,
      "sea": 849,
      "bed": 850,
      "cur": 851,
      "wicked": 852,
      "Al": 853,
      "An": 854,
      "god": 855,
      "Re": 856,
      "faith": 857,
      "sight": 858,
      "thren": 859,
      "outh": 860,
      "same": 861,
      "spirit": 862,
      "honour": 863,
      "gent": 864,
      "igh": 865,
      "stood": 866,
      "aster": 867,
      "mother": 868,
      "iss": 869,
      "34": 870,
      "wered": 871,
      "brethren": 872,
      "coun": 873,
      "fair": 874,
      "fathers": 875,
      "ared": 876,
      "ner": 877,
      "hel": 878,
      "KING": 879,
      "far": 880,
      "joy": 881,
      "while": 882,
      "could": 883,
      "daughter": 884,
      "cond": 885,
      "comp": 886,
      "young": 887,
      "Se": 888,
      "answered": 889,
      "No": 890,
      "lad": 891,
      "ub": 892,
      "ird": 893,
      "ought": 894,
      "ones": 895,
      "By": 896,
      "reign": 897,
      ".*": 898,
      "mouth": 899,
      "servants": 900,
      "ic": 901,
      "year": 902,
      "told": 903,
      "mid": 904,
      "sil": 905,
      "Therefore": 906,
      "vers": 907,
      "quoth": 908,
      "rown": 909,
      "bear": 910,
      "Cha": 911,
      "sword": 912,
      "gr": 913,
      "recei": 914,
      "anger": 915,
      "ern": 916,
      "sir": 917,
      "ason": 918,
      "mes": 919,
      "friend": 920,
      "grace": 921,
      "destroy": 922,
      "LO": 923,
      "fam": 924,
      "only": 925,
      "true": 926,
      "flesh": 927,
      "band": 928,
      "lon": 929,
      "water": 930,
      "eke": 931,
      "till": 932,
      "bread": 933,
      "power": 934,
      "rep": 935,
      "IC": 936,
      "being": 937,
      "sl": 938,
      "certain": 939,
      "glory": 940,
      "left": 941,
      "ried": 942,
      "whose": 943,
      "sun": 944,
      "bod": 945,
      "ched": 946,
      "dre": 947,
      "wer": 948,
      "themselves": 949,
      "36": 950,
      "Why": 951,
      "bless": 952,
      "atter": 953,
      "gth": 954,
      "ek": 955,
      "ions": 956,
      "Ar": 957,
      "fru": 958,
      "list": 959,
      "ished": 960,
      "Ja": 961,
      "nothing": 962,
      "cu": 963,
      "sat": 964,
      "**": 965,
      "aken": 966,
      "35": 967,
      "last": 968,
      "ta": 969,
      "commanded": 970,
      "find": 971,
      "ches": 972,
      "Fa": 973,
      "fruit": 974,
      "gen": 975,
      "field": 976,
      "ains": 977,
      "mighty": 978,
      "ister": 979,
      "oud": 980,
      "IUS": 981,
      "drink": 982,
      "min": 983,
      "tab": 984,
      "doth": 985,
      "ult": 986,
      "too": 987,
      "ARD": 988,
      "Heaven": 989,
      "open": 990,
      "Nor": 991,
      "wit": 992,
      "ere": 993,
      "vis": 994,
      "wis": 995,
      "lled": 996,
      "clean": 997,
      "Am": 998,
      "ick": 999,
      "fort": 1000,
      "--": 1001,
      "wall": 1002,
      "think": 1003,
      "beast": 1004,
      "need": 1005,
      "ison": 1006,
      "follow": 1007,
      "cities": 1008,
      "ins": 1009,
      "belie": 1010,
      "kingdom": 1011,
      "sweet": 1012,
      "Sha": 1013,
      "gone": 1014,
      "je": 1015,
      "ses": 1016,
      "sc": 1017,
      "seen": 1018,
      "wild": 1019,
      "ship": 1020,
      "par": 1021,
      "suf": 1022,
      "pra": 1023,
      "fell": 1024,
      "ines": 1025,
      "ated": 1026,
      "chief": 1027,
      "sing": 1028,
      "cannot": 1029,
      "ned": 1030,
      "ia": 1031,
      "shew": 1032,
      "born": 1033,
      "walk": 1034,
      "soever": 1035,
      "37": 1036,
      "hus": 1037,
      "twent": 1038,
      "iness": 1039,
      "toward": 1040,
      "aint": 1041,
      "appe": 1042,
      "mercy": 1043,
      "ature": 1044,
      "deli": 1045,
      "just": 1046,
      "sy": 1047,
      "ween": 1048,
      "fice": 1049,
      "II": 1050,
      "fast": 1051,
      "ile": 1052,
      "ates": 1053,
      "strong": 1054,
      "Ne": 1055,
      "conf": 1056,
      "lest": 1057,
      "Phi": 1058,
      "taken": 1059,
      "gri": 1060,
      "ran": 1061,
      "stren": 1062,
      "attle": 1063,
      "habit": 1064,
      "air": 1065,
      "ray": 1066,
      "sed": 1067,
      "ini": 1068,
      "ally": 1069,
      "Saul": 1070,
      "dra": 1071,
      "wind": 1072,
      "anon": 1073,
      "depart": 1074,
      "lies": 1075,
      "fied": 1076,
      "itten": 1077,
      "ild": 1078,
      "lam": 1079,
      "These": 1080,
      "acle": 1081,
      "wel": 1082,
      "ged": 1083,
      "serve": 1084,
      "ious": 1085,
      "sup": 1086,
      "tra": 1087,
      "book": 1088,
      "laid": 1089,
      "priests": 1090,
      "38": 1091,
      "pti": 1092,
      "sure": 1093,
      "du": 1094,
      "EL": 1095,
      "ways": 1096,
      "Not": 1097,
      "altar": 1098,
      "Can": 1099,
      "five": 1100,
      "back": 1101,
      "bus": 1102,
      "sorrow": 1103,
      "que": 1104,
      "truth": 1105,
      "twenty": 1106,
      "ors": 1107,
      "Thy": 1108,
      "Un": 1109,
      "fal": 1110,
      "deed": 1111,
      "burnt": 1112,
      "az": 1113,
      "husband": 1114,
      "kings": 1115,
      "gar": 1116,
      "body": 1117,
      "save": 1118,
      "ask": 1119,
      "leave": 1120,
      "maid": 1121,
      "poor": 1122,
      "until": 1123,
      "cob": 1124,
      "silver": 1125,
      "ech": 1126,
      "ene": 1127,
      "On": 1128,
      "Yet": 1129,
      "wn": 1130,
      "midst": 1131,
      "smo": 1132,
      "Come": 1133,
      "ucer": 1134,
      "Chaucer": 1135,
      "Her": 1136,
      "Man": 1137,
      "used": 1138,
      "Jacob": 1139,
      ";*": 1140,
      "tong": 1141,
      "wine": 1142,
      "get": 1143,
      "From": 1144,
      "KE": 1145,
      "knew": 1146,
      "ob": 1147,
      "reme": 1148,
      "still": 1149,
      "40": 1150,
      "RO": 1151,
      "bur": 1152,
      "cry": 1153,
      "Son": 1154,
      "sess": 1155,
      "tr": 1156,
      "kill": 1157,
      "herit": 1158,
      "greg": 1159,
      "You": 1160,
      "ude": 1161,
      "hope": 1162,
      "congreg": 1163,
      "Lev": 1164,
      "cho": 1165,
      "sacri": 1166,
      "known": 1167,
      "gentle": 1168,
      "fect": 1169,
      "gener": 1170,
      "ber": 1171,
      "mis": 1172,
      "sal": 1173,
      "iled": 1174,
      "GO": 1175,
      "ground": 1176,
      "send": 1177,
      "meat": 1178,
      "cor": 1179,
      "mind": 1180,
      "ring": 1181,
      "above": 1182,
      "congregation": 1183,
      "teth": 1184,
      "better": 1185,
      "tabern": 1186,
      "dou": 1187,
      "xt": 1188,
      "gate": 1189,
      "tree": 1190,
      "oft": 1191,
      "ham": 1192,
      "aron": 1193,
      "ants": 1194,
      "fool": 1195,
      "glad": 1196,
      "fer": 1197,
      "pen": 1198,
      "possess": 1199,
      "deliver": 1200,
      "vir": 1201,
      "counsel": 1202,
      "hal": 1203,
      "since": 1204,
      "Aaron": 1205,
      "best": 1206,
      "nations": 1207,
      "Sam": 1208,
      "vent": 1209,
      "cept": 1210,
      "cious": 1211,
      "dark": 1212,
      "morn": 1213,
      "pit": 1214,
      "ined": 1215,
      "times": 1216,
      "works": 1217,
      "De": 1218,
      "ws": 1219,
      "asse": 1220,
      "seek": 1221,
      "month": 1222,
      "OL": 1223,
      "master": 1224,
      "wond": 1225,
      "turned": 1226,
      "present": 1227,
      "LA": 1228,
      "stri": 1229,
      "within": 1230,
      "39": 1231,
      "press": 1232,
      "Father": 1233,
      "women": 1234,
      "six": 1235,
      "gan": 1236,
      "iz": 1237,
      "wilt": 1238,
      "help": 1239,
      "eter": 1240,
      "ati": 1241,
      "kes": 1242,
      "why": 1243,
      "thr": 1244,
      "keth": 1245,
      "arm": 1246,
      "written": 1247,
      "TIO": 1248,
      "point": 1249,
      "iniqu": 1250,
      "between": 1251,
      "lady": 1252,
      "bow": 1253,
      "manner": 1254,
      "righteousness": 1255,
      "bid": 1256,
      "nu": 1257,
      "va": 1258,
      "whole": 1259,
      "false": 1260,
      "41": 1261,
      "seed": 1262,
      "cometh": 1263,
      "understand": 1264,
      "Sir": 1265,
      "lomon": 1266,
      "Solomon": 1267,
      "loved": 1268,
      "began": 1269,
      "erness": 1270,
      "soon": 1271,
      "order": 1272,
      "aff": 1273,
      "plain": 1274,
      "strength": 1275,
      "enem": 1276,
      "cks": 1277,
      "div": 1278,
      "enemies": 1279,
      "ie": 1280,
      "ours": 1281,
      "each": 1282,
      "inherit": 1283,
      "itude": 1284,
      "judge": 1285,
      "judgment": 1286,
      "tabernacle": 1287,
      "Ad": 1288,
      "stra": 1289,
      "aby": 1290,
      "ilt": 1291,
      "slain": 1292,
      "build": 1293,
      "*,": 1294,
      "CA": 1295,
      "Ho": 1296,
      "waters": 1297,
      "stone": 1298,
      "bare": 1299,
      "ima": 1300,
      "Abra": 1301,
      "gods": 1302,
      "queen": 1303,
      "delive": 1304,
      "thank": 1305,
      "Con": 1306,
      "First": 1307,
      "port": 1308,
      "noble": 1309,
      "test": 1310,
      "spoken": 1311,
      "At": 1312,
      "IS": 1313,
      "myself": 1314,
      "feet": 1315,
      "thered": 1316,
      "country": 1317,
      "eye": 1318,
      "wilderness": 1319,
      "flo": 1320,
      "coven": 1321,
      "thyself": 1322,
      "Wherefore": 1323,
      "ples": 1324,
      "Mo": 1325,
      "TH": 1326,
      "lk": 1327,
      "san": 1328,
      "answer": 1329,
      "half": 1330,
      "Pha": 1331,
      "morning": 1332,
      "ian": 1333,
      "sign": 1334,
      "covenant": 1335,
      "dow": 1336,
      "near": 1337,
      "woe": 1338,
      "Baby": 1339,
      "shame": 1340,
      "has": 1341,
      "stru": 1342,
      "dream": 1343,
      "believe": 1344,
      "Babylon": 1345,
      "bt": 1346,
      "offer": 1347,
      "Joh": 1348,
      "tongue": 1349,
      "ough": 1350,
      "Eli": 1351,
      "mean": 1352,
      "Lo": 1353,
      "len": 1354,
      "lly": 1355,
      "sake": 1356,
      "passed": 1357,
      "EO": 1358,
      "lab": 1359,
      "held": 1360,
      "bey": 1361,
      "reason": 1362,
      "ended": 1363,
      "hosts": 1364,
      "GOD": 1365,
      "Sp": 1366,
      "rejo": 1367,
      "meet": 1368,
      "dear": 1369,
      "enter": 1370,
      "cove": 1371,
      "trans": 1372,
      "delivered": 1373,
      "ger": 1374,
      "gain": 1375,
      "ref": 1376,
      "bs": 1377,
      "its": 1378,
      "ready": 1379,
      "prom": 1380,
      "inhabit": 1381,
      "ledge": 1382,
      "Gi": 1383,
      "mult": 1384,
      "sk": 1385,
      "ICH": 1386,
      "Le": 1387,
      "RICH": 1388,
      "ss": 1389,
      "died": 1390,
      "Ben": 1391,
      "sleep": 1392,
      "princes": 1393,
      "Pro": 1394,
      "io": 1395,
      "oh": 1396,
      "wra": 1397,
      "wood": 1398,
      "DU": 1399,
      "Up": 1400,
      "lift": 1401,
      "disci": 1402,
      "temple": 1403,
      "DUKE": 1404,
      "crown": 1405,
      "ense": 1406,
      "prison": 1407,
      "trust": 1408,
      "wisdom": 1409,
      "Philist": 1410,
      "bla": 1411,
      "free": 1412,
      "gard": 1413,
      "gue": 1414,
      "pain": 1415,
      "ures": 1416,
      "Shall": 1417,
      "Jos": 1418,
      "iniquity": 1419,
      "sound": 1420,
      "cover": 1421,
      "Than": 1422,
      "Phara": 1423,
      "once": 1424,
      "pose": 1425,
      "folk": 1426,
      "Pharaoh": 1427,
      "morrow": 1428,
      "trou": 1429,
      "wed": 1430,
      "ash": 1431,
      "42": 1432,
      "UL": 1433,
      "therein": 1434,
      "filled": 1435,
      "praise": 1436,
      "daughters": 1437,
      "RICHARD": 1438,
      "une": 1439,
      "weth": 1440,
      "play": 1441,
      "service": 1442,
      "pal": 1443,
      "ition": 1444,
      "capt": 1445,
      "ENTIO": 1446,
      "gathered": 1447,
      "John": 1448,
      "bra": 1449,
      "gro": 1450,
      "44": 1451,
      "More": 1452,
      "sho": 1453,
      "inter": 1454,
      "post": 1455,
      "desire": 1456,
      "Rome": 1457,
      "lear": 1458,
      "cam": 1459,
      "dist": 1460,
      "ped": 1461,
      "cloud": 1462,
      "receive": 1463,
      "Mar": 1464,
      "oney": 1465,
      "flow": 1466,
      "cried": 1467,
      "UE": 1468,
      "happ": 1469,
      "tale": 1470,
      "vour": 1471,
      "desp": 1472,
      "offerings": 1473,
      "King": 1474,
      "Your": 1475,
      "cess": 1476,
      "tou": 1477,
      "stre": 1478,
      "utter": 1479,
      "ames": 1480,
      "yea": 1481,
      "INC": 1482,
      "prep": 1483,
      "company": 1484,
      "ling": 1485,
      "tent": 1486,
      "hearken": 1487,
      "prophet": 1488,
      "cent": 1489,
      "run": 1490,
      "twel": 1491,
      "throne": 1492,
      "multitude": 1493,
      "rise": 1494,
      "Levites": 1495,
      "Ba": 1496,
      "Me": 1497,
      "care": 1498,
      "ges": 1499,
      "Here": 1500,
      "Because": 1501,
      "matter": 1502,
      "weep": 1503,
      "oured": 1504,
      "worthy": 1505,
      "Bo": 1506,
      "ai": 1507,
      "feast": 1508,
      "herd": 1509,
      "slew": 1510,
      "contin": 1511,
      "cubit": 1512,
      "Abraham": 1513,
      "Do": 1514,
      "battle": 1515,
      "show": 1516,
      "sec": 1517,
      "second": 1518,
      "cted": 1519,
      "ceed": 1520,
      "whether": 1521,
      "AB": 1522,
      "aut": 1523,
      "corn": 1524,
      "ell": 1525,
      "form": 1526,
      "Though": 1527,
      "Jews": 1528,
      "clothe": 1529,
      "Spirit": 1530,
      "Jose": 1531,
      "bound": 1532,
      "fellow": 1533,
      "concer": 1534,
      "knowledge": 1535,
      "pie": 1536,
      "bright": 1537,
      "thir": 1538,
      "sick": 1539,
      "hua": 1540,
      "smote": 1541,
      "Philistines": 1542,
      "Joseph": 1543,
      "Jeho": 1544,
      "Li": 1545,
      "door": 1546,
      "prof": 1547,
      "court": 1548,
      "east": 1549,
      "ware": 1550,
      "ons": 1551,
      "home": 1552,
      "horse": 1553,
      "prince": 1554,
      "small": 1555,
      "Have": 1556,
      "bar": 1557,
      "welt": 1558,
      "consu": 1559,
      "capti": 1560,
      "witness": 1561,
      "OF": 1562,
      "Take": 1563,
      "ali": 1564,
      "sit": 1565,
      "thence": 1566,
      "Dan": 1567,
      "ual": 1568,
      "third": 1569,
      "hill": 1570,
      "kept": 1571,
      "wrath": 1572,
      "cir": 1573,
      "dwelt": 1574,
      "fur": 1575,
      "mur": 1576,
      "ute": 1577,
      "disciples": 1578,
      "au": 1579,
      "ban": 1580,
      "adv": 1581,
      "else": 1582,
      "dden": 1583,
      "mad": 1584,
      "places": 1585,
      "43": 1586,
      "sacrifice": 1587,
      "inheritance": 1588,
      "requ": 1589,
      "lee": 1590,
      "moved": 1591,
      "tribe": 1592,
      "jour": 1593,
      "def": 1594,
      "chari": 1595,
      "TER": 1596,
      "pet": 1597,
      "prophets": 1598,
      "cons": 1599,
      "meas": 1600,
      "stat": 1601,
      "unclean": 1602,
      "sol": 1603,
      "hour": 1604,
      "low": 1605,
      "mble": 1606,
      "der": 1607,
      "tis": 1608,
      "heal": 1609,
      "begin": 1610,
      "remain": 1611,
      "sister": 1612,
      "break": 1613,
      "angel": 1614,
      "surely": 1615,
      "twelve": 1616,
      "ted": 1617,
      "repro": 1618,
      "having": 1619,
      "fight": 1620,
      "doubt": 1621,
      "cher": 1622,
      "got": 1623,
      "Well": 1624,
      "UCH": 1625,
      "48": 1626,
      "fin": 1627,
      "living": 1628,
      "vessel": 1629,
      "Our": 1630,
      "alone": 1631,
      "sheep": 1632,
      "hence": 1633,
      "blessed": 1634,
      "virt": 1635,
      "ron": 1636,
      "beaut": 1637,
      "stones": 1638,
      "hate": 1639,
      "comfort": 1640,
      "foot": 1641,
      "Paul": 1642,
      "Tro": 1643,
      "cal": 1644,
      "reat": 1645,
      "departed": 1646,
      "GLO": 1647,
      "deth": 1648,
      "raid": 1649,
      "UCES": 1650,
      "concerning": 1651,
      "GLOUCES": 1652,
      "GLOUCESTER": 1653,
      "dread": 1654,
      "vine": 1655,
      "comes": 1656,
      "number": 1657,
      "Tale": 1658,
      "uel": 1659,
      "lot": 1660,
      "wait": 1661,
      "lead": 1662,
      "Their": 1663,
      "ears": 1664,
      "sins": 1665,
      "begat": 1666,
      "returned": 1667,
      "gates": 1668,
      "rose": 1669,
      "broken": 1670,
      "St": 1671,
      "hes": 1672,
      "friends": 1673,
      "reve": 1674,
      "stay": 1675,
      "deep": 1676,
      "rather": 1677,
      "One": 1678,
      "RY": 1679,
      "cum": 1680,
      "met": 1681,
      "decl": 1682,
      "lost": 1683,
      "fered": 1684,
      "teen": 1685,
      "aked": 1686,
      "Aha": 1687,
      "ze": 1688,
      "reth": 1689,
      "rede": 1690,
      "bb": 1691,
      "afraid": 1692,
      "46": 1693,
      "vill": 1694,
      "instru": 1695,
      "imon": 1696,
      "desol": 1697,
      "devil": 1698,
      "Joshua": 1699,
      "Love": 1700,
      "UM": 1701,
      "cra": 1702,
      "slay": 1703,
      "zz": 1704,
      "white": 1705,
      "yourselves": 1706,
      "darkness": 1707,
      "Upon": 1708,
      "Nay": 1709,
      "QUE": 1710,
      "45": 1711,
      "VINC": 1712,
      "ats": 1713,
      "ria": 1714,
      "neth": 1715,
      "fully": 1716,
      "QUEEN": 1717,
      "VINCENTIO": 1718,
      "gs": 1719,
      "delight": 1720,
      "stead": 1721,
      "HEN": 1722,
      "cti": 1723,
      "fat": 1724,
      "lust": 1725,
      "won": 1726,
      "received": 1727,
      "Par": 1728,
      "Sin": 1729,
      "oint": 1730,
      "ters": 1731,
      "appoint": 1732,
      "fled": 1733,
      "fami": 1734,
      "labour": 1735,
      "cubits": 1736,
      "heav": 1737,
      "wight": 1738,
      "rich": 1739,
      "river": 1740,
      "LAN": 1741,
      "tend": 1742,
      "Ser": 1743,
      "bour": 1744,
      "gress": 1745,
      "pill": 1746,
      "scri": 1747,
      "chur": 1748,
      "essen": 1749,
      "short": 1750,
      "charge": 1751,
      "Ri": 1752,
      "fare": 1753,
      "kno": 1754,
      "knight": 1755,
      "lar": 1756,
      "oil": 1757,
      "rer": 1758,
      "ery": 1759,
      "hither": 1760,
      "bered": 1761,
      "wives": 1762,
      "sore": 1763,
      "hard": 1764,
      "gover": 1765,
      "please": 1766,
      "omin": 1767,
      "rejoice": 1768,
      "Gent": 1769,
      "wot": 1770,
      "posed": 1771,
      "inhabitants": 1772,
      "perfect": 1773,
      "cord": 1774,
      "neigh": 1775,
      "trees": 1776,
      "affli": 1777,
      "49": 1778,
      "wound": 1779,
      "phra": 1780,
      "Ed": 1781,
      "ris": 1782,
      "tes": 1783,
      "val": 1784,
      "town": 1785,
      "athan": 1786,
      "Isa": 1787,
      "Was": 1788,
      "vain": 1789,
      "Had": 1790,
      "rance": 1791,
      "inc": 1792,
      "See": 1793,
      "wonder": 1794,
      "HENRY": 1795,
      "Jord": 1796,
      "Till": 1797,
      "cla": 1798,
      "kne": 1799,
      "coming": 1800,
      "trum": 1801,
      "Jordan": 1802,
      "fine": 1803,
      "pity": 1804,
      "uary": 1805,
      "south": 1806,
      "strange": 1807,
      "Moab": 1808,
      "circum": 1809,
      "Ma": 1810,
      "Peter": 1811,
      "dri": 1812,
      "ni": 1813,
      "past": 1814,
      "wrought": 1815,
      "rain": 1816,
      "iles": 1817,
      "glor": 1818,
      "tempt": 1819,
      "pleasure": 1820,
      "suffer": 1821,
      "transgress": 1822,
      "ame": 1823,
      "hind": 1824,
      "ial": 1825,
      "aves": 1826,
      "covered": 1827,
      "aw": 1828,
      "rid": 1829,
      "ler": 1830,
      "obey": 1831,
      "north": 1832,
      "presence": 1833,
      "Ange": 1834,
      "Ephra": 1835,
      "cru": 1836,
      "become": 1837,
      "qui": 1838,
      "ject": 1839,
      "May": 1840,
      "mour": 1841,
      "pati": 1842,
      "incre": 1843,
      "resh": 1844,
      "built": 1845,
      "appear": 1846,
      "50": 1847,
      "jam": 1848,
      "nation": 1849,
      "nigh": 1850,
      "hid": 1851,
      "ify": 1852,
      "Beth": 1853,
      "elders": 1854,
      "destroyed": 1855,
      "ekiah": 1856,
      "thirty": 1857,
      "En": 1858,
      "pli": 1859,
      "alley": 1860,
      "areth": 1861,
      "venge": 1862,
      "mountains": 1863,
      "looked": 1864,
      "Second": 1865,
      "Say": 1866,
      "YOR": 1867,
      "hang": 1868,
      "atte": 1869,
      "sum": 1870,
      "worship": 1871,
      "commandment": 1872,
      "draw": 1873,
      "YORK": 1874,
      "eech": 1875,
      "iel": 1876,
      "rup": 1877,
      "fty": 1878,
      "throughout": 1879,
      "NT": 1880,
      "Sy": 1881,
      "ied": 1882,
      "ox": 1883,
      "ens": 1884,
      "sold": 1885,
      "Ty": 1886,
      "Will": 1887,
      "vation": 1888,
      "asha": 1889,
      "ased": 1890,
      "ilus": 1891,
      "wherein": 1892,
      "47": 1893,
      "Even": 1894,
      "Sat": 1895,
      "aan": 1896,
      "bull": 1897,
      "prou": 1898,
      "arose": 1899,
      "INIUS": 1900,
      "grave": 1901,
      "pure": 1902,
      "abomin": 1903,
      "fic": 1904,
      "didst": 1905,
      "reigned": 1906,
      "Troilus": 1907,
      "Ephraim": 1908,
      "ele": 1909,
      "hun": 1910,
      "pard": 1911,
      "wro": 1912,
      "thor": 1913,
      "hell": 1914,
      "ages": 1915,
      "rence": 1916,
      "beasts": 1917,
      "Benjam": 1918,
      "ED": 1919,
      "PET": 1920,
      "mir": 1921,
      "uri": 1922,
      "van": 1923,
      "valley": 1924,
      "ides": 1925,
      "poet": 1926,
      "pped": 1927,
      "hur": 1928,
      "ots": 1929,
      "vity": 1930,
      "anoint": 1931,
      "ford": 1932,
      "rench": 1933,
      "sought": 1934,
      "enemy": 1935,
      "Edward": 1936,
      "ered": 1937,
      "male": 1938,
      "ney": 1939,
      "sudden": 1940,
      "seem": 1941,
      "chamber": 1942,
      "51": 1943,
      "money": 1944,
      "vest": 1945,
      "enough": 1946,
      "ided": 1947,
      "dem": 1948,
      "lion": 1949,
      "rent": 1950,
      "Hear": 1951,
      "119": 1952,
      "swear": 1953,
      "repent": 1954,
      "Unto": 1955,
      "GR": 1956,
      "MEN": 1957,
      "Si": 1958,
      "WARD": 1959,
      "cus": 1960,
      "teach": 1961,
      "Some": 1962,
      "Holy": 1963,
      "EDWARD": 1964,
      "Ay": 1965,
      "case": 1966,
      "sla": 1967,
      "hea": 1968,
      "state": 1969,
      "change": 1970,
      "lips": 1971,
      "next": 1972,
      "prov": 1973,
      "watch": 1974,
      "heavens": 1975,
      "beauty": 1976,
      "families": 1977,
      ",--": 1978,
      "Af": 1979,
      "Again": 1980,
      "Com": 1981,
      "jah": 1982,
      "xed": 1983,
      "theless": 1984,
      "aren": 1985,
      "quick": 1986,
      "green": 1987,
      "commandments": 1988,
      "gather": 1989,
      "Yea": 1990,
      "forty": 1991,
      "spread": 1992,
      "move": 1993,
      "curse": 1994,
      "LUC": 1995,
      "ield": 1996,
      "top": 1997,
      "sabb": 1998,
      "favour": 1999,
      "ceived": 2000,
      "lifted": 2001,
      "sabbath": 2002,
      "Jon": 2003,
      "mist": 2004,
      "hair": 2005,
      "rock": 2006,
      "safe": 2007,
      "bliss": 2008,
      "royal": 2009,
      "drun": 2010,
      "HA": 2011,
      "talk": 2012,
      "arms": 2013,
      "force": 2014,
      "sad": 2015,
      "breast": 2016,
      "course": 2017,
      "Wo": 2018,
      "jest": 2019,
      "vy": 2020,
      "ents": 2021,
      "wrong": 2022,
      "Canaan": 2023,
      "salvation": 2024,
      "arch": 2025,
      "irm": 2026,
      "abide": 2027,
      "speech": 2028,
      "deser": 2029,
      "secret": 2030,
      "Hath": 2031,
      "bird": 2032,
      "gif": 2033,
      "kiss": 2034,
      "mp": 2035,
      "nature": 2036,
      "esca": 2037,
      "ales": 2038,
      "ows": 2039,
      "urse": 2040,
      "ards": 2041,
      "worth": 2042,
      "maketh": 2043,
      "hearts": 2044,
      "carried": 2045,
      "minister": 2046,
      "Full": 2047,
      "cas": 2048,
      "ded": 2049,
      "beat": 2050,
      "cold": 2051,
      "itted": 2052,
      "understanding": 2053,
      "vessels": 2054,
      "OM": 2055,
      "UT": 2056,
      "cro": 2057,
      "dam": 2058,
      "pas": 2059,
      "indeed": 2060,
      "houses": 2061,
      "person": 2062,
      "beside": 2063,
      "camp": 2064,
      "incense": 2065,
      "Benjamin": 2066,
      "bri": 2067,
      "tro": 2068,
      "sooth": 2069,
      "fifty": 2070,
      "Du": 2071,
      "Ze": 2072,
      "fow": 2073,
      "utes": 2074,
      "whither": 2075,
      "remember": 2076,
      "ROM": 2077,
      "sanct": 2078,
      "neighbour": 2079,
      "fy": 2080,
      "west": 2081,
      "note": 2082,
      "ram": 2083,
      "bran": 2084,
      "ols": 2085,
      "treas": 2086,
      "spoil": 2087,
      "pleased": 2088,
      "happy": 2089,
      "ROMEO": 2090,
      "Mi": 2091,
      "border": 2092,
      "fou": 2093,
      "pherd": 2094,
      "tle": 2095,
      "bel": 2096,
      "stance": 2097,
      "ENIUS": 2098,
      "heads": 2099,
      "shut": 2100,
      "prepared": 2101,
      "MENENIUS": 2102,
      "cattle": 2103,
      "ints": 2104,
      "array": 2105,
      "noise": 2106,
      "mountain": 2107,
      "proud": 2108,
      "heathen": 2109,
      "ply": 2110,
      "thither": 2111,
      "act": 2112,
      "blind": 2113,
      "beseech": 2114,
      "desolate": 2115,
      "Mer": 2116,
      "ified": 2117,
      "col": 2118,
      "cheer": 2119,
      "purpose": 2120,
      "Alas": 2121,
      "trouble": 2122,
      "Cl": 2123,
      "RUCH": 2124,
      "cke": 2125,
      "cup": 2126,
      "rel": 2127,
      "atch": 2128,
      "hide": 2129,
      "retched": 2130,
      "thoughts": 2131,
      "grant": 2132,
      "opened": 2133,
      "visit": 2134,
      "PETRUCH": 2135,
      "PETRUCHIO": 2136,
      "War": 2137,
      "messen": 2138,
      "pul": 2139,
      "yield": 2140,
      "widow": 2141,
      "bold": 2142,
      "Jerem": 2143,
      "prayer": 2144,
      "III": 2145,
      "thanks": 2146,
      "pieces": 2147,
      "French": 2148,
      "Saint": 2149,
      "either": 2150,
      "want": 2151,
      "reward": 2152,
      "offered": 2153,
      "endure": 2154,
      "boam": 2155,
      "pursu": 2156,
      "confess": 2157,
      "asked": 2158,
      "Give": 2159,
      "appointed": 2160,
      "After": 2161,
      "names": 2162,
      "naked": 2163,
      "tar": 2164,
      "lom": 2165,
      "pect": 2166,
      "Adam": 2167,
      "Jeremiah": 2168,
      "El": 2169,
      "Ear": 2170,
      "aid": 2171,
      "gin": 2172,
      "ius": 2173,
      "nder": 2174,
      "wick": 2175,
      "youth": 2176,
      "Hez": 2177,
      "image": 2178,
      "Bless": 2179,
      "Zion": 2180,
      "ier": 2181,
      "sen": 2182,
      "aste": 2183,
      "tears": 2184,
      "sper": 2185,
      "viol": 2186,
      "touch": 2187,
      "bullo": 2188,
      "MAR": 2189,
      "Ro": 2190,
      "mul": 2191,
      "pun": 2192,
      "tres": 2193,
      "als": 2194,
      "abl": 2195,
      "wickedness": 2196,
      "faithful": 2197,
      "sanctuary": 2198,
      "=\"": 2199,
      "BA": 2200,
      "bon": 2201,
      "bones": 2202,
      "lin": 2203,
      "fill": 2204,
      "lords": 2205,
      "Abi": 2206,
      "length": 2207,
      "captain": 2208,
      "continu": 2209,
      "large": 2210,
      "COR": 2211,
      "IZ": 2212,
      "Tho": 2213,
      "rows": 2214,
      "brass": 2215,
      "osen": 2216,
      "angu": 2217,
      "IOLAN": 2218,
      "ceive": 2219,
      "content": 2220,
      "Samuel": 2221,
      "vail": 2222,
      "CORIOLAN": 2223,
      "CORIOLANUS": 2224,
      "dro": 2225,
      "flee": 2226,
      "uous": 2227,
      "itiz": 2228,
      "perish": 2229,
      "hearte": 2230,
      "write": 2231,
      "Joab": 2232,
      "Ham": 2233,
      "ured": 2234,
      "riches": 2235,
      "core": 2236,
      "fail": 2237,
      "ends": 2238,
      "shewed": 2239,
      ";”": 2240,
      "IV": 2241,
      "pes": 2242,
      "Manasse": 2243,
      "straight": 2244,
      "statutes": 2245,
      "Manasseh": 2246,
      "TA": 2247,
      "scar": 2248,
      "chang": 2249,
      "chosen": 2250,
      "lives": 2251,
      "raise": 2252,
      "peth": 2253,
      "Assy": 2254,
      "stranger": 2255,
      "bitter": 2256,
      "Good": 2257,
      "duke": 2258,
      "!”": 2259,
      "gn": 2260,
      "thre": 2261,
      "ened": 2262,
      "worn": 2263,
      "prove": 2264,
      "believed": 2265,
      "walked": 2266,
      "Moreover": 2267,
      "fly": 2268,
      "swi": 2269,
      "cell": 2270,
      "ider": 2271,
      "INA": 2272,
      "intent": 2273,
      "business": 2274,
      "bury": 2275,
      "clothes": 2276,
      "journey": 2277,
      "tender": 2278,
      "Per": 2279,
      "bad": 2280,
      "dust": 2281,
      "emb": 2282,
      "horn": 2283,
      "lod": 2284,
      "heed": 2285,
      "formed": 2286,
      "amed": 2287,
      "whatsoever": 2288,
      "cler": 2289,
      "fallen": 2290,
      "ff": 2291,
      "pret": 2292,
      "riage": 2293,
      "early": 2294,
      "haste": 2295,
      "dle": 2296,
      "eight": 2297,
      "num": 2298,
      "oc": 2299,
      "por": 2300,
      "rus": 2301,
      "seat": 2302,
      "song": 2303,
      "served": 2304,
      "mbers": 2305,
      "horses": 2306,
      "garden": 2307,
      "virtue": 2308,
      "claim": 2309,
      "circumc": 2310,
      "Satan": 2311,
      "?”": 2312,
      "LE": 2313,
      "mark": 2314,
      "nal": 2315,
      "coast": 2316,
      "fif": 2317,
      "sheke": 2318,
      "taught": 2319,
      "ked": 2320,
      "ances": 2321,
      "often": 2322,
      "sell": 2323,
      "beloved": 2324,
      "dost": 2325,
      "compass": 2326,
      "prosper": 2327,
      "pleasant": 2328,
      "author": 2329,
      "Cress": 2330,
      "oath": 2331,
      "inion": 2332,
      "iron": 2333,
      "race": 2334,
      "fet": 2335,
      "goeth": 2336,
      "ately": 2337,
      "Such": 2338,
      "ired": 2339,
      "uck": 2340,
      "wash": 2341,
      "Samar": 2342,
      "ience": 2343,
      "pay": 2344,
      "ting": 2345,
      "shadow": 2346,
      "wear": 2347,
      "lose": 2348,
      "Hell": 2349,
      "spring": 2350,
      "mayest": 2351,
      "mbled": 2352,
      "greater": 2353,
      "gracious": 2354,
      "cursed": 2355,
      "portion": 2356,
      "street": 2357,
      "*.": 2358,
      "fra": 2359,
      "gers": 2360,
      "verse": 2361,
      "abund": 2362,
      "whosoever": 2363,
      "ously": 2364,
      "speed": 2365,
      "buried": 2366,
      "corrup": 2367,
      "sancti": 2368,
      "numbered": 2369,
      "Bar": 2370,
      "alive": 2371,
      "dare": 2372,
      "mort": 2373,
      "tor": 2374,
      "wings": 2375,
      "hig": 2376,
      "degre": 2377,
      "som": 2378,
      "upright": 2379,
      "rust": 2380,
      "whence": 2381,
      "plant": 2382,
      "merry": 2383,
      "oppress": 2384,
      "writ": 2385,
      "chard": 2386,
      "drew": 2387,
      "satis": 2388,
      "fortune": 2389,
      "followed": 2390,
      "foolish": 2391,
      "beginning": 2392,
      "ashamed": 2393,
      "Duke": 2394,
      "Warwick": 2395,
      "LEO": 2396,
      "Tis": 2397,
      "loud": 2398,
      "hood": 2399,
      "giveth": 2400,
      "Isaac": 2401,
      "Tell": 2402,
      "ail": 2403,
      "ease": 2404,
      "means": 2405,
      "least": 2406,
      "always": 2407,
      "ruction": 2408,
      "precious": 2409,
      "Were": 2410,
      "Egypti": 2411,
      "seventh": 2412,
      "family": 2413,
      "vision": 2414,
      "Since": 2415,
      "foul": 2416,
      "RAN": 2417,
      "aking": 2418,
      "mor": 2419,
      "ork": 2420,
      "enance": 2421,
      "rod": 2422,
      "ida": 2423,
      "cient": 2424,
      "news": 2425,
      "grief": 2426,
      "captivity": 2427,
      "Gentiles": 2428,
      "multi": 2429,
      "reg": 2430,
      "deal": 2431,
      "establ": 2432,
      "rud": 2433,
      "sinned": 2434,
      "exe": 2435,
      "harm": 2436,
      "golden": 2437,
      "marriage": 2438,
      "judgments": 2439,
      "smite": 2440,
      "Ammon": 2441,
      "Spe": 2442,
      "bir": 2443,
      "dry": 2444,
      "ices": 2445,
      "wide": 2446,
      "alous": 2447,
      "raised": 2448,
      "accept": 2449,
      "shield": 2450,
      "creature": 2451,
      "carry": 2452,
      "ELLA": 2453,
      "ISAB": 2454,
      "church": 2455,
      "Blessed": 2456,
      "trespass": 2457,
      "ISABELLA": 2458,
      "Shi": 2459,
      "VI": 2460,
      "grow": 2461,
      "thri": 2462,
      "inno": 2463,
      "hest": 2464,
      "isha": 2465,
      "behind": 2466,
      "road": 2467,
      "hot": 2468,
      "advers": 2469,
      "breath": 2470,
      "app": 2471,
      "black": 2472,
      "Romeo": 2473,
      "Richard": 2474,
      "Hezekiah": 2475,
      "IL": 2476,
      "mit": 2477,
      "pest": 2478,
      "sur": 2479,
      "entered": 2480,
      "caused": 2481,
      "pride": 2482,
      "wherefore": 2483,
      "possession": 2484,
      "testimon": 2485,
      "Ac": 2486,
      "Ahi": 2487,
      "JUL": 2488,
      "Out": 2489,
      "nine": 2490,
      "forbid": 2491,
      "alle": 2492,
      "ament": 2493,
      "going": 2494,
      "worse": 2495,
      "lasting": 2496,
      "utterly": 2497,
      "profit": 2498,
      "IET": 2499,
      "Men": 2500,
      "ax": 2501,
      "dur": 2502,
      "season": 2503,
      "rule": 2504,
      "fold": 2505,
      "longer": 2506,
      "LAD": 2507,
      "flock": 2508,
      "NTES": 2509,
      "pardon": 2510,
      "LEONTES": 2511,
      "execut": 2512,
      "JULIET": 2513,
      "CE": 2514,
      "sworn": 2515,
      "heth": 2516,
      "erce": 2517,
      "lech": 2518,
      "feed": 2519,
      "poll": 2520,
      "bot": 2521,
      "eaten": 2522,
      "destruction": 2523,
      "burden": 2524,
      "Like": 2525,
      "measure": 2526,
      "Against": 2527,
      "Samaria": 2528,
      "BR": 2529,
      "ON": 2530,
      "ST": 2531,
      "bond": 2532,
      "eas": 2533,
      "ride": 2534,
      "soft": 2535,
      "thi": 2536,
      "hir": 2537,
      "ster": 2538,
      "suc": 2539,
      "spr": 2540,
      "seeing": 2541,
      "appro": 2542,
      "souls": 2543,
      "Neither": 2544,
      "52": 2545,
      "Asa": 2546,
      "Esa": 2547,
      "fresh": 2548,
      "ks": 2549,
      "rebe": 2550,
      "ingly": 2551,
      "became": 2552,
      "saved": 2553,
      "few": 2554,
      "poem": 2555,
      "womb": 2556,
      "standing": 2557,
      "countenance": 2558,
      "troubl": 2559,
      "Jonathan": 2560,
      "LADY": 2561,
      "CL": 2562,
      "Hen": 2563,
      "VOL": 2564,
      "Wi": 2565,
      "cend": 2566,
      "equ": 2567,
      "anc": 2568,
      "itself": 2569,
      "separ": 2570,
      "story": 2571,
      "ousin": 2572,
      "ims": 2573,
      "ughter": 2574,
      "ENCE": 2575,
      "tribes": 2576,
      "devise": 2577,
      "generations": 2578,
      "THE": 2579,
      "learn": 2580,
      "Earth": 2581,
      "mortal": 2582,
      "ather": 2583,
      "pent": 2584,
      "win": 2585,
      "hem": 2586,
      "chance": 2587,
      "rage": 2588,
      "loo": 2589,
      "spel": 2590,
      "subur": 2591,
      "sacrifi": 2592,
      "gotten": 2593,
      "Cressida": 2594,
      "Citiz": 2595,
      "Ven": 2596,
      "obed": 2597,
      "removed": 2598,
      "tom": 2599,
      "ached": 2600,
      "moon": 2601,
      "Before": 2602,
      "descri": 2603,
      "garments": 2604,
      "choose": 2605,
      "captains": 2606,
      "flowers": 2607,
      "Assyria": 2608,
      "Az": 2609,
      "SIC": 2610,
      "firm": 2611,
      "wept": 2612,
      "withal": 2613,
      "goodness": 2614,
      "others": 2615,
      "scorn": 2616,
      "generation": 2617,
      "viney": 2618,
      "suburbs": 2619,
      "Are": 2620,
      "Ca": 2621,
      "office": 2622,
      "saide": 2623,
      "shepherd": 2624,
      "plague": 2625,
      "common": 2626,
      "vict": 2627,
      "lament": 2628,
      "SICINIUS": 2629,
      "Bal": 2630,
      "Gile": 2631,
      "eve": 2632,
      "ging": 2633,
      "gird": 2634,
      "arise": 2635,
      "usion": 2636,
      "seemed": 2637,
      "ishment": 2638,
      "exceed": 2639,
      "chariots": 2640,
      "knoweth": 2641,
      "patience": 2642,
      "suddenly": 2643,
      "bul": 2644,
      "fit": 2645,
      "fro": 2646,
      "itor": 2647,
      "star": 2648,
      "chol": 2649,
      "saints": 2650,
      "neck": 2651,
      "prey": 2652,
      "Did": 2653,
      "Master": 2654,
      "bas": 2655,
      "haz": 2656,
      "forget": 2657,
      "aled": 2658,
      "dire": 2659,
      "firstborn": 2660,
      "Jero": 2661,
      "burned": 2662,
      "Also": 2663,
      "promise": 2664,
      "GRE": 2665,
      "Gilead": 2666,
      "Eve": 2667,
      "ient": 2668,
      "nest": 2669,
      "aside": 2670,
      "stir": 2671,
      "liber": 2672,
      "loss": 2673,
      "ilke": 2674,
      "knowest": 2675,
      "cience": 2676,
      "wax": 2677,
      "reproach": 2678,
      "zzar": 2679,
      "heavy": 2680,
      "anointed": 2681,
      "dif": 2682,
      "fre": 2683,
      "nant": 2684,
      "root": 2685,
      "ceit": 2686,
      "lived": 2687,
      "ady": 2688,
      "says": 2689,
      "iful": 2690,
      "afterward": 2691,
      "exalt": 2692,
      "hurt": 2693,
      "Ex": 2694,
      "Right": 2695,
      "ben": 2696,
      "sim": 2697,
      "issu": 2698,
      "dec": 2699,
      "herself": 2700,
      "aketh": 2701,
      "greatly": 2702,
      "cloth": 2703,
      "report": 2704,
      "declare": 2705,
      "LUCIO": 2706,
      "Henry": 2707,
      "Har": 2708,
      "York": 2709,
      "phat": 2710,
      "ues": 2711,
      "thick": 2712,
      "ator": 2713,
      "cease": 2714,
      "weak": 2715,
      "gospel": 2716,
      "rous": 2717,
      "everlasting": 2718,
      "mbly": 2719,
      "medi": 2720,
      "remnant": 2721,
      "increase": 2722,
      "eag": 2723,
      "flood": 2724,
      "line": 2725,
      "pite": 2726,
      "sn": 2727,
      "abroad": 2728,
      "Through": 2729,
      "wherewith": 2730,
      "canst": 2731,
      "excell": 2732,
      "itting": 2733,
      "Whose": 2734,
      "subject": 2735,
      "azar": 2736,
      "Baal": 2737,
      "Ah": 2738,
      "cou": 2739,
      "ror": 2740,
      "table": 2741,
      "wing": 2742,
      "edge": 2743,
      "army": 2744,
      "salom": 2745,
      "ode": 2746,
      "arer": 2747,
      "committed": 2748,
      "merch": 2749,
      "Absalom": 2750,
      "clear": 2751,
      "angels": 2752,
      "jealous": 2753,
      "oxen": 2754,
      "bullock": 2755,
      "linen": 2756,
      "Speak": 2757,
      "aiah": 2758,
      "ming": 2759,
      "stor": 2760,
      "unless": 2761,
      "derer": 2762,
      "woulde": 2763,
      "contr": 2764,
      "fourth": 2765,
      "appeared": 2766,
      "Nebu": 2767,
      "distress": 2768,
      "Both": 2769,
      "Eng": 2770,
      "Ghost": 2771,
      "Him": 2772,
      "Ju": 2773,
      "Would": 2774,
      "athe": 2775,
      "han": 2776,
      "ners": 2777,
      "rant": 2778,
      "tal": 2779,
      "zer": 2780,
      "idols": 2781,
      "lip": 2782,
      "alway": 2783,
      "ained": 2784,
      "feel": 2785,
      "makes": 2786,
      "condem": 2787,
      "boy": 2788,
      "perse": 2789,
      "foe": 2790,
      "merc": 2791,
      "sible": 2792,
      "close": 2793,
      "kindness": 2794,
      "ETH": 2795,
      "deeds": 2796,
      "skin": 2797,
      "consumed": 2798,
      "vanity": 2799,
      "Edom": 2800,
      "Gree": 2801,
      "Phar": 2802,
      "due": 2803,
      "fought": 2804,
      "gon": 2805,
      "late": 2806,
      "phi": 2807,
      "thin": 2808,
      "regard": 2809,
      "add": 2810,
      "estate": 2811,
      "ordin": 2812,
      "fame": 2813,
      "shed": 2814,
      "ignor": 2815,
      "longe": 2816,
      "justice": 2817,
      "ELIZ": 2818,
      "rememb": 2819,
      "ABETH": 2820,
      "ELIZABETH": 2821,
      "),": 2822,
      "Lu": 2823,
      "langu": 2824,
      "mas": 2825,
      "melech": 2826,
      "stars": 2827,
      "ilk": 2828,
      "quest": 2829,
      "parts": 2830,
      "preach": 2831,
      "honest": 2832,
      "breadth": 2833,
      "certainly": 2834,
      "fruits": 2835,
      "elles": 2836,
      "Jeroboam": 2837,
      ",<": 2838,
      "IAN": 2839,
      "bor": 2840,
      "cousin": 2841,
      "liness": 2842,
      "sor": 2843,
      "ug": 2844,
      "stu": 2845,
      "ries": 2846,
      "Godde": 2847,
      "famine": 2848,
      "prepare": 2849,
      "weeping": 2850,
      "glorious": 2851,
      "vengeance": 2852,
      "mistress": 2853,
      "Hast": 2854,
      "IA": 2855,
      "Po": 2856,
      "hum": 2857,
      "pa": 2858,
      "zed": 2859,
      "meth": 2860,
      "majest": 2861,
      "retch": 2862,
      "blow": 2863,
      "effect": 2864,
      "grass": 2865,
      "Jehoi": 2866,
      "pillars": 2867,
      "changed": 2868,
      "degree": 2869,
      ":*": 2870,
      "PER": 2871,
      "Ver": 2872,
      "tid": 2873,
      "vow": 2874,
      "beheld": 2875,
      "leaven": 2876,
      "weight": 2877,
      "lic": 2878,
      "sove": 2879,
      "caught": 2880,
      "letter": 2881,
      "folly": 2882,
      "govern": 2883,
      "cruel": 2884,
      "wrote": 2885,
      "Esau": 2886,
      "GE": 2887,
      "Mid": 2888,
      "Never": 2889,
      "tur": 2890,
      "iste": 2891,
      "wixt": 2892,
      "fault": 2893,
      "quire": 2894,
      "dili": 2895,
      "commit": 2896,
      "flour": 2897,
      "liveth": 2898,
      "lamb": 2899,
      "branches": 2900,
      "Egyptians": 2901,
      "Venus": 2902,
      "Pharise": 2903,
      "Bet": 2904,
      "Cor": 2905,
      "WAR": 2906,
      "WIC": 2907,
      "apost": 2908,
      "danger": 2909,
      "poured": 2910,
      "tw": 2911,
      "wal": 2912,
      "wish": 2913,
      "shar": 2914,
      "although": 2915,
      "verily": 2916,
      "goats": 2917,
      "lands": 2918,
      "ESS": 2919,
      "ladies": 2920,
      "walls": 2921,
      "Look": 2922,
      "majesty": 2923,
      "WARWIC": 2924,
      "WARWICK": 2925,
      "aam": 2926,
      "mus": 2927,
      "nought": 2928,
      "reck": 2929,
      "manne": 2930,
      "ury": 2931,
      "net": 2932,
      "prayed": 2933,
      "While": 2934,
      "devour": 2935,
      "promised": 2936,
      "Gibe": 2937,
      "Citizen": 2938,
      "sovereign": 2939,
      "Amen": 2940,
      "Dam": 2941,
      "Han": 2942,
      "Nurse": 2943,
      "emed": 2944,
      "sw": 2945,
      "oned": 2946,
      "waste": 2947,
      "ption": 2948,
      "urely": 2949,
      "whereof": 2950,
      "evening": 2951,
      "sentence": 2952,
      "venture": 2953,
      "Book": 2954,
      "consider": 2955,
      "HAM": 2956,
      "Woe": 2957,
      "shekels": 2958,
      "remembrance": 2959,
      "Make": 2960,
      "dish": 2961,
      "miss": 2962,
      "rebu": 2963,
      "savour": 2964,
      "rible": 2965,
      "logue": 2966,
      "doeth": 2967,
      "fierce": 2968,
      "lack": 2969,
      "acher": 2970,
      "aph": 2971,
      "Into": 2972,
      "Whom": 2973,
      "guard": 2974,
      "CAP": 2975,
      "threes": 2976,
      "Know": 2977,
      "ade": 2978,
      "cred": 2979,
      "fil": 2980,
      "oke": 2981,
      "height": 2982,
      "haps": 2983,
      "fection": 2984,
      "ably": 2985,
      "strang": 2986,
      "tained": 2987,
      "garment": 2988,
      "ULET": 2989,
      "palace": 2990,
      "fury": 2991,
      "affliction": 2992,
      "CAPULET": 2993,
      "Gad": 2994,
      "Under": 2995,
      "nour": 2996,
      "named": 2997,
      "tion": 2998,
      "wand": 2999,
      "ane": 3000,
      "lde": 3001,
      "weal": 3002,
      "wast": 3003,
      "buy": 3004,
      "married": 3005,
      "Almighty": 3006,
      "compan": 3007,
      "leness": 3008,
      "request": 3009,
      "cherub": 3010,
      "Ahab": 3011,
      "quiet": 3012,
      "Ele": 3013,
      "MIO": 3014,
      "Pe": 3015,
      "Should": 3016,
      "dy": 3017,
      "iv": 3018,
      "path": 3019,
      "heir": 3020,
      "heap": 3021,
      "orde": 3022,
      "stro": 3023,
      "aye": 3024,
      "feared": 3025,
      "wheel": 3026,
      "ils": 3027,
      "ility": 3028,
      "worshi": 3029,
      "proceed": 3030,
      "privi": 3031,
      "founded": 3032,
      "clouds": 3033,
      "further": 3034,
      "threescore": 3035,
      "Cour": 3036,
      "UR": 3037,
      "faint": 3038,
      "gthen": 3039,
      "idence": 3040,
      "rivers": 3041,
      "rah": 3042,
      "faces": 3043,
      "household": 3044,
      "goodly": 3045,
      "chast": 3046,
      "fulfilled": 3047,
      "prophesy": 3048,
      "humble": 3049,
      "general": 3050,
      "flocks": 3051,
      "healed": 3052,
      "trumpet": 3053,
      "BUC": 3054,
      "MIL": 3055,
      "Pand": 3056,
      "PRO": 3057,
      "chad": 3058,
      "lers": 3059,
      "mi": 3060,
      "mod": 3061,
      "ision": 3062,
      "ari": 3063,
      "owen": 3064,
      "lah": 3065,
      "space": 3066,
      "proper": 3067,
      "bosom": 3068,
      "asses": 3069,
      "food": 3070,
      "angry": 3071,
      "broad": 3072,
      "daily": 3073,
      "vost": 3074,
      "eyen": 3075,
      "Reub": 3076,
      "KINGHAM": 3077,
      "Amor": 3078,
      "gentleman": 3079,
      "hills": 3080,
      "villain": 3081,
      "drunken": 3082,
      "UTUS": 3083,
      "Roman": 3084,
      "BRUTUS": 3085,
      "Nebuchad": 3086,
      "BUCKINGHAM": 3087,
      "Reuben": 3088,
      "BRO": 3089,
      "BOL": 3090,
      "Lest": 3091,
      "TRAN": 3092,
      "fount": 3093,
      "honey": 3094,
      "nat": 3095,
      "uf": 3096,
      "ashi": 3097,
      "beit": 3098,
      "ident": 3099,
      "loving": 3100,
      "compl": 3101,
      "knows": 3102,
      "loveth": 3103,
      "account": 3104,
      "possible": 3105,
      "tenth": 3106,
      "INGBRO": 3107,
      "Chalde": 3108,
      "griev": 3109,
      "eternal": 3110,
      "Daniel": 3111,
      "governor": 3112,
      "troubled": 3113,
      "BOLINGBRO": 3114,
      "TRANIO": 3115,
      "BOLINGBROKE": 3116,
      "Mon": 3117,
      "Surely": 3118,
      "cation": 3119,
      "dance": 3120,
      "pale": 3121,
      "forsa": 3122,
      "uncle": 3123,
      "ourselves": 3124,
      "deceit": 3125,
      "alas": 3126,
      "solem": 3127,
      "lame": 3128,
      "resto": 3129,
      "acts": 3130,
      "seems": 3131,
      "truly": 3132,
      "except": 3133,
      "broke": 3134,
      "bloody": 3135,
      "dwelling": 3136,
      "lambs": 3137,
      "beyond": 3138,
      "trumpe": 3139,
      "drive": 3140,
      "slaughter": 3141,
      "cross": 3142,
      "birth": 3143,
      "tidings": 3144,
      "55": 3145,
      "Dis": 3146,
      "Ge": 3147,
      "Lady": 3148,
      "Pri": 3149,
      "TIS": 3150,
      "nay": 3151,
      "py": 3152,
      "taste": 3153,
      "ises": 3154,
      "hah": 3155,
      "step": 3156,
      "forward": 3157,
      "shape": 3158,
      "dig": 3159,
      "spear": 3160,
      "olde": 3161,
      "telle": 3162,
      "created": 3163,
      "marve": 3164,
      "brake": 3165,
      "clothed": 3166,
      "continually": 3167,
      "swift": 3168,
      "testimony": 3169,
      "Fear": 3170,
      "Mad": 3171,
      "NE": 3172,
      "aniah": 3173,
      "atone": 3174,
      "aries": 3175,
      "leaves": 3176,
      "sojour": 3177,
      "adise": 3178,
      "necess": 3179,
      "doors": 3180,
      "pot": 3181,
      "acles": 3182,
      "shoulde": 3183,
      "cius": 3184,
      "bade": 3185,
      "burning": 3186,
      "slept": 3187,
      "charged": 3188,
      "judged": 3189,
      "maiden": 3190,
      "mischief": 3191,
      "Jehosha": 3192,
      "Syri": 3193,
      "tarry": 3194,
      "Pharisees": 3195,
      "GAR": 3196,
      "Ke": 3197,
      "Pal": 3198,
      "Sel": 3199,
      "furn": 3200,
      "ive": 3201,
      "iment": 3202,
      "shou": 3203,
      "ench": 3204,
      "search": 3205,
      "lean": 3206,
      "former": 3207,
      "ush": 3208,
      "mali": 3209,
      "ilty": 3210,
      "ruler": 3211,
      "divided": 3212,
      "messengers": 3213,
      "violence": 3214,
      "MARGAR": 3215,
      "MARGARET": 3216,
      "78": 3217,
      "ATH": 3218,
      "Gali": 3219,
      "throw": 3220,
      "incl": 3221,
      "sevent": 3222,
      "stretched": 3223,
      "liar": 3224,
      "alm": 3225,
      "giving": 3226,
      "likewise": 3227,
      "wallow": 3228,
      "scatte": 3229,
      "pitched": 3230,
      "CAL": 3231,
      "hearkened": 3232,
      "reverence": 3233,
      "arence": 3234,
      "gift": 3235,
      "Jehoshaphat": 3236,
      "Ger": 3237,
      "Mine": 3238,
      "Qu": 3239,
      "Simon": 3240,
      "Thir": 3241,
      "ae": 3242,
      "cking": 3243,
      "kin": 3244,
      "sware": 3245,
      "tit": 3246,
      "thilke": 3247,
      "tow": 3248,
      "eness": 3249,
      "armed": 3250,
      "oked": 3251,
      "perform": 3252,
      "certes": 3253,
      "preser": 3254,
      "armour": 3255,
      "shortly": 3256,
      "59": 3257,
      "HOR": 3258,
      "Sal": 3259,
      "Zi": 3260,
      "crow": 3261,
      "ding": 3262,
      "pour": 3263,
      "sitting": 3264,
      "arus": 3265,
      "forn": 3266,
      "wels": 3267,
      "weary": 3268,
      "already": 3269,
      "ares": 3270,
      "ural": 3271,
      "doct": 3272,
      "ague": 3273,
      "quar": 3274,
      "apti": 3275,
      "cially": 3276,
      "ANGE": 3277,
      "looks": 3278,
      "tents": 3279,
      "chariot": 3280,
      "teenth": 3281,
      "England": 3282,
      "solemn": 3283,
      "atonement": 3284,
      "ANGELO": 3285,
      ",)": 3286,
      "Ep": 3287,
      "Ram": 3288,
      "bind": 3289,
      "cand": 3290,
      "fish": 3291,
      "plo": 3292,
      "vant": 3293,
      "wist": 3294,
      "rew": 3295,
      "tood": 3296,
      "sepul": 3297,
      "nobl": 3298,
      "abode": 3299,
      "immedi": 3300,
      "speaking": 3301,
      "brook": 3302,
      "taketh": 3303,
      "somewhat": 3304,
      ".”*": 3305,
      "ARINA": 3306,
      "bringeth": 3307,
      "welcome": 3308,
      "Death": 3309,
      "bowed": 3310,
      "blame": 3311,
      "Syria": 3312,
      "hung": 3313,
      "quickly": 3314,
      "Clarence": 3315,
      "sacrifices": 3316,
      "sepulch": 3317,
      "54": 3318,
      "KATH": 3319,
      "sca": 3320,
      "recomp": 3321,
      "resol": 3322,
      "atin": 3323,
      "ung": 3324,
      "adul": 3325,
      "fig": 3326,
      "perhaps": 3327,
      "mbling": 3328,
      "speaketh": 3329,
      "bron": 3330,
      "shouldest": 3331,
      "exam": 3332,
      "joined": 3333,
      "sigh": 3334,
      "heavenly": 3335,
      "Arc": 3336,
      "Arise": 3337,
      "villages": 3338,
      "knees": 3339,
      "circumcised": 3340,
      "Withou": 3341,
      "KATHARINA": 3342,
      "Nature": 3343,
      "bapti": 3344,
      "cr": 3345,
      "cli": 3346,
      "gall": 3347,
      "twi": 3348,
      "yoke": 3349,
      "ziah": 3350,
      "thirst": 3351,
      "vey": 3352,
      "shake": 3353,
      "along": 3354,
      "ursed": 3355,
      "ference": 3356,
      "yours": 3357,
      "pluck": 3358,
      "Job": 3359,
      "courage": 3360,
      "images": 3361,
      "Marcius": 3362,
      "wont": 3363,
      "wroth": 3364,
      "drunk": 3365,
      "escape": 3366,
      "Elisha": 3367,
      "abundance": 3368,
      "satisfied": 3369,
      "strangers": 3370,
      "Pandarus": 3371,
      "Cam": 3372,
      "Gl": 3373,
      "Mary": 3374,
      "dut": 3375,
      "thorn": 3376,
      "inf": 3377,
      "revenge": 3378,
      "heat": 3379,
      "hire": 3380,
      "beam": 3381,
      "forgive": 3382,
      "sage": 3383,
      "lib": 3384,
      "manif": 3385,
      "aston": 3386,
      "Hebron": 3387,
      "pron": 3388,
      "cles": 3389,
      "empt": 3390,
      "betray": 3391,
      "lawful": 3392,
      "marry": 3393,
      "killed": 3394,
      "learned": 3395,
      "piece": 3396,
      "rising": 3397,
      "authority": 3398,
      "forsaken": 3399,
      "Every": 3400,
      "Fare": 3401,
      "RI": 3402,
      "aught": 3403,
      "sense": 3404,
      "rection": 3405,
      "cock": 3406,
      "lovers": 3407,
      "rulers": 3408,
      "Ish": 3409,
      "letters": 3410,
      "plan": 3411,
      "ESCAL": 3412,
      "substance": 3413,
      "strengthen": 3414,
      "suppli": 3415,
      "choice": 3416,
      "issue": 3417,
      "borne": 3418,
      "Verily": 3419,
      "Third": 3420,
      "ESCALUS": 3421,
      "53": 3422,
      "Es": 3423,
      "Ere": 3424,
      "Latin": 3425,
      "Sar": 3426,
      "ker": 3427,
      "kid": 3428,
      "mill": 3429,
      "sme": 3430,
      "yond": 3431,
      "ancient": 3432,
      "ouse": 3433,
      "envy": 3434,
      "member": 3435,
      "forsake": 3436,
      "rams": 3437,
      "adventure": 3438,
      "lying": 3439,
      "mag": 3440,
      "whore": 3441,
      "bride": 3442,
      "chem": 3443,
      "aving": 3444,
      "express": 3445,
      "guide": 3446,
      "pleasance": 3447,
      "friar": 3448,
      "blessing": 3449,
      "Among": 3450,
      "strife": 3451,
      "ative": 3452,
      "conscience": 3453,
      "streets": 3454,
      "persecut": 3455,
      "privily": 3456,
      "57": 3457,
      "Ang": 3458,
      "Bu": 3459,
      "Call": 3460,
      "Pray": 3461,
      "Zer": 3462,
      "dain": 3463,
      "fing": 3464,
      "sus": 3465,
      "vol": 3466,
      "reed": 3467,
      "arrow": 3468,
      "belly": 3469,
      "hish": 3470,
      "sack": 3471,
      "sop": 3472,
      "sover": 3473,
      "amon": 3474,
      "loins": 3475,
      "doom": 3476,
      "concl": 3477,
      "spare": 3478,
      "flower": 3479,
      "abomination": 3480,
      "abominations": 3481,
      "escaped": 3482,
      "multiply": 3483,
      "established": 3484,
      "equal": 3485,
      "Juli": 3486,
      "trumpets": 3487,
      "immediately": 3488,
      "56": 3489,
      "AU": 3490,
      "DUCH": 3491,
      "Im": 3492,
      "cun": 3493,
      "ew": 3494,
      "fain": 3495,
      "ior": 3496,
      "rin": 3497,
      "tune": 3498,
      "ugh": 3499,
      "ating": 3500,
      "hall": 3501,
      "meek": 3502,
      "roar": 3503,
      "room": 3504,
      "idle": 3505,
      "liken": 3506,
      "almost": 3507,
      "ester": 3508,
      "iling": 3509,
      "does": 3510,
      "consent": 3511,
      "antly": 3512,
      "join": 3513,
      "stands": 3514,
      "Jeri": 3515,
      "counter": 3516,
      "Art": 3517,
      "remem": 3518,
      "signs": 3519,
      "ficers": 3520,
      "passover": 3521,
      "Thomas": 3522,
      "scarce": 3523,
      "horns": 3524,
      "liberty": 3525,
      "leavened": 3526,
      "Selah": 3527,
      "scattered": 3528,
      "doctr": 3529,
      "DUCHESS": 3530,
      "France": 3531,
      "gg": 3532,
      "ible": 3533,
      "non": 3534,
      "tho": 3535,
      "thrust": 3536,
      "owers": 3537,
      "hated": 3538,
      "wordes": 3539,
      "serpent": 3540,
      "offence": 3541,
      "cheth": 3542,
      "mighte": 3543,
      "thousands": 3544,
      "withoute": 3545,
      "fields": 3546,
      "following": 3547,
      "suff": 3548,
      "traitor": 3549,
      "divine": 3550,
      "divide": 3551,
      "interpret": 3552,
      "defiled": 3553,
      "farewell": 3554,
      "patient": 3555,
      "innocent": 3556,
      "Eleazar": 3557,
      "pronoun": 3558,
      "Mur": 3559,
      "Save": 3560,
      "Ti": 3561,
      "Uzz": 3562,
      "dess": 3563,
      "swallow": 3564,
      "’,": 3565,
      "inward": 3566,
      "inner": 3567,
      "officers": 3568,
      "enjoy": 3569,
      "iter": 3570,
      "ket": 3571,
      "upward": 3572,
      "thereon": 3573,
      "doing": 3574,
      "quaint": 3575,
      "akes": 3576,
      "boast": 3577,
      "unders": 3578,
      "disp": 3579,
      "blem": 3580,
      "dominion": 3581,
      "silence": 3582,
      "Levi": 3583,
      "months": 3584,
      "Leb": 3585,
      "statute": 3586,
      "instruments": 3587,
      "Paradise": 3588,
      "Angelo": 3589,
      "summer": 3590,
      "fowl": 3591,
      "treasure": 3592,
      "fetch": 3593,
      "vineyard": 3594,
      "Amorites": 3595,
      "Galilee": 3596,
      "FRI": 3597,
      "bought": 3598,
      "thunder": 3599,
      "erc": 3600,
      "err": 3601,
      "asphe": 3602,
      "sever": 3603,
      "mel": 3604,
      "lew": 3605,
      "ley": 3606,
      "loves": 3607,
      "yourself": 3608,
      "hadde": 3609,
      "proclaim": 3610,
      "blue": 3611,
      "guess": 3612,
      "charity": 3613,
      "spirits": 3614,
      "virgin": 3615,
      "CAMIL": 3616,
      "redeem": 3617,
      "plied": 3618,
      "birds": 3619,
      "gifts": 3620,
      "decree": 3621,
      "Lebanon": 3622,
      "CAMILLO": 3623,
      "Bes": 3624,
      "Car": 3625,
      "Des": 3626,
      "Em": 3627,
      "Great": 3628,
      "Pl": 3629,
      "flight": 3630,
      "iers": 3631,
      "ians": 3632,
      "iced": 3633,
      "ost": 3634,
      "reach": 3635,
      "onour": 3636,
      "lieth": 3637,
      "making": 3638,
      "faire": 3639,
      "suit": 3640,
      "prover": 3641,
      "Bethe": 3642,
      "cheek": 3643,
      ",**": 3644,
      "harvest": 3645,
      "drin": 3646,
      "kindled": 3647,
      "bodies": 3648,
      "Elijah": 3649,
      "Provost": 3650,
      "aired": 3651,
      "craft": 3652,
      "Angel": 3653,
      "Micha": 3654,
      "messenger": 3655,
      "fifth": 3656,
      "rebell": 3657,
      "exalted": 3658,
      "Nevertheless": 3659,
      "worshipped": 3660,
      "FRIAR": 3661,
      "60": 3662,
      "Cy": 3663,
      "Hel": 3664,
      "Sen": 3665,
      "TEN": 3666,
      "aim": 3667,
      "ias": 3668,
      "ton": 3669,
      "anced": 3670,
      "tower": 3671,
      "loth": 3672,
      "teeth": 3673,
      "laugh": 3674,
      "chambers": 3675,
      "igned": 3676,
      "blasphe": 3677,
      "temper": 3678,
      "tables": 3679,
      "rank": 3680,
      "despised": 3681,
      "captive": 3682,
      "colour": 3683,
      "eagle": 3684,
      "HORTEN": 3685,
      "smell": 3686,
      "cunning": 3687,
      "HORTENS": 3688,
      "66": 3689,
      "Uri": 3690,
      "epeth": 3691,
      "main": 3692,
      "sides": 3693,
      "trow": 3694,
      "record": 3695,
      "remove": 3696,
      "hail": 3697,
      "stud": 3698,
      "leg": 3699,
      "ilence": 3700,
      "ateth": 3701,
      "nago": 3702,
      "hearing": 3703,
      "shine": 3704,
      "trium": 3705,
      "gues": 3706,
      "kindred": 3707,
      "synago": 3708,
      "gladness": 3709,
      "despise": 3710,
      "virtuous": 3711,
      "driven": 3712,
      "occas": 3713,
      "Court": 3714,
      "doctrine": 3715,
      "HORTENSIO": 3716,
      ",'": 3717,
      "COM": 3718,
      "EY": 3719,
      "High": 3720,
      "PTIS": 3721,
      "Sax": 3722,
      "eved": 3723,
      "fed": 3724,
      "mu": 3725,
      "pu": 3726,
      "paint": 3727,
      "sort": 3728,
      "tread": 3729,
      "uge": 3730,
      "wretched": 3731,
      "remed": 3732,
      "hap": 3733,
      "noon": 3734,
      "unes": 3735,
      "deter": 3736,
      "ada": 3737,
      "thereto": 3738,
      "fiery": 3739,
      "conc": 3740,
      "attend": 3741,
      "bands": 3742,
      "drawn": 3743,
      "Notes": 3744,
      "vali": 3745,
      "scribes": 3746,
      "Gentle": 3747,
      "BAPTIS": 3748,
      "apostles": 3749,
      "title": 3750,
      "blemish": 3751,
      "Bethel": 3752,
      "BAPTISTA": 3753,
      "AUT": 3754,
      "CUS": 3755,
      "YCUS": 3756,
      "dress": 3757,
      "fashi": 3758,
      "pat": 3759,
      "renow": 3760,
      "ede": 3761,
      "ited": 3762,
      "rode": 3763,
      "uted": 3764,
      "forest": 3765,
      "laud": 3766,
      "evermore": 3767,
      "provo": 3768,
      "Within": 3769,
      "tribut": 3770,
      "curtain": 3771,
      "honourable": 3772,
      "ileth": 3773,
      "habitation": 3774,
      "OLYCUS": 3775,
      "wonders": 3776,
      "stream": 3777,
      "redeemed": 3778,
      "devils": 3779,
      "mourn": 3780,
      "writing": 3781,
      "looking": 3782,
      "Midian": 3783,
      "Peace": 3784,
      "steps": 3785,
      "Palamon": 3786,
      "duty": 3787,
      "Farewell": 3788,
      "Anglo": 3789,
      "COMINIUS": 3790,
      "AUTOLYCUS": 3791,
      ".'": 3792,
      "milk": 3793,
      "tt": 3794,
      "enced": 3795,
      "hight": 3796,
      "start": 3797,
      "tery": 3798,
      "rue": 3799,
      "athar": 3800,
      "cian": 3801,
      "ARENCE": 3802,
      "voices": 3803,
      "game": 3804,
      "ication": 3805,
      "needs": 3806,
      "kingdoms": 3807,
      "winds": 3808,
      "tongues": 3809,
      "wondrous": 3810,
      "wounded": 3811,
      "ckets": 3812,
      "Abimelech": 3813,
      "torment": 3814,
      "sprink": 3815,
      "CLARENCE": 3816,
      "contrary": 3817,
      "language": 3818,
      "Damas": 3819,
      "Chaldeans": 3820,
      "manifest": 3821,
      "Saxon": 3822,
      "58": 3823,
      "Haz": 3824,
      "Lab": 3825,
      "MER": 3826,
      "Night": 3827,
      "PA": 3828,
      "Turn": 3829,
      "gay": 3830,
      "grown": 3831,
      "ny": 3832,
      "nes": 3833,
      "nurse": 3834,
      "pound": 3835,
      "rings": 3836,
      "isti": 3837,
      "ater": 3838,
      "ashes": 3839,
      "forgiven": 3840,
      "deceived": 3841,
      "uses": 3842,
      "adab": 3843,
      "lover": 3844,
      "orders": 3845,
      "cai": 3846,
      "spent": 3847,
      "Ash": 3848,
      "Shechem": 3849,
      "dwelleth": 3850,
      "suffered": 3851,
      "meaning": 3852,
      "pillar": 3853,
      "clerk": 3854,
      "mannere": 3855,
      "seventy": 3856,
      "remembered": 3857,
      ".)": 3858,
      "BEN": 3859,
      "Mac": 3860,
      "NOR": 3861,
      "Que": 3862,
      "Zed": 3863,
      "aunt": 3864,
      "cure": 3865,
      "dar": 3866,
      "dise": 3867,
      "latter": 3868,
      "pair": 3869,
      "try": 3870,
      "ina": 3871,
      "ining": 3872,
      "assu": 3873,
      "beli": 3874,
      "staff": 3875,
      "ghost": 3876,
      "lif": 3877,
      "liest": 3878,
      "arest": 3879,
      "wheat": 3880,
      "ilate": 3881,
      "plead": 3882,
      "poison": 3883,
      "whoso": 3884,
      "quite": 3885,
      "greate": 3886,
      "chase": 3887,
      "cians": 3888,
      "preached": 3889,
      "store": 3890,
      "position": 3891,
      "deny": 3892,
      "steal": 3893,
      "Reho": 3894,
      "sung": 3895,
      "supposed": 3896,
      "observe": 3897,
      "dreams": 3898,
      "Prologue": 3899,
      "valour": 3900,
      "provin": 3901,
      "blissful": 3902,
      "treasures": 3903,
      "Clown": 3904,
      "thief": 3905,
      "VOLIO": 3906,
      "mingled": 3907,
      "sharp": 3908,
      "cherubims": 3909,
      "natural": 3910,
      "sepulchre": 3911,
      "baptized": 3912,
      "Jericho": 3913,
      "MERC": 3914,
      "BENVOLIO": 3915,
      "65": 3916,
      "Bring": 3917,
      "Co": 3918,
      "Ni": 3919,
      "Put": 3920,
      "SPER": 3921,
      "bal": 3922,
      "blo": 3923,
      "cended": 3924,
      "een": 3925,
      "lend": 3926,
      "lines": 3927,
      "pil": 3928,
      "winter": 3929,
      "reap": 3930,
      "asmuch": 3931,
      "arrows": 3932,
      "ingale": 3933,
      "meant": 3934,
      "salt": 3935,
      "dealt": 3936,
      "raiment": 3937,
      "cost": 3938,
      "terrible": 3939,
      "sayn": 3940,
      "natheless": 3941,
      "prayers": 3942,
      "Abner": 3943,
      "besought": 3944,
      "human": 3945,
      "smitten": 3946,
      "Remember": 3947,
      "assembly": 3948,
      "Stand": 3949,
      "UMIO": 3950,
      "Servant": 3951,
      "soldiers": 3952,
      "GRUMIO": 3953,
      "OMP": 3954,
      "Balaam": 3955,
      "diligent": 3956,
      "PROSPER": 3957,
      "Syrians": 3958,
      "Arcite": 3959,
      "PROSPERO": 3960,
      "Kate": 3961,
      "UTIO": 3962,
      "bone": 3963,
      "mal": 3964,
      "ising": 3965,
      "ordained": 3966,
      "ctor": 3967,
      "knowing": 3968,
      "persons": 3969,
      "goods": 3970,
      "breathe": 3971,
      "flatter": 3972,
      "fulness": 3973,
      "glish": 3974,
      "sometimes": 3975,
      "opinion": 3976,
      "guilty": 3977,
      "deadly": 3978,
      "purple": 3979,
      "double": 3980,
      "Constance": 3981,
      "consume": 3982,
      "declared": 3983,
      "risen": 3984,
      "English": 3985,
      "fowls": 3986,
      "compassion": 3987,
      "sanctified": 3988,
      "sanctify": 3989,
      "Caes": 3990,
      "sorry": 3991,
      "fountain": 3992,
      "empty": 3993,
      "Murderer": 3994,
      "valiant": 3995,
      "Queen": 3996,
      "Zedekiah": 3997,
      "MERCUTIO": 3998,
      "69": 3999,
      "89": 4000,
      "Di": 4001,
      "Fo": 4002,
      "POMP": 4003,
      "Vir": 4004,
      "hours": 4005,
      "kins": 4006,
      "rout": 4007,
      "œus": 4008,
      "ank": 4009,
      "itions": 4010,
      "seest": 4011,
      "stain": 4012,
      "dew": 4013,
      "lied": 4014,
      "willing": 4015,
      "wholly": 4016,
      "achel": 4017,
      "offend": 4018,
      "earnest": 4019,
      "desired": 4020,
      "graven": 4021,
      "Jehu": 4022,
      "shri": 4023,
      "ships": 4024,
      "creep": 4025,
      "ANT": 4026,
      "counsell": 4027,
      "Abram": 4028,
      "refuge": 4029,
      "ashan": 4030,
      "Melib": 4031,
      "horsemen": 4032,
      "advise": 4033,
      "madam": 4034,
      "remained": 4035,
      "afflicted": 4036,
      "LUCENTIO": 4037,
      "desert": 4038,
      "pestilence": 4039,
      "durst": 4040,
      "obedience": 4041,
      "grievous": 4042,
      "Esther": 4043,
      "triumph": 4044,
      "occasion": 4045,
      "Damascus": 4046,
      "Melibœus": 4047,
      "Bashan": 4048,
      "Chi": 4049,
      "Hor": 4050,
      "Jan": 4051,
      "Morde": 4052,
      "Pet": 4053,
      "Pilate": 4054,
      "vice": 4055,
      "thes": 4056,
      "rend": 4057,
      "offi": 4058,
      "armes": 4059,
      "seiz": 4060,
      "beard": 4061,
      "roll": 4062,
      "ceased": 4063,
      "unleavened": 4064,
      "iding": 4065,
      "felt": 4066,
      "nezzar": 4067,
      "text": 4068,
      "woo": 4069,
      "thinges": 4070,
      "aker": 4071,
      "seeth": 4072,
      "holds": 4073,
      "spoiled": 4074,
      "confusion": 4075,
      "covering": 4076,
      "wedded": 4077,
      "despite": 4078,
      "touched": 4079,
      "LAND": 4080,
      "scribe": 4081,
      "mourning": 4082,
      "nakedness": 4083,
      "scarlet": 4084,
      "exceeding": 4085,
      "snare": 4086,
      "excellent": 4087,
      "question": 4088,
      "Nebuchadnezzar": 4089,
      "Keep": 4090,
      "remedy": 4091,
      "Mordecai": 4092,
      "</": 4093,
      "Hold": 4094,
      "IF": 4095,
      "IX": 4096,
      "Tales": 4097,
      "gence": 4098,
      "nah": 4099,
      "orig": 4100,
      "meon": 4101,
      "adown": 4102,
      "mankind": 4103,
      "thereby": 4104,
      "abhor": 4105,
      "confounded": 4106,
      "ular": 4107,
      "accompl": 4108,
      "afar": 4109,
      "perpet": 4110,
      "foundation": 4111,
      "warm": 4112,
      "guilt": 4113,
      "countries": 4114,
      "condition": 4115,
      "Canter": 4116,
      "smoke": 4117,
      "Herod": 4118,
      "strike": 4119,
      "covet": 4120,
      "ULINA": 4121,
      "murder": 4122,
      "obeyed": 4123,
      "endureth": 4124,
      "pursued": 4125,
      "understood": 4126,
      "PAULINA": 4127,
      "Na": 4128,
      "Prin": 4129,
      "ack": 4130,
      "aud": 4131,
      "bene": 4132,
      "eateth": 4133,
      "fan": 4134,
      "gal": 4135,
      "pub": 4136,
      "wake": 4137,
      "thro": 4138,
      "seal": 4139,
      "staves": 4140,
      "leep": 4141,
      "delay": 4142,
      "therewith": 4143,
      "goes": 4144,
      "doings": 4145,
      "tear": 4146,
      "mock": 4147,
      "handmaid": 4148,
      "akim": 4149,
      "mention": 4150,
      "istle": 4151,
      "divers": 4152,
      "answ": 4153,
      "Jew": 4154,
      "About": 4155,
      "treacher": 4156,
      "altars": 4157,
      "prophesi": 4158,
      "judges": 4159,
      "sickness": 4160,
      "UMN": 4161,
      "adversaries": 4162,
      "obedient": 4163,
      "GREMIO": 4164,
      "pilgri": 4165,
      "POMPEY": 4166,
      "Canterbury": 4167,
      "63": 4168,
      "Claud": 4169,
      "Mars": 4170,
      "Nun": 4171,
      "POL": 4172,
      "Ret": 4173,
      "kna": 4174,
      "rate": 4175,
      "heareth": 4176,
      "haw": 4177,
      "ution": 4178,
      "odom": 4179,
      "liver": 4180,
      "lions": 4181,
      "coat": 4182,
      "aming": 4183,
      "este": 4184,
      "abb": 4185,
      "ties": 4186,
      "Fortune": 4187,
      "respect": 4188,
      "proof": 4189,
      "ENES": 4190,
      "accus": 4191,
      "laws": 4192,
      "castle": 4193,
      "pier": 4194,
      "cedar": 4195,
      "possessed": 4196,
      "strait": 4197,
      "finished": 4198,
      "Serving": 4199,
      "script": 4200,
      "transgression": 4201,
      "increased": 4202,
      "Saying": 4203,
      "highest": 4204,
      "easy": 4205,
      "success": 4206,
      "VOLUMN": 4207,
      "IXENES": 4208,
      "POLIXENES": 4209,
      "VOLUMNIA": 4210,
      ".’": 4211,
      "BER": 4212,
      "Dame": 4213,
      "Hu": 4214,
      "James": 4215,
      "Kir": 4216,
      "Lond": 4217,
      "balt": 4218,
      "iour": 4219,
      "ieth": 4220,
      "matte": 4221,
      "pace": 4222,
      "reven": 4223,
      "ouch": 4224,
      "stable": 4225,
      "stretch": 4226,
      "chose": 4227,
      "cah": 4228,
      "conceived": 4229,
      "aged": 4230,
      "hadst": 4231,
      "complain": 4232,
      "persu": 4233,
      "Somp": 4234,
      "plu": 4235,
      "flu": 4236,
      "something": 4237,
      "harp": 4238,
      "liege": 4239,
      "view": 4240,
      "warrant": 4241,
      "treat": 4242,
      "INGS": 4243,
      "spot": 4244,
      "devot": 4245,
      "devoured": 4246,
      "goddess": 4247,
      "gentleness": 4248,
      "Noah": 4249,
      "Philo": 4250,
      "Only": 4251,
      "GON": 4252,
      "fools": 4253,
      "sixth": 4254,
      "iniquities": 4255,
      "Most": 4256,
      "refuse": 4257,
      "centio": 4258,
      "witnesses": 4259,
      "wounds": 4260,
      "Tybalt": 4261,
      "HAST": 4262,
      "beaten": 4263,
      "branch": 4264,
      "bottom": 4265,
      "jealousy": 4266,
      "ordinance": 4267,
      "Laban": 4268,
      "Servingman": 4269,
      "mattere": 4270,
      "HASTINGS": 4271,
      "68": 4272,
      ";)": 4273,
      "Away": 4274,
      "Each": 4275,
      "ID": 4276,
      "Lanc": 4277,
      "MO": 4278,
      "Miz": 4279,
      "Zad": 4280,
      "lower": 4281,
      "phy": 4282,
      "reel": 4283,
      "dep": 4284,
      "entering": 4285,
      "vert": 4286,
      "loose": 4287,
      "file": 4288,
      "peril": 4289,
      "foes": 4290,
      "exc": 4291,
      "Jez": 4292,
      "harden": 4293,
      "bearing": 4294,
      "lestick": 4295,
      "LAUR": 4296,
      "palm": 4297,
      "continue": 4298,
      "health": 4299,
      "lusty": 4300,
      "eleven": 4301,
      "Canaanites": 4302,
      "granted": 4303,
      "Those": 4304,
      "approach": 4305,
      "simple": 4306,
      "piteous": 4307,
      "wealth": 4308,
      "German": 4309,
      "proverb": 4310,
      "London": 4311,
      "Sompnour": 4312,
      "Lancaster": 4313,
      "LAURENCE": 4314,
      "!*": 4315,
      "62": 4316,
      "BY": 4317,
      "Gil": 4318,
      "Ko": 4319,
      "PR": 4320,
      "Rep": 4321,
      "Troy": 4322,
      "base": 4323,
      "mate": 4324,
      "mild": 4325,
      "ua": 4326,
      "thrown": 4327,
      "inte": 4328,
      "ariah": 4329,
      "belong": 4330,
      "forgotten": 4331,
      "hod": 4332,
      "entreat": 4333,
      "sockets": 4334,
      "mah": 4335,
      "ruin": 4336,
      "ending": 4337,
      "Hebre": 4338,
      "grew": 4339,
      "assent": 4340,
      "shoulder": 4341,
      "descend": 4342,
      "glass": 4343,
      "prevent": 4344,
      "harlot": 4345,
      "fearful": 4346,
      "Theseus": 4347,
      "armies": 4348,
      "Host": 4349,
      "Josiah": 4350,
      "Bethle": 4351,
      "talked": 4352,
      "Zebul": 4353,
      "coasts": 4354,
      "Shime": 4355,
      "Accord": 4356,
      "direct": 4357,
      "candlestick": 4358,
      "nobles": 4359,
      "suffering": 4360,
      "Fri": 4361,
      "GUE": 4362,
      "Whe": 4363,
      "Wor": 4364,
      "hunt": 4365,
      "oo": 4366,
      "puri": 4367,
      "snow": 4368,
      "score": 4369,
      "var": 4370,
      "vel": 4371,
      "sail": 4372,
      "holiness": 4373,
      "deceive": 4374,
      "sole": 4375,
      "amaz": 4376,
      "fiend": 4377,
      "consp": 4378,
      "quit": 4379,
      "sport": 4380,
      "lted": 4381,
      "board": 4382,
      "Beer": 4383,
      "greatest": 4384,
      "plent": 4385,
      "prevail": 4386,
      "hypo": 4387,
      "betwixt": 4388,
      "wert": 4389,
      "tali": 4390,
      "fruitful": 4391,
      "thinks": 4392,
      "Philip": 4393,
      "grieved": 4394,
      "asseth": 4395,
      "THUM": 4396,
      "rejoiced": 4397,
      "grove": 4398,
      "aliah": 4399,
      "dreadful": 4400,
      "kneel": 4401,
      "mirth": 4402,
      "Simeon": 4403,
      "Haman": 4404,
      "corrupt": 4405,
      "planted": 4406,
      "CLIF": 4407,
      "merciful": 4408,
      "Ishma": 4409,
      "whoredom": 4410,
      "NORTHUM": 4411,
      "BERLAND": 4412,
      "Zadok": 4413,
      "Bethlehem": 4414,
      "CLIFF": 4415,
      "NORTHUMBERLAND": 4416,
      "Neth": 4417,
      "Nathan": 4418,
      "Naph": 4419,
      "Sign": 4420,
      "ires": 4421,
      "umber": 4422,
      "vows": 4423,
      "whis": 4424,
      "wars": 4425,
      "rea": 4426,
      "atures": 4427,
      "ency": 4428,
      "befall": 4429,
      "rot": 4430,
      "idon": 4431,
      "rac": 4432,
      "urrection": 4433,
      "neg": 4434,
      "dog": 4435,
      "lace": 4436,
      "sayest": 4437,
      "proved": 4438,
      "illo": 4439,
      "chains": 4440,
      "cial": 4441,
      "oling": 4442,
      "namely": 4443,
      "ignation": 4444,
      "cleans": 4445,
      "Whoso": 4446,
      "shone": 4447,
      "vious": 4448,
      "Fame": 4449,
      "praised": 4450,
      "super": 4451,
      "assembled": 4452,
      "builded": 4453,
      "shore": 4454,
      "despair": 4455,
      "INCE": 4456,
      "towns": 4457,
      "awake": 4458,
      "higher": 4459,
      "appare": 4460,
      "Jehoiada": 4461,
      "rebuke": 4462,
      "wheels": 4463,
      "malice": 4464,
      "thorns": 4465,
      "likeness": 4466,
      ".<": 4467,
      "Ale": 4468,
      "Amale": 4469,
      "Apoll": 4470,
      "Ez": 4471,
      "Oh": 4472,
      "Val": 4473,
      "alike": 4474,
      "emer": 4475,
      "gend": 4476,
      "hin": 4477,
      "icles": 4478,
      "ns": 4479,
      "wave": 4480,
      "hallow": 4481,
      "lect": 4482,
      "lease": 4483,
      "rob": 4484,
      "weap": 4485,
      "sow": 4486,
      "amar": 4487,
      "fee": 4488,
      "cave": 4489,
      "rum": 4490,
      "ruth": 4491,
      "comple": 4492,
      "quer": 4493,
      "prob": 4494,
      "camels": 4495,
      "ephod": 4496,
      "passing": 4497,
      "price": 4498,
      "ANNE": 4499,
      "closed": 4500,
      "princi": 4501,
      "ical": 4502,
      "gran": 4503,
      "singing": 4504,
      "justified": 4505,
      "window": 4506,
      "masters": 4507,
      "numer": 4508,
      "corner": 4509,
      "advant": 4510,
      "glorified": 4511,
      "custom": 4512,
      "damsel": 4513,
      "confession": 4514,
      "victory": 4515,
      "talents": 4516,
      "philo": 4517,
      "ignorant": 4518,
      "determin": 4519,
      "prophesied": 4520,
      "Ishmael": 4521,
      "Amalek": 4522,
      "Ama": 4523,
      "Boling": 4524,
      "Clif": 4525,
      "Down": 4526,
      "Doth": 4527,
      "La": 4528,
      "Mes": 4529,
      "Praise": 4530,
      "Sodom": 4531,
      "ball": 4532,
      "bru": 4533,
      "borrow": 4534,
      "flame": 4535,
      "mut": 4536,
      "olive": 4537,
      "swo": 4538,
      "inj": 4539,
      "instead": 4540,
      "lle": 4541,
      "espe": 4542,
      "alo": 4543,
      "washed": 4544,
      "aded": 4545,
      "ables": 4546,
      "outward": 4547,
      "ety": 4548,
      "acheth": 4549,
      "worm": 4550,
      "perceive": 4551,
      "placed": 4552,
      "Whosoever": 4553,
      "Christi": 4554,
      "guest": 4555,
      "tempest": 4556,
      "farther": 4557,
      "repaired": 4558,
      "suffice": 4559,
      "confidence": 4560,
      "Spirits": 4561,
      "defend": 4562,
      "appearance": 4563,
      "Tyr": 4564,
      "punish": 4565,
      "punishment": 4566,
      "circumcision": 4567,
      "Mont": 4568,
      "Juliet": 4569,
      "interpretation": 4570,
      "Rehoboam": 4571,
      "PRINCE": 4572,
      "Naphtali": 4573,
      "Bolingbroke": 4574,
      "Clifford": 4575,
      "61": 4576,
      "64": 4577,
      "Bel": 4578,
      "Gre": 4579,
      "Messen": 4580,
      "SE": 4581,
      "Two": 4582,
      "bat": 4583,
      "bore": 4584,
      "cester": 4585,
      "dried": 4586,
      "fond": 4587,
      "lite": 4588,
      "nice": 4589,
      "schol": 4590,
      "tway": 4591,
      "ually": 4592,
      "inth": 4593,
      "reti": 4594,
      "seth": 4595,
      "sear": 4596,
      "weet": 4597,
      "goest": 4598,
      "tic": 4599,
      "compassed": 4600,
      "106": 4601,
      "sinners": 4602,
      "void": 4603,
      "Joash": 4604,
      "Anti": 4605,
      "counc": 4606,
      "parable": 4607,
      "suffi": 4608,
      "strive": 4609,
      "sky": 4610,
      "groan": 4611,
      "instruction": 4612,
      "transgressions": 4613,
      "hanging": 4614,
      "brief": 4615,
      "violent": 4616,
      "prosperity": 4617,
      "establish": 4618,
      "rudence": 4619,
      "Azariah": 4620,
      "Gibeah": 4621,
      "stroke": 4622,
      "aea": 4623,
      "twice": 4624,
      "Glou": 4625,
      "several": 4626,
      "fashion": 4627,
      "tribute": 4628,
      "Jezreel": 4629,
      "Signior": 4630,
      "Ara": 4631,
      "ALO": 4632,
      "Bl": 4633,
      "Eden": 4634,
      "Hitt": 4635,
      "Ind": 4636,
      "Jep": 4637,
      "Rachel": 4638,
      "Yes": 4639,
      "bough": 4640,
      "render": 4641,
      "ences": 4642,
      "enquire": 4643,
      "esy": 4644,
      "ascend": 4645,
      "leis": 4646,
      "nose": 4647,
      "vex": 4648,
      "roof": 4649,
      "sacred": 4650,
      "hop": 4651,
      "rious": 4652,
      "popul": 4653,
      "agree": 4654,
      "acquaint": 4655,
      "quis": 4656,
      "bowels": 4657,
      "lets": 4658,
      "wouldest": 4659,
      "emplo": 4660,
      "begun": 4661,
      "creatures": 4662,
      "Shema": 4663,
      "clothing": 4664,
      "Howbeit": 4665,
      "counted": 4666,
      "waves": 4667,
      "younger": 4668,
      "middle": 4669,
      "truely": 4670,
      "replied": 4671,
      "visions": 4672,
      "needeth": 4673,
      "scatter": 4674,
      "travail": 4675,
      "bush": 4676,
      "penit": 4677,
      "vailed": 4678,
      "floor": 4679,
      "transl": 4680,
      "prisoner": 4681,
      "freely": 4682,
      "herds": 4683,
      "captives": 4684,
      "measured": 4685,
      "waited": 4686,
      "desolation": 4687,
      "afflict": 4688,
      "Made": 4689,
      "hanged": 4690,
      "thrive": 4691,
      "shout": 4692,
      "preserve": 4693,
      "Emily": 4694,
      "perpetual": 4695,
      "especially": 4696,
      "employ": 4697,
      "Ano": 4698,
      "Ged": 4699,
      "Just": 4700,
      "Must": 4701,
      "Te": 4702,
      "fle": 4703,
      "oak": 4704,
      "pull": 4705,
      "psal": 4706,
      "sig": 4707,
      "inst": 4708,
      "reli": 4709,
      "edom": 4710,
      "debt": 4711,
      "keepeth": 4712,
      "feit": 4713,
      "herb": 4714,
      "tered": 4715,
      "tim": 4716,
      "ache": 4717,
      "greet": 4718,
      "indignation": 4719,
      "ptist": 4720,
      "offended": 4721,
      "discer": 4722,
      "Jesse": 4723,
      "dage": 4724,
      "vile": 4725,
      "wail": 4726,
      "appet": 4727,
      "windows": 4728,
      "gladly": 4729,
      "Samson": 4730,
      "believeth": 4731,
      "posts": 4732,
      "Baptist": 4733,
      "defence": 4734,
      "henceforth": 4735,
      "multiplied": 4736,
      "walking": 4737,
      "dishonour": 4738,
      "provoke": 4739,
      "origin": 4740,
      "Kohath": 4741,
      "According": 4742,
      "(“": 4743,
      "73": 4744,
      "Cer": 4745,
      "Cap": 4746,
      "LOR": 4747,
      "Nab": 4748,
      "biah": 4749,
      "cul": 4750,
      "dung": 4751,
      "fis": 4752,
      "fron": 4753,
      "hort": 4754,
      "kest": 4755,
      "sland": 4756,
      "skill": 4757,
      "til": 4758,
      "chron": 4759,
      "lia": 4760,
      "upper": 4761,
      "aret": 4762,
      "female": 4763,
      "goat": 4764,
      "fixed": 4765,
      "const": 4766,
      "aches": 4767,
      "moth": 4768,
      "105": 4769,
      "holden": 4770,
      "dim": 4771,
      "Being": 4772,
      "cio": 4773,
      "whereon": 4774,
      "mond": 4775,
      "begu": 4776,
      "shrew": 4777,
      "coulde": 4778,
      "slow": 4779,
      "supper": 4780,
      "presented": 4781,
      "toucheth": 4782,
      "corners": 4783,
      "eastward": 4784,
      "banish": 4785,
      "require": 4786,
      "Angels": 4787,
      "safety": 4788,
      "bondage": 4789,
      "drop": 4790,
      "TALE": 4791,
      "girdle": 4792,
      "mercies": 4793,
      "Gibeon": 4794,
      "paths": 4795,
      "Madam": 4796,
      "necessity": 4797,
      "adultery": 4798,
      "finger": 4799,
      "sackcloth": 4800,
      "renown": 4801,
      "Zebulun": 4802,
      "philosop": 4803,
      "Messenger": 4804,
      "Gloucester": 4805,
      "leisure": 4806,
      "Ai": 4807,
      "Ap": 4808,
      "BO": 4809,
      "FID": 4810,
      "FLOR": 4811,
      "Lot": 4812,
      "Ox": 4813,
      "Pers": 4814,
      "bars": 4815,
      "borders": 4816,
      "drown": 4817,
      "iest": 4818,
      "och": 4819,
      "passeth": 4820,
      "uth": 4821,
      "wend": 4822,
      "threat": 4823,
      "reated": 4824,
      "ening": 4825,
      "assay": 4826,
      "sequ": 4827,
      "bears": 4828,
      "mere": 4829,
      "leap": 4830,
      "defile": 4831,
      "lius": 4832,
      "alter": 4833,
      "amiss": 4834,
      "pear": 4835,
      "willingly": 4836,
      "abs": 4837,
      "doest": 4838,
      "sheba": 4839,
      "aces": 4840,
      "moment": 4841,
      "affection": 4842,
      "bothe": 4843,
      "plate": 4844,
      "commun": 4845,
      "commend": 4846,
      "Jebus": 4847,
      "cleave": 4848,
      "vices": 4849,
      "Shepherd": 4850,
      "praises": 4851,
      "towards": 4852,
      "books": 4853,
      "sorrowful": 4854,
      "building": 4855,
      "sitteth": 4856,
      "murmur": 4857,
      "murderer": 4858,
      "revealed": 4859,
      "Paris": 4860,
      "rers": 4861,
      "tempted": 4862,
      "hunger": 4863,
      "provoked": 4864,
      "Comm": 4865,
      "colours": 4866,
      "bullocks": 4867,
      "IZEL": 4868,
      "vineyards": 4869,
      "Quoth": 4870,
      "beams": 4871,
      "AUFID": 4872,
      "rebellious": 4873,
      "synagogue": 4874,
      "Caesar": 4875,
      "public": 4876,
      "Whether": 4877,
      "apparel": 4878,
      "FLORIZEL": 4879,
      "AUFIDIUS": 4880,
      "71": 4881,
      "Ethi": 4882,
      "Gers": 4883,
      "Gide": 4884,
      "Hag": 4885,
      "None": 4886,
      "Pom": 4887,
      "Wel": 4888,
      "bours": 4889,
      "cat": 4890,
      "don": 4891,
      "irest": 4892,
      "lst": 4893,
      "pan": 4894,
      "sion": 4895,
      "swords": 4896,
      "sits": 4897,
      "thed": 4898,
      "ination": 4899,
      "oni": 4900,
      "orge": 4901,
      "eds": 4902,
      "asleep": 4903,
      "arri": 4904,
      "argu": 4905,
      "beware": 4906,
      "members": 4907,
      "unknown": 4908,
      "allow": 4909,
      "sachar": 4910,
      "rib": 4911,
      "lots": 4912,
      "whir": 4913,
      "terror": 4914,
      "Gods": 4915,
      "sund": 4916,
      "ults": 4917,
      "Issachar": 4918,
      "resurrection": 4919,
      "spices": 4920,
      "107": 4921,
      "seeketh": 4922,
      "seemeth": 4923,
      "fatherless": 4924,
      "overcome": 4925,
      "Asher": 4926,
      "hastily": 4927,
      "ext": 4928,
      "exper": 4929,
      "ION": 4930,
      "hent": 4931,
      "standeth": 4932,
      "reading": 4933,
      "buck": 4934,
      "besie": 4935,
      "warn": 4936,
      "joyful": 4937,
      "icing": 4938,
      "cuck": 4939,
      "visage": 4940,
      "grieve": 4941,
      "busy": 4942,
      "burst": 4943,
      "miser": 4944,
      "fellows": 4945,
      "courtesy": 4946,
      "barren": 4947,
      "comforted": 4948,
      "pardie": 4949,
      "passage": 4950,
      "straightway": 4951,
      "Barn": 4952,
      "separate": 4953,
      "shepherds": 4954,
      "ignorance": 4955,
      "istered": 4956,
      "dangerous": 4957,
      "walketh": 4958,
      "marvell": 4959,
      "yonder": 4960,
      "Gentleman": 4961,
      "Nichol": 4962,
      "beneath": 4963,
      "Claudio": 4964,
      "Ethiop": 4965,
      "!'": 4966,
      "\">": 4967,
      "*;": 4968,
      "Che": 4969,
      "Tr": 4970,
      "cen": 4971,
      "scho": 4972,
      "ume": 4973,
      "real": 4974,
      "uni": 4975,
      "uncircumcised": 4976,
      "week": 4977,
      "withstanding": 4978,
      "causes": 4979,
      "laure": 4980,
      "gives": 4981,
      "perceived": 4982,
      "dign": 4983,
      "greatness": 4984,
      "Thine": 4985,
      "expect": 4986,
      "dismay": 4987,
      "clam": 4988,
      "Judaea": 4989,
      "highness": 4990,
      "tremble": 4991,
      "ERS": 4992,
      "waxed": 4993,
      "godly": 4994,
      "spiritual": 4995,
      "stronger": 4996,
      "sorrows": 4997,
      "crying": 4998,
      "imagin": 4999,
      "refused": 5000,
      "rung": 5001,
      "measures": 5002,
      "uncleanness": 5003,
      "Ahaz": 5004,
      "deserved": 5005,
      "clerkes": 5006,
      "shekel": 5007,
      "oppressed": 5008,
      "polluted": 5009,
      "Balak": 5010,
      "freshe": 5011,
      "storm": 5012,
      "thinketh": 5013,
      "turneth": 5014,
      "reckon": 5015,
      "Epistle": 5016,
      "supplication": 5017,
      "Senator": 5018,
      "study": 5019,
      "January": 5020,
      "amazed": 5021,
      "advantage": 5022,
      "determined": 5023,
      "Christian": 5024,
      "Another": 5025,
      "74": 5026,
      "Ber": 5027,
      "Cast": 5028,
      "CIUS": 5029,
      "Knight": 5030,
      "Ner": 5031,
      "Pho": 5032,
      "Pad": 5033,
      "Pard": 5034,
      "Red": 5035,
      "Wilt": 5036,
      "bite": 5037,
      "eigh": 5038,
      "ib": 5039,
      "match": 5040,
      "pin": 5041,
      "paren": 5042,
      "sang": 5043,
      "tles": 5044,
      "”,": 5045,
      "anah": 5046,
      "renew": 5047,
      "orous": 5048,
      "seas": 5049,
      "secre": 5050,
      "bere": 5051,
      "bell": 5052,
      "stin": 5053,
      "saint": 5054,
      "hook": 5055,
      "dered": 5056,
      "abound": 5057,
      "contain": 5058,
      "consec": 5059,
      "poore": 5060,
      "asted": 5061,
      "comest": 5062,
      "worst": 5063,
      "molt": 5064,
      "boards": 5065,
      "naught": 5066,
      "charac": 5067,
      "Think": 5068,
      "avent": 5069,
      "avest": 5070,
      "prime": 5071,
      "prevailed": 5072,
      "bald": 5073,
      "steel": 5074,
      "grand": 5075,
      "famous": 5076,
      "tail": 5077,
      "jected": 5078,
      "lamps": 5079,
      "gentlemen": 5080,
      "dreamed": 5081,
      "Benaiah": 5082,
      "brave": 5083,
      "camest": 5084,
      "matters": 5085,
      "chariah": 5086,
      "cruci": 5087,
      "demand": 5088,
      "Zechariah": 5089,
      "pursue": 5090,
      "MARCIUS": 5091,
      "BAST": 5092,
      "lodged": 5093,
      "porch": 5094,
      "exceedingly": 5095,
      "longeth": 5096,
      "twain": 5097,
      "restore": 5098,
      "sojourn": 5099,
      "Sarah": 5100,
      "concub": 5101,
      "assured": 5102,
      "answering": 5103,
      "Return": 5104,
      "physi": 5105,
      "Shimei": 5106,
      "Montague": 5107,
      "SEBAST": 5108,
      "appetite": 5109,
      "eighth": 5110,
      "SEBASTIAN": 5111,
      "Apost": 5112,
      "Cher": 5113,
      "Long": 5114,
      "Many": 5115,
      "ape": 5116,
      "cate": 5117,
      "ii": 5118,
      "lu": 5119,
      "pine": 5120,
      "squ": 5121,
      "vil": 5122,
      "”)": 5123,
      "realm": 5124,
      "oureth": 5125,
      "token": 5126,
      "arr": 5127,
      "ita": 5128,
      "robe": 5129,
      "forbear": 5130,
      "wever": 5131,
      "iram": 5132,
      "hollow": 5133,
      "deare": 5134,
      "lier": 5135,
      "sober": 5136,
      "amb": 5137,
      "whel": 5138,
      "lap": 5139,
      "qual": 5140,
      "udes": 5141,
      "Three": 5142,
      "passion": 5143,
      "desir": 5144,
      "exerc": 5145,
      "fulfil": 5146,
      "accuse": 5147,
      "class": 5148,
      "speaks": 5149,
      "Judas": 5150,
      "lieve": 5151,
      "Christe": 5152,
      "Jove": 5153,
      "courts": 5154,
      "contra": 5155,
      "silent": 5156,
      "taking": 5157,
      "Norfolk": 5158,
      "needy": 5159,
      "bookes": 5160,
      "penance": 5161,
      "judgement": 5162,
      "groom": 5163,
      "Mean": 5164,
      "feasts": 5165,
      "profane": 5166,
      "troop": 5167,
      "embrace": 5168,
      "eighteen": 5169,
      "rush": 5170,
      "execute": 5171,
      "describe": 5172,
      "merchant": 5173,
      "condemn": 5174,
      "restored": 5175,
      "ckingham": 5176,
      "example": 5177,
      "Withoute": 5178,
      "Camillo": 5179,
      "Buckingham": 5180,
      "publ": 5181,
      "acknow": 5182,
      "Gilgal": 5183,
      "council": 5184,
      "Shemaiah": 5185,
      "sundry": 5186,
      ":)": 5187,
      ":”": 5188,
      "Br": 5189,
      "BION": 5190,
      "DEL": 5191,
      "Get": 5192,
      "HER": 5193,
      "Having": 5194,
      "Med": 5195,
      "Om": 5196,
      "Ped": 5197,
      "Sho": 5198,
      "Sav": 5199,
      "Tran": 5200,
      "bent": 5201,
      "cence": 5202,
      "ebus": 5203,
      "frow": 5204,
      "fret": 5205,
      "fenced": 5206,
      "gir": 5207,
      "gine": 5208,
      "kni": 5209,
      "native": 5210,
      "obl": 5211,
      "ping": 5212,
      "pah": 5213,
      "pains": 5214,
      "rs": 5215,
      "sour": 5216,
      "assa": 5217,
      "deb": 5218,
      "coward": 5219,
      "usur": 5220,
      "hers": 5221,
      "magi": 5222,
      "conce": 5223,
      "conside": 5224,
      "prospe": 5225,
      "apart": 5226,
      "shoulders": 5227,
      "whereby": 5228,
      "canon": 5229,
      "priv": 5230,
      "precept": 5231,
      "denied": 5232,
      "phan": 5233,
      "spoke": 5234,
      "fairs": 5235,
      "Seir": 5236,
      "dumb": 5237,
      "smooth": 5238,
      "heritage": 5239,
      "plainly": 5240,
      "bounds": 5241,
      "instrument": 5242,
      "Sinai": 5243,
      "heaviness": 5244,
      "Rich": 5245,
      "quired": 5246,
      "touching": 5247,
      "occup": 5248,
      "execution": 5249,
      "stories": 5250,
      "Hastings": 5251,
      "music": 5252,
      "digged": 5253,
      "fornication": 5254,
      "astonished": 5255,
      "painted": 5256,
      "audience": 5257,
      "throat": 5258,
      "various": 5259,
      "hypocr": 5260,
      "cleansed": 5261,
      "Amaziah": 5262,
      "front": 5263,
      "absence": 5264,
      "Phoebus": 5265,
      "BIONDEL": 5266,
      "BIONDELLO": 5267,
      "Far": 5268,
      "Hesh": 5269,
      "Res": 5270,
      "Sing": 5271,
      "Suf": 5272,
      "Vols": 5273,
      "ago": 5274,
      "boun": 5275,
      "ete": 5276,
      "gavest": 5277,
      "hue": 5278,
      "ttim": 5279,
      "zen": 5280,
      "”.": 5281,
      "ani": 5282,
      "ony": 5283,
      "ende": 5284,
      "espy": 5285,
      "aright": 5286,
      "sealed": 5287,
      "memor": 5288,
      "lepro": 5289,
      "idol": 5290,
      "lick": 5291,
      "adm": 5292,
      "lov": 5293,
      "theirs": 5294,
      "conquer": 5295,
      "pol": 5296,
      "selfe": 5297,
      "causeth": 5298,
      "import": 5299,
      "displeased": 5300,
      "clay": 5301,
      "grapes": 5302,
      "stoop": 5303,
      "aleb": 5304,
      "march": 5305,
      "Although": 5306,
      "repair": 5307,
      "ministered": 5308,
      "singers": 5309,
      "falsehood": 5310,
      "struck": 5311,
      "crowned": 5312,
      "continual": 5313,
      "barley": 5314,
      "advice": 5315,
      "churches": 5316,
      "urious": 5317,
      "Merari": 5318,
      "wanton": 5319,
      "corruption": 5320,
      "easily": 5321,
      "separated": 5322,
      "condemned": 5323,
      "Greek": 5324,
      "furnace": 5325,
      "strengthened": 5326,
      "Michael": 5327,
      "muche": 5328,
      "probably": 5329,
      "principal": 5330,
      "chronicles": 5331,
      "Oxford": 5332,
      "Gideon": 5333,
      "Nicholas": 5334,
      "molten": 5335,
      "crucified": 5336,
      "leprosy": 5337,
      "72": 5338,
      "AM": 5339,
      "Au": 5340,
      "AUM": 5341,
      "Fi": 5342,
      "Gath": 5343,
      "Lay": 5344,
      "Mah": 5345,
      "Obed": 5346,
      "Ph": 5347,
      "Prudence": 5348,
      "garet": 5349,
      "ifi": 5350,
      "kah": 5351,
      "wre": 5352,
      "revo": 5353,
      "isheth": 5354,
      "orah": 5355,
      "ensi": 5356,
      "encam": 5357,
      "befell": 5358,
      "sty": 5359,
      "stick": 5360,
      "limb": 5361,
      "riel": 5362,
      "altogether": 5363,
      "key": 5364,
      "ado": 5365,
      "upid": 5366,
      "whitt": 5367,
      "cap": 5368,
      "abas": 5369,
      "dove": 5370,
      "convers": 5371,
      "suck": 5372,
      "songs": 5373,
      "potent": 5374,
      "rude": 5375,
      "Forth": 5376,
      "reser": 5377,
      "worketh": 5378,
      "pertain": 5379,
      "peradventure": 5380,
      "illy": 5381,
      "overlaid": 5382,
      "privy": 5383,
      "cript": 5384,
      "sie": 5385,
      "lordship": 5386,
      "lightly": 5387,
      "baw": 5388,
      "eating": 5389,
      "worldly": 5390,
      "drank": 5391,
      "treason": 5392,
      "ERLE": 5393,
      "nevertheless": 5394,
      "fourteen": 5395,
      "fourscore": 5396,
      "subtle": 5397,
      "falsely": 5398,
      "iece": 5399,
      "trusted": 5400,
      "wedding": 5401,
      "receiveth": 5402,
      "Marry": 5403,
      "happiness": 5404,
      "calf": 5405,
      "knee": 5406,
      "Hearken": 5407,
      "repentance": 5408,
      "continued": 5409,
      "threw": 5410,
      "lodge": 5411,
      "region": 5412,
      "shields": 5413,
      "testimonies": 5414,
      "ONIO": 5415,
      "rebelled": 5416,
      "sacrificed": 5417,
      "benign": 5418,
      "merchants": 5419,
      "Lucentio": 5420,
      "stuff": 5421,
      "hungry": 5422,
      "lewd": 5423,
      "kinsman": 5424,
      "ANTONIO": 5425,
      "officer": 5426,
      "depth": 5427,
      "Tyrwhitt": 5428,
      "popular": 5429,
      "marvellous": 5430,
      "Heshbon": 5431,
      "AUMERLE": 5432,
      "80": 5433,
      "?*": 5434,
      "Bian": 5435,
      "Ce": 5436,
      "Came": 5437,
      "Cursed": 5438,
      "Ly": 5439,
      "Mat": 5440,
      "Maker": 5441,
      "Powers": 5442,
      "ZALO": 5443,
      "cret": 5444,
      "ip": 5445,
      "mat": 5446,
      "nit": 5447,
      "ninth": 5448,
      "oman": 5449,
      "shr": 5450,
      "xes": 5451,
      "reput": 5452,
      "ators": 5453,
      "hired": 5454,
      "forgot": 5455,
      "shade": 5456,
      "alli": 5457,
      "coals": 5458,
      "myr": 5459,
      "mage": 5460,
      "newe": 5461,
      "hound": 5462,
      "constra": 5463,
      "akest": 5464,
      "prote": 5465,
      "104": 5466,
      "139": 5467,
      "impossible": 5468,
      "pledge": 5469,
      "avo": 5470,
      "descended": 5471,
      "olan": 5472,
      "accursed": 5473,
      "voy": 5474,
      "stop": 5475,
      "Wherein": 5476,
      "trib": 5477,
      "trial": 5478,
      "falling": 5479,
      "trembling": 5480,
      "courte": 5481,
      "keeping": 5482,
      "mouths": 5483,
      "North": 5484,
      "twentieth": 5485,
      "doub": 5486,
      "rejoicing": 5487,
      "skins": 5488,
      "profess": 5489,
      "remaineth": 5490,
      "Ahaziah": 5491,
      "zeal": 5492,
      "steadfast": 5493,
      "neighbours": 5494,
      "Isaiah": 5495,
      "Tyre": 5496,
      "Sihon": 5497,
      "slave": 5498,
      "ministers": 5499,
      "cases": 5500,
      "damned": 5501,
      "Hamath": 5502,
      "rudent": 5503,
      "adversity": 5504,
      "looketh": 5505,
      "Jehoiakim": 5506,
      "governance": 5507,
      "diligence": 5508,
      "swore": 5509,
      "pronounce": 5510,
      "disease": 5511,
      "diligently": 5512,
      "covetous": 5513,
      "Kirj": 5514,
      "GONZALO": 5515,
      "Welcome": 5516,
      "whirl": 5517,
      "school": 5518,
      "AS": 5519,
      "Bro": 5520,
      "Caleb": 5521,
      "Dian": 5522,
      "Fe": 5523,
      "Gen": 5524,
      "Hence": 5525,
      "Jab": 5526,
      "Might": 5527,
      "SON": 5528,
      "Tit": 5529,
      "Tow": 5530,
      "bill": 5531,
      "cketh": 5532,
      "flies": 5533,
      "mity": 5534,
      "nge": 5535,
      "narrow": 5536,
      "pond": 5537,
      "paid": 5538,
      "powers": 5539,
      "scour": 5540,
      "tide": 5541,
      "uct": 5542,
      "thresh": 5543,
      "aned": 5544,
      "attain": 5545,
      "oram": 5546,
      "oracle": 5547,
      "llen": 5548,
      "lling": 5549,
      "bearer": 5550,
      "rodu": 5551,
      "rocks": 5552,
      "forso": 5553,
      "unjust": 5554,
      "utmost": 5555,
      "ripe": 5556,
      "aloud": 5557,
      "rained": 5558,
      "loh": 5559,
      "loos": 5560,
      "manus": 5561,
      "estim": 5562,
      "hateth": 5563,
      "uring": 5564,
      "feigned": 5565,
      "faults": 5566,
      "pome": 5567,
      "pover": 5568,
      "wol": 5569,
      "working": 5570,
      "iff": 5571,
      "spend": 5572,
      "boot": 5573,
      "ullam": 5574,
      "avail": 5575,
      "liketh": 5576,
      "exhort": 5577,
      "calls": 5578,
      "calleth": 5579,
      "earthly": 5580,
      "mony": 5581,
      "grain": 5582,
      "introdu": 5583,
      "besides": 5584,
      "tried": 5585,
      "tribul": 5586,
      "keeper": 5587,
      "ubba": 5588,
      ".**": 5589,
      "friendes": 5590,
      "minist": 5591,
      "ereth": 5592,
      "Unless": 5593,
      "obtained": 5594,
      "misery": 5595,
      "Elias": 5596,
      "Margaret": 5597,
      "happen": 5598,
      "petition": 5599,
      "finite": 5600,
      "cords": 5601,
      "wonderful": 5602,
      "uries": 5603,
      "tarried": 5604,
      "thrice": 5605,
      "lamentation": 5606,
      "wandering": 5607,
      "Ramah": 5608,
      "recompense": 5609,
      "Without": 5610,
      "magni": 5611,
      "scarcely": 5612,
      "knave": 5613,
      "excuse": 5614,
      "Apollo": 5615,
      "Pardon": 5616,
      "aventure": 5617,
      "Saviour": 5618,
      "encamped": 5619,
      "Bianca": 5620,
      "Abo": 5621,
      "Could": 5622,
      "CLA": 5623,
      "DIO": 5624,
      "Gaunt": 5625,
      "Ith": 5626,
      "Jed": 5627,
      "Lamb": 5628,
      "MI": 5629,
      "Mal": 5630,
      "Pur": 5631,
      "Send": 5632,
      "Tower": 5633,
      "UDIO": 5634,
      "Watch": 5635,
      "bud": 5636,
      "dart": 5637,
      "gat": 5638,
      "hth": 5639,
      "mption": 5640,
      "prudent": 5641,
      "tled": 5642,
      "tum": 5643,
      "ued": 5644,
      "umb": 5645,
      "wretch": 5646,
      "isle": 5647,
      "stam": 5648,
      "league": 5649,
      "irmed": 5650,
      "however": 5651,
      "uten": 5652,
      "solon": 5653,
      "adorn": 5654,
      "pel": 5655,
      "pered": 5656,
      "younge": 5657,
      "absent": 5658,
      "geon": 5659,
      "comb": 5660,
      "ets": 5661,
      "achi": 5662,
      "chio": 5663,
      "spit": 5664,
      "motion": 5665,
      "goode": 5666,
      "moreover": 5667,
      "pled": 5668,
      "plains": 5669,
      "ishing": 5670,
      "extre": 5671,
      "parted": 5672,
      "jolly": 5673,
      "nightingale": 5674,
      "Absolon": 5675,
      "foundations": 5676,
      "warned": 5677,
      "falleth": 5678,
      "carcase": 5679,
      "guise": 5680,
      "Anon": 5681,
      "Rebe": 5682,
      "husbands": 5683,
      "maidens": 5684,
      "obtain": 5685,
      "entertain": 5686,
      "palaces": 5687,
      "groves": 5688,
      "running": 5689,
      "secure": 5690,
      "calam": 5691,
      "stayed": 5692,
      "familiar": 5693,
      "transgressed": 5694,
      "hinder": 5695,
      "sabbaths": 5696,
      "dedic": 5697,
      "troth": 5698,
      "punished": 5699,
      "anguish": 5700,
      "journeyed": 5701,
      "accepted": 5702,
      "firmament": 5703,
      "Greeks": 5704,
      "Better": 5705,
      "MIONE": 5706,
      "quarrel": 5707,
      "creeping": 5708,
      "Petru": 5709,
      "accomplished": 5710,
      "Prince": 5711,
      "devotion": 5712,
      "hardened": 5713,
      "CLIFFORD": 5714,
      "sufficient": 5715,
      "laurel": 5716,
      "dismayed": 5717,
      "HERMIONE": 5718,
      "oblation": 5719,
      "memorial": 5720,
      "siege": 5721,
      "forsook": 5722,
      "CLAUDIO": 5723,
      "Athen": 5724,
      "Auf": 5725,
      "Bath": 5726,
      "DA": 5727,
      "Dar": 5728,
      "Either": 5729,
      "Grise": 5730,
      "Hilk": 5731,
      "House": 5732,
      "JO": 5733,
      "Ken": 5734,
      "bag": 5735,
      "brow": 5736,
      "catch": 5737,
      "fts": 5738,
      "frown": 5739,
      "glo": 5740,
      "lain": 5741,
      "mould": 5742,
      "males": 5743,
      "pha": 5744,
      "swell": 5745,
      "scept": 5746,
      "twas": 5747,
      "twere": 5748,
      "torn": 5749,
      "tales": 5750,
      "uc": 5751,
      "wan": 5752,
      "wag": 5753,
      "inv": 5754,
      "recover": 5755,
      "hend": 5756,
      "attempt": 5757,
      "ona": 5758,
      "llo": 5759,
      "enquired": 5760,
      "aseth": 5761,
      "semb": 5762,
      "beth": 5763,
      "mem": 5764,
      "stub": 5765,
      "lever": 5766,
      "lebr": 5767,
      "celebr": 5768,
      "idue": 5769,
      "idius": 5770,
      "lily": 5771,
      "sown": 5772,
      "Thebes": 5773,
      "ads": 5774,
      "pey": 5775,
      "feather": 5776,
      "therewithal": 5777,
      "goings": 5778,
      "dogs": 5779,
      "contem": 5780,
      "contempt": 5781,
      "convey": 5782,
      "sugg": 5783,
      "rub": 5784,
      "ruled": 5785,
      "residue": 5786,
      "afford": 5787,
      "ephah": 5788,
      "Too": 5789,
      "immortal": 5790,
      "disput": 5791,
      "discover": 5792,
      "dissol": 5793,
      "glut": 5794,
      "access": 5795,
      "clad": 5796,
      "blew": 5797,
      "lordes": 5798,
      "lighted": 5799,
      "elder": 5800,
      "tyrant": 5801,
      "tellen": 5802,
      "rested": 5803,
      "contro": 5804,
      "kindly": 5805,
      "pping": 5806,
      "purse": 5807,
      "smart": 5808,
      "youngest": 5809,
      "midnight": 5810,
      "jewels": 5811,
      "minds": 5812,
      "minded": 5813,
      "pitch": 5814,
      "testify": 5815,
      "Leah": 5816,
      "sleeping": 5817,
      "played": 5818,
      "shot": 5819,
      "Hereford": 5820,
      "consul": 5821,
      "advised": 5822,
      "revel": 5823,
      "fication": 5824,
      "safely": 5825,
      "breasts": 5826,
      "brim": 5827,
      "Micah": 5828,
      "action": 5829,
      "visited": 5830,
      "porters": 5831,
      "abundantly": 5832,
      "oppression": 5833,
      "RANDA": 5834,
      "Asaph": 5835,
      "victual": 5836,
      "girded": 5837,
      "afterwards": 5838,
      "piteously": 5839,
      "preaching": 5840,
      "humility": 5841,
      "resolved": 5842,
      "Carmel": 5843,
      "curtains": 5844,
      "scripture": 5845,
      "plucked": 5846,
      "Beersheba": 5847,
      "Trans": 5848,
      "parents": 5849,
      "Tranio": 5850,
      "froward": 5851,
      "Richmond": 5852,
      "manuscript": 5853,
      "pomegran": 5854,
      "MIRANDA": 5855,
      "Petruchio": 5856,
      "Aufidius": 5857,
      "Griseld": 5858,
      "Hilkiah": 5859,
      "86": 5860,
      "Grace": 5861,
      "HN": 5862,
      "Over": 5863,
      "Sa": 5864,
      "Set": 5865,
      "TES": 5866,
      "True": 5867,
      "Ur": 5868,
      "adeth": 5869,
      "bend": 5870,
      "big": 5871,
      "cust": 5872,
      "iolan": 5873,
      "liter": 5874,
      "pare": 5875,
      "phr": 5876,
      "tin": 5877,
      "xte": 5878,
      "yard": 5879,
      "za": 5880,
      "thie": 5881,
      "anti": 5882,
      "influ": 5883,
      "rejected": 5884,
      "ism": 5885,
      "ato": 5886,
      "begotten": 5887,
      "beforn": 5888,
      "leaf": 5889,
      "legs": 5890,
      "soci": 5891,
      "raven": 5892,
      "loaves": 5893,
      "fairest": 5894,
      "fires": 5895,
      "sheth": 5896,
      "pomp": 5897,
      "timber": 5898,
      "comfor": 5899,
      "resist": 5900,
      "spy": 5901,
      "prose": 5902,
      "affairs": 5903,
      "109": 5904,
      "dieth": 5905,
      "specially": 5906,
      "chest": 5907,
      "sayings": 5908,
      "sire": 5909,
      "firste": 5910,
      "firstfruits": 5911,
      "marquis": 5912,
      "purchase": 5913,
      "ission": 5914,
      "friendly": 5915,
      "cleanse": 5916,
      "single": 5917,
      "suppose": 5918,
      "Until": 5919,
      "tabernacles": 5920,
      "counsels": 5921,
      "presently": 5922,
      "straw": 5923,
      "woeful": 5924,
      "inhabited": 5925,
      "inhabitant": 5926,
      "Philistine": 5927,
      "beautiful": 5928,
      "fatal": 5929,
      "glorify": 5930,
      "soldier": 5931,
      "miracles": 5932,
      "repented": 5933,
      "Women": 5934,
      "abideth": 5935,
      "kissed": 5936,
      "trodden": 5937,
      "BAL": 5938,
      "pretty": 5939,
      "acceptable": 5940,
      "Shiloh": 5941,
      "bonds": 5942,
      "springs": 5943,
      "poems": 5944,
      "diffic": 5945,
      "bridegroom": 5946,
      "pronounced": 5947,
      "Help": 5948,
      "sprinkle": 5949,
      "rotten": 5950,
      "Apostle": 5951,
      "knife": 5952,
      "JOHN": 5953,
      "memory": 5954,
      "77": 5955,
      "Day": 5956,
      "Dra": 5957,
      "Dep": 5958,
      "Jup": 5959,
      "Mr": 5960,
      "Part": 5961,
      "Tars": 5962,
      "ael": 5963,
      "fla": 5964,
      "kam": 5965,
      "rhy": 5966,
      "tun": 5967,
      "task": 5968,
      "uce": 5969,
      "’.": 5970,
      "tha": 5971,
      "invent": 5972,
      "heel": 5973,
      "heave": 5974,
      "isles": 5975,
      "erst": 5976,
      "tol": 5977,
      "tomb": 5978,
      "haught": 5979,
      "asen": 5980,
      "aring": 5981,
      "itudes": 5982,
      "beareth": 5983,
      "meal": 5984,
      "sakes": 5985,
      "deput": 5986,
      "liqu": 5987,
      "Thee": 5988,
      "wasted": 5989,
      "amend": 5990,
      "pected": 5991,
      "hatred": 5992,
      "makest": 5993,
      "fav": 5994,
      "fact": 5995,
      "ardy": 5996,
      "antas": 5997,
      "ifer": 5998,
      "chival": 5999,
      "process": 6000,
      "performed": 6001,
      "cia": 6002,
      "cile": 6003,
      "putteth": 6004,
      "mede": 6005,
      "prehend": 6006,
      "blest": 6007,
      "brings": 6008,
      "bringing": 6009,
      "Abisha": 6010,
      "muste": 6011,
      "Whither": 6012,
      "Sheba": 6013,
      "attent": 6014,
      "pleasing": 6015,
      "horrible": 6016,
      "purvey": 6017,
      "steward": 6018,
      "cured": 6019,
      "curious": 6020,
      "openly": 6021,
      "visible": 6022,
      "confirm": 6023,
      "salute": 6024,
      "Adoni": 6025,
      "covereth": 6026,
      "disciple": 6027,
      "uttermost": 6028,
      "cares": 6029,
      "brightness": 6030,
      "princely": 6031,
      "advanced": 6032,
      "value": 6033,
      "teaching": 6034,
      "westward": 6035,
      "fifteen": 6036,
      "degrees": 6037,
      "profitable": 6038,
      "succeed": 6039,
      "Wife": 6040,
      "stumble": 6041,
      "Coriolan": 6042,
      "mixed": 6043,
      "figure": 6044,
      "miller": 6045,
      "whoredoms": 6046,
      "feeble": 6047,
      "Jephth": 6048,
      "Gedaliah": 6049,
      "fishes": 6050,
      "slander": 6051,
      "Pompey": 6052,
      "dignity": 6053,
      "character": 6054,
      "loosed": 6055,
      "poverty": 6056,
      "suggest": 6057,
      "Coriolanus": 6058,
      "*:": 6059,
      "Ach": 6060,
      "Bre": 6061,
      "Gaz": 6062,
      "Zidon": 6063,
      "bab": 6064,
      "blot": 6065,
      "cart": 6066,
      "fth": 6067,
      "gest": 6068,
      "gins": 6069,
      "lat": 6070,
      "mite": 6071,
      "ration": 6072,
      "soun": 6073,
      "swine": 6074,
      "sloth": 6075,
      "silly": 6076,
      "vid": 6077,
      "vast": 6078,
      "anno": 6079,
      "inct": 6080,
      "rebel": 6081,
      "rezzar": 6082,
      "release": 6083,
      "erus": 6084,
      "tops": 6085,
      "asunder": 6086,
      "mead": 6087,
      "melt": 6088,
      "stature": 6089,
      "leas": 6090,
      "rolled": 6091,
      "forced": 6092,
      "cel": 6093,
      "hol": 6094,
      "del": 6095,
      "decre": 6096,
      "alty": 6097,
      "sov": 6098,
      "myst": 6099,
      "terr": 6100,
      "sue": 6101,
      "suerus": 6102,
      "quake": 6103,
      "quench": 6104,
      "chide": 6105,
      "sprung": 6106,
      "prologue": 6107,
      "prise": 6108,
      "gilead": 6109,
      "perfection": 6110,
      "Beware": 6111,
      "otherwise": 6112,
      "special": 6113,
      "chaste": 6114,
      "Asse": 6115,
      "whereas": 6116,
      "lovely": 6117,
      "discovered": 6118,
      "calling": 6119,
      "medit": 6120,
      "dais": 6121,
      "aleth": 6122,
      "guile": 6123,
      "pire": 6124,
      "humbled": 6125,
      "subdu": 6126,
      "ernal": 6127,
      "dragon": 6128,
      "maids": 6129,
      "mischance": 6130,
      "sixteen": 6131,
      "bids": 6132,
      "CATES": 6133,
      "Cons": 6134,
      "reasons": 6135,
      "skil": 6136,
      "shoes": 6137,
      "shook": 6138,
      "shows": 6139,
      "sicker": 6140,
      "calm": 6141,
      "Stay": 6142,
      "Ahasuerus": 6143,
      "churl": 6144,
      "knock": 6145,
      "knights": 6146,
      "valleys": 6147,
      "widows": 6148,
      "thanksgiving": 6149,
      "Abiathar": 6150,
      "badiah": 6151,
      "Egyptian": 6152,
      "adversary": 6153,
      "description": 6154,
      "winged": 6155,
      "humour": 6156,
      "rebuked": 6157,
      "villainy": 6158,
      "Nebuchadrezzar": 6159,
      "towers": 6160,
      "suspi": 6161,
      "Timo": 6162,
      "swallowed": 6163,
      "drinking": 6164,
      "province": 6165,
      "provinces": 6166,
      "seized": 6167,
      "original": 6168,
      "Persia": 6169,
      "exercise": 6170,
      "acknowledge": 6171,
      "cretion": 6172,
      "threshing": 6173,
      "estimation": 6174,
      "Jupiter": 6175,
      "Jephthah": 6176,
      "CATESBY": 6177,
      ",’": 6178,
      "88": 6179,
      "Aho": 6180,
      "Dor": 6181,
      "Eke": 6182,
      "Elam": 6183,
      "Mil": 6184,
      "Mag": 6185,
      "Mark": 6186,
      "Nine": 6187,
      "Nah": 6188,
      "Naz": 6189,
      "RIV": 6190,
      "Sweet": 6191,
      "Tir": 6192,
      "aware": 6193,
      "bly": 6194,
      "citiz": 6195,
      "dinner": 6196,
      "eft": 6197,
      "fir": 6198,
      "hud": 6199,
      "knit": 6200,
      "mart": 6201,
      "mile": 6202,
      "obe": 6203,
      "swer": 6204,
      "wench": 6205,
      "repe": 6206,
      "revi": 6207,
      "isance": 6208,
      "onia": 6209,
      "eral": 6210,
      "beha": 6211,
      "wither": 6212,
      "lewed": 6213,
      "veth": 6214,
      "vere": 6215,
      "shapen": 6216,
      "hole": 6217,
      "deem": 6218,
      "soil": 6219,
      "rable": 6220,
      "lore": 6221,
      "locust": 6222,
      "tering": 6223,
      "magn": 6224,
      "maked": 6225,
      "absol": 6226,
      "suret": 6227,
      "spite": 6228,
      "print": 6229,
      "118": 6230,
      "uded": 6231,
      "hereafter": 6232,
      "chapit": 6233,
      "overthrow": 6234,
      "event": 6235,
      "desper": 6236,
      "disdain": 6237,
      "discretion": 6238,
      "forthwith": 6239,
      "hearse": 6240,
      "soule": 6241,
      "nights": 6242,
      "graves": 6243,
      "emper": 6244,
      "tells": 6245,
      "sawest": 6246,
      "shun": 6247,
      "shining": 6248,
      "carp": 6249,
      "Alla": 6250,
      "grate": 6251,
      "Shaphan": 6252,
      "jection": 6253,
      "falcon": 6254,
      "helped": 6255,
      "sounded": 6256,
      "gross": 6257,
      "distur": 6258,
      "flowing": 6259,
      "bank": 6260,
      "requent": 6261,
      "required": 6262,
      "chers": 6263,
      "redemption": 6264,
      "hardly": 6265,
      "hairs": 6266,
      "secretly": 6267,
      "soothly": 6268,
      "bitterness": 6269,
      "during": 6270,
      "GREY": 6271,
      "difference": 6272,
      "honesty": 6273,
      "wander": 6274,
      "companions": 6275,
      "lovingkindness": 6276,
      "George": 6277,
      "thood": 6278,
      "cheeks": 6279,
      "Maced": 6280,
      "Follow": 6281,
      "fancy": 6282,
      "hawk": 6283,
      "Hebrew": 6284,
      "Gershon": 6285,
      "secrets": 6286,
      "Cherub": 6287,
      "considered": 6288,
      "conversation": 6289,
      "alliance": 6290,
      "Kirjath": 6291,
      "whirlwind": 6292,
      "Rebekah": 6293,
      "sceptre": 6294,
      "mystery": 6295,
      ":—": 6296,
      "Aure": 6297,
      "BIAN": 6298,
      "Cal": 6299,
      "Cain": 6300,
      "Creat": 6301,
      "Cupid": 6302,
      "Joram": 6303,
      "Kad": 6304,
      "Mus": 6305,
      "Pre": 6306,
      "Sub": 6307,
      "Still": 6308,
      "TY": 6309,
      "Zep": 6310,
      "batt": 6311,
      "cca": 6312,
      "dag": 6313,
      "fay": 6314,
      "iam": 6315,
      "jub": 6316,
      "lance": 6317,
      "lings": 6318,
      "nen": 6319,
      "niece": 6320,
      "pter": 6321,
      "uiah": 6322,
      "thigh": 6323,
      "inform": 6324,
      "represent": 6325,
      "andise": 6326,
      "island": 6327,
      "error": 6328,
      "ensed": 6329,
      "ases": 6330,
      "hie": 6331,
      "hidden": 6332,
      "itors": 6333,
      "beget": 6334,
      "behalf": 6335,
      "melod": 6336,
      "withered": 6337,
      "celest": 6338,
      "shaken": 6339,
      "unuch": 6340,
      "odd": 6341,
      "deaf": 6342,
      "lial": 6343,
      "rian": 6344,
      "alms": 6345,
      "kets": 6346,
      "rav": 6347,
      "owls": 6348,
      "aments": 6349,
      "yeth": 6350,
      "lock": 6351,
      "manners": 6352,
      "whilom": 6353,
      "fere": 6354,
      "herbs": 6355,
      "venom": 6356,
      "conne": 6357,
      "contri": 6358,
      "consol": 6359,
      "shen": 6360,
      "points": 6361,
      "tithes": 6362,
      "moving": 6363,
      "prolong": 6364,
      "102": 6365,
      "136": 6366,
      "chased": 6367,
      "brid": 6368,
      "brasen": 6369,
      "hearted": 6370,
      "ciple": 6371,
      "hasty": 6372,
      "sink": 6373,
      "design": 6374,
      "discourse": 6375,
      "party": 6376,
      "monk": 6377,
      "accused": 6378,
      "Jeshua": 6379,
      "eldest": 6380,
      "workers": 6381,
      "begins": 6382,
      "tyran": 6383,
      "betide": 6384,
      "stock": 6385,
      "Whence": 6386,
      "turning": 6387,
      "wisely": 6388,
      "sweete": 6389,
      "Itali": 6390,
      "hundreds": 6391,
      "kindle": 6392,
      "fourteenth": 6393,
      "smit": 6394,
      "Rejo": 6395,
      "honours": 6396,
      "scor": 6397,
      "fasting": 6398,
      "inius": 6399,
      "backward": 6400,
      "object": 6401,
      "corp": 6402,
      "Deliver": 6403,
      "etern": 6404,
      "Conf": 6405,
      "signify": 6406,
      "promises": 6407,
      "Legend": 6408,
      "shoot": 6409,
      "twelfth": 6410,
      "banished": 6411,
      "findeth": 6412,
      "Parson": 6413,
      "Bethshe": 6414,
      "abominable": 6415,
      "anointing": 6416,
      "provided": 6417,
      "breastplate": 6418,
      "Earl": 6419,
      "fetched": 6420,
      "innocence": 6421,
      "executed": 6422,
      "Likewise": 6423,
      "BRA": 6424,
      "diffe": 6425,
      "subjects": 6426,
      "merchandise": 6427,
      "Hananiah": 6428,
      "modern": 6429,
      "Priest": 6430,
      "sighs": 6431,
      "conclusion": 6432,
      "sprinkled": 6433,
      "darken": 6434,
      "belief": 6435,
      "Friar": 6436,
      "Ezra": 6437,
      "weapons": 6438,
      "Baptista": 6439,
      "Barnabas": 6440,
      "hooks": 6441,
      "Northumber": 6442,
      "thieves": 6443,
      "influence": 6444,
      "RIVERS": 6445,
      "surety": 6446,
      "carpenter": 6447,
      "BIANCA": 6448,
      "celestial": 6449,
      "Gan": 6450,
      "GAU": 6451,
      "Hort": 6452,
      "Min": 6453,
      "Mel": 6454,
      "Naam": 6455,
      "Open": 6456,
      "Pis": 6457,
      "Sup": 6458,
      "Tab": 6459,
      "Tim": 6460,
      "Vi": 6461,
      "aileth": 6462,
      "bath": 6463,
      "cations": 6464,
      "dun": 6465,
      "dition": 6466,
      "eunuch": 6467,
      "fantas": 6468,
      "gown": 6469,
      "kine": 6470,
      "link": 6471,
      "owe": 6472,
      "oah": 6473,
      "pow": 6474,
      "rt": 6475,
      "rash": 6476,
      "uced": 6477,
      "waked": 6478,
      "thread": 6479,
      "iny": 6480,
      "infinite": 6481,
      "seer": 6482,
      "sted": 6483,
      "stint": 6484,
      "forms": 6485,
      "forasmuch": 6486,
      "ungodly": 6487,
      "weig": 6488,
      "weather": 6489,
      "hom": 6490,
      "dey": 6491,
      "decei": 6492,
      "limit": 6493,
      "verted": 6494,
      "Them": 6495,
      "loqu": 6496,
      "locks": 6497,
      "cakes": 6498,
      "terms": 6499,
      "ability": 6500,
      "faction": 6501,
      "lake": 6502,
      "cken": 6503,
      "sust": 6504,
      "pool": 6505,
      "ulty": 6506,
      "spur": 6507,
      "undone": 6508,
      "perished": 6509,
      "perverse": 6510,
      "diverse": 6511,
      "ille": 6512,
      "ounty": 6513,
      "flaming": 6514,
      "joint": 6515,
      "bled": 6516,
      "undertake": 6517,
      "lights": 6518,
      "lightning": 6519,
      "harness": 6520,
      "shittim": 6521,
      "posing": 6522,
      "creet": 6523,
      "wailing": 6524,
      "steed": 6525,
      "Amnon": 6526,
      "drag": 6527,
      "train": 6528,
      "ELBO": 6529,
      "observ": 6530,
      "Levite": 6531,
      "Deep": 6532,
      "pressed": 6533,
      "Sirs": 6534,
      "Johan": 6535,
      "laboured": 6536,
      "skir": 6537,
      "prisoners": 6538,
      "desireth": 6539,
      "learning": 6540,
      "Baasha": 6541,
      "Bohem": 6542,
      "fellowship": 6543,
      "banishment": 6544,
      "madness": 6545,
      "instruct": 6546,
      "ctive": 6547,
      "Six": 6548,
      "deserve": 6549,
      "whithersoever": 6550,
      "=\"/": 6551,
      "speedily": 6552,
      "separation": 6553,
      "hazard": 6554,
      "companion": 6555,
      "Romans": 6556,
      "betrayed": 6557,
      "Uriah": 6558,
      "counsellors": 6559,
      "purify": 6560,
      "Valer": 6561,
      "numerable": 6562,
      "Arab": 6563,
      "boughs": 6564,
      "penitence": 6565,
      "discern": 6566,
      "cuckoo": 6567,
      "miserable": 6568,
      "bawd": 6569,
      "Titus": 6570,
      "Darius": 6571,
      "Nazareth": 6572,
      "Kadesh": 6573,
      "Northumberland": 6574,
      "GAUNT": 6575,
      "Hortensi": 6576,
      "ELBOW": 6577,
      "!--": 6578,
      "79": 6579,
      "91": 6580,
      "AGUE": 6581,
      "Cre": 6582,
      "Cler": 6583,
      "Dest": 6584,
      "Er": 6585,
      "Esh": 6586,
      "Ha": 6587,
      "Hark": 6588,
      "Kish": 6589,
      "Kathar": 6590,
      "LY": 6591,
      "Lac": 6592,
      "Mist": 6593,
      "Matt": 6594,
      "Sad": 6595,
      "Said": 6596,
      "Wr": 6597,
      "],": 6598,
      "cies": 6599,
      "dull": 6600,
      "danc": 6601,
      "eches": 6602,
      "gid": 6603,
      "ioun": 6604,
      "mast": 6605,
      "page": 6606,
      "plot": 6607,
      "tu": 6608,
      "thres": 6609,
      "infer": 6610,
      "infirm": 6611,
      "iser": 6612,
      "aspect": 6613,
      "sees": 6614,
      "uncover": 6615,
      "lix": 6616,
      "entire": 6617,
      "added": 6618,
      "urance": 6619,
      "outrage": 6620,
      "forehead": 6621,
      "fie": 6622,
      "pots": 6623,
      "ruly": 6624,
      "hadad": 6625,
      "woes": 6626,
      "woke": 6627,
      "protest": 6628,
      "bosheth": 6629,
      "seeking": 6630,
      "offspring": 6631,
      "breach": 6632,
      "breaking": 6633,
      "plagues": 6634,
      "prithee": 6635,
      "disport": 6636,
      "putting": 6637,
      "merit": 6638,
      "merri": 6639,
      "blows": 6640,
      "cries": 6641,
      "sometime": 6642,
      "intend": 6643,
      ",”*": 6644,
      "praying": 6645,
      "beholding": 6646,
      "creation": 6647,
      "create": 6648,
      "trembled": 6649,
      "courses": 6650,
      "prophecy": 6651,
      "huge": 6652,
      "market": 6653,
      "purge": 6654,
      "wickedly": 6655,
      "asons": 6656,
      "opening": 6657,
      "followers": 6658,
      "Sham": 6659,
      "scene": 6660,
      "pract": 6661,
      "appears": 6662,
      "ransom": 6663,
      "Canace": 6664,
      "throng": 6665,
      "imagine": 6666,
      "thanked": 6667,
      "testified": 6668,
      "reasonable": 6669,
      "multitudes": 6670,
      "Benhadad": 6671,
      "Shallum": 6672,
      "Lib": 6673,
      "deri": 6674,
      "reproof": 6675,
      "hardy": 6676,
      "Maac": 6677,
      "northward": 6678,
      "summon": 6679,
      "NTAGUE": 6680,
      "Compare": 6681,
      "Woman": 6682,
      "fraud": 6683,
      "stirred": 6684,
      "liberal": 6685,
      "freedom": 6686,
      "simil": 6687,
      "ordinances": 6688,
      "government": 6689,
      "Middle": 6690,
      "apostle": 6691,
      "mission": 6692,
      "chastity": 6693,
      "complaint": 6694,
      "Madame": 6695,
      "inclined": 6696,
      "preserved": 6697,
      "Ramoth": 6698,
      "fingers": 6699,
      "Uzziah": 6700,
      "Beseech": 6701,
      "Cyrus": 6702,
      "maintain": 6703,
      "patri": 6704,
      "believ": 6705,
      "pilgrimage": 6706,
      "MONTAGUE": 6707,
      "acquaintance": 6708,
      "employed": 6709,
      "reserved": 6710,
      "reputation": 6711,
      "tribunes": 6712,
      "tribulation": 6713,
      "tumult": 6714,
      "calamity": 6715,
      "dedicated": 6716,
      "glutton": 6717,
      "Macedonia": 6718,
      "melody": 6719,
      "Johanan": 6720,
      "Bohemia": 6721,
      "Hortensio": 6722,
      "67": 6723,
      "70": 6724,
      "81": 6725,
      "83": 6726,
      "94": 6727,
      "Char": 6728,
      "DI": 6729,
      "HO": 6730,
      "Korah": 6731,
      "Meth": 6732,
      "Mesh": 6733,
      "Rise": 6734,
      "Rabb": 6735,
      "Spen": 6736,
      "bis": 6737,
      "cion": 6738,
      "faste": 6739,
      "frank": 6740,
      "furious": 6741,
      "glean": 6742,
      "href": 6743,
      "lent": 6744,
      "lorn": 6745,
      "pers": 6746,
      "sly": 6747,
      "tort": 6748,
      "vit": 6749,
      "vouch": 6750,
      "anim": 6751,
      "inn": 6752,
      "tooth": 6753,
      "itary": 6754,
      "vexed": 6755,
      "weigh": 6756,
      "withdraw": 6757,
      "lime": 6758,
      "liament": 6759,
      "entrance": 6760,
      "aly": 6761,
      "usury": 6762,
      "adan": 6763,
      "mantle": 6764,
      "term": 6765,
      "thereth": 6766,
      "mach": 6767,
      "nether": 6768,
      "nets": 6769,
      "teless": 6770,
      "laug": 6771,
      "wholes": 6772,
      "ift": 6773,
      "greed": 6774,
      "mocked": 6775,
      "akers": 6776,
      "affect": 6777,
      "assurance": 6778,
      "fox": 6779,
      "bray": 6780,
      "avenge": 6781,
      "evident": 6782,
      "hasted": 6783,
      "wouldst": 6784,
      "flatte": 6785,
      "exact": 6786,
      "blast": 6787,
      "standard": 6788,
      "oppos": 6789,
      "beggar": 6790,
      "aseiah": 6791,
      "bai": 6792,
      "bapt": 6793,
      "trick": 6794,
      "ERD": 6795,
      "AND": 6796,
      "cedars": 6797,
      "purposed": 6798,
      "gray": 6799,
      "LOGUE": 6800,
      "Arnon": 6801,
      "Faith": 6802,
      "witch": 6803,
      "support": 6804,
      "Notwithstanding": 6805,
      "observed": 6806,
      "corre": 6807,
      "virgins": 6808,
      "crowns": 6809,
      "aius": 6810,
      "furlong": 6811,
      "advance": 6812,
      "lowly": 6813,
      "sisters": 6814,
      "waiting": 6815,
      "ointment": 6816,
      "southward": 6817,
      "temptation": 6818,
      "riding": 6819,
      "miracle": 6820,
      "poetry": 6821,
      "arent": 6822,
      "boldly": 6823,
      "Baruch": 6824,
      "satisfy": 6825,
      "VIR": 6826,
      "axe": 6827,
      "burdens": 6828,
      "waxen": 6829,
      "excellency": 6830,
      "couch": 6831,
      "Damian": 6832,
      "filth": 6833,
      "chastise": 6834,
      "modest": 6835,
      "crowd": 6836,
      "recompence": 6837,
      "Zeruiah": 6838,
      "dispers": 6839,
      "dispatch": 6840,
      "Plant": 6841,
      "fairer": 6842,
      "Nightingale": 6843,
      "whisper": 6844,
      "negli": 6845,
      "hallowed": 6846,
      "Hittite": 6847,
      "constant": 6848,
      "Command": 6849,
      "Padua": 6850,
      "debate": 6851,
      "private": 6852,
      "Phine": 6853,
      "Toward": 6854,
      "Above": 6855,
      "manuscripts": 6856,
      "phrase": 6857,
      "Depart": 6858,
      "deputy": 6859,
      "Adonijah": 6860,
      "jubile": 6861,
      "Italian": 6862,
      "Clerk": 6863,
      "Katharina": 6864,
      "derived": 6865,
      ");": 6866,
      "Amo": 6867,
      "Abel": 6868,
      "Chan": 6869,
      "Ephe": 6870,
      "Ga": 6871,
      "GIL": 6872,
      "Hail": 6873,
      "Hiv": 6874,
      "Ill": 6875,
      "IEL": 6876,
      "PAR": 6877,
      "Sco": 6878,
      "Suc": 6879,
      "Ter": 6880,
      "Zo": 6881,
      "awhile": 6882,
      "bah": 6883,
      "cing": 6884,
      "ccio": 6885,
      "eves": 6886,
      "rang": 6887,
      "sof": 6888,
      "vou": 6889,
      "wof": 6890,
      "zar": 6891,
      "reconc": 6892,
      "hears": 6893,
      "towed": 6894,
      "enmity": 6895,
      "becomes": 6896,
      "stances": 6897,
      "wet": 6898,
      "uttered": 6899,
      "rice": 6900,
      "riche": 6901,
      "riot": 6902,
      "solace": 6903,
      "rald": 6904,
      "colle": 6905,
      "uphr": 6906,
      "whit": 6907,
      "ilah": 6908,
      "saidst": 6909,
      "astro": 6910,
      "compe": 6911,
      "endured": 6912,
      "quen": 6913,
      "mote": 6914,
      "Soon": 6915,
      "imp": 6916,
      "plow": 6917,
      "bridle": 6918,
      "heartes": 6919,
      "avenged": 6920,
      "descent": 6921,
      "prepar": 6922,
      "otham": 6923,
      "reader": 6924,
      "stolen": 6925,
      "stopped": 6926,
      "crew": 6927,
      "keepers": 6928,
      "contend": 6929,
      "gaze": 6930,
      "remains": 6931,
      "smile": 6932,
      "subt": 6933,
      "submit": 6934,
      "cury": 6935,
      "conduct": 6936,
      "silk": 6937,
      "Chaos": 6938,
      "hushan": 6939,
      "Nebat": 6940,
      "duce": 6941,
      "berg": 6942,
      "strict": 6943,
      "sixty": 6944,
      "bowls": 6945,
      "covert": 6946,
      "centuri": 6947,
      "Bocca": 6948,
      "lowest": 6949,
      "hateful": 6950,
      "village": 6951,
      "lusts": 6952,
      "Maaseiah": 6953,
      "pasture": 6954,
      "ridge": 6955,
      "mourned": 6956,
      "rupt": 6957,
      "elect": 6958,
      "drove": 6959,
      "drops": 6960,
      "richess": 6961,
      "frame": 6962,
      "seasons": 6963,
      "benef": 6964,
      "floods": 6965,
      "PERDI": 6966,
      "dying": 6967,
      "PROLOGUE": 6968,
      "deceitful": 6969,
      "necessary": 6970,
      "climb": 6971,
      "volume": 6972,
      "counterfeit": 6973,
      "highte": 6974,
      "seize": 6975,
      "treacherously": 6976,
      "esteem": 6977,
      "bruise": 6978,
      "scholars": 6979,
      "Certes": 6980,
      "merely": 6981,
      "Jebusites": 6982,
      "arrived": 6983,
      "besieged": 6984,
      "precepts": 6985,
      "Fiend": 6986,
      "covetousness": 6987,
      "victuals": 6988,
      "Transcri": 6989,
      "difficulty": 6990,
      "Abishai": 6991,
      "subdued": 6992,
      "suspicion": 6993,
      "Creator": 6994,
      "Rejoice": 6995,
      "stedfast": 6996,
      "Meshullam": 6997,
      "VIRGIL": 6998,
      "Phinehas": 6999,
      "PERDITA": 7000,
      "VIRGILIA": 7001,
      ").": 7002,
      "76": 7003,
      ">*": 7004,
      "Ath": 7005,
      "Dre": 7006,
      "Dio": 7007,
      "Ek": 7008,
      "Euphr": 7009,
      "Four": 7010,
      "Gal": 7011,
      "Gom": 7012,
      "Glad": 7013,
      "Has": 7014,
      "Happ": 7015,
      "Jotham": 7016,
      "Ked": 7017,
      "Light": 7018,
      "Mis": 7019,
      "Much": 7020,
      "Other": 7021,
      "Ra": 7022,
      "Sit": 7023,
      "Sain": 7024,
      "Sur": 7025,
      "Sil": 7026,
      "Shu": 7027,
      "SLY": 7028,
      "Tar": 7029,
      "Tamar": 7030,
      "XI": 7031,
      "ald": 7032,
      "ahaz": 7033,
      "bast": 7034,
      "chis": 7035,
      "date": 7036,
      "fright": 7037,
      "fran": 7038,
      "flew": 7039,
      "gion": 7040,
      "gap": 7041,
      "lof": 7042,
      "mesh": 7043,
      "nings": 7044,
      "ote": 7045,
      "pher": 7046,
      "sway": 7047,
      "slip": 7048,
      "vig": 7049,
      "zah": 7050,
      "insp": 7051,
      "inous": 7052,
      "hewn": 7053,
      "erred": 7054,
      "orious": 7055,
      "tool": 7056,
      "assure": 7057,
      "belongeth": 7058,
      "stit": 7059,
      "stoned": 7060,
      "roots": 7061,
      "forces": 7062,
      "sages": 7063,
      "notes": 7064,
      "colt": 7065,
      "admir": 7066,
      "ambit": 7067,
      "yellow": 7068,
      "loy": 7069,
      "loath": 7070,
      "peh": 7071,
      "pecu": 7072,
      "whilst": 7073,
      "feign": 7074,
      "ternal": 7075,
      "necks": 7076,
      "abad": 7077,
      "figu": 7078,
      "figs": 7079,
      "confound": 7080,
      "convent": 7081,
      "sheweth": 7082,
      "tily": 7083,
      "Forasmuch": 7084,
      "acious": 7085,
      "handes": 7086,
      "gious": 7087,
      "box": 7088,
      "knowen": 7089,
      "holdeth": 7090,
      "dien": 7091,
      "imput": 7092,
      "selfsame": 7093,
      "Ask": 7094,
      "Asia": 7095,
      "sinful": 7096,
      "prize": 7097,
      "dismiss": 7098,
      "howl": 7099,
      "partic": 7100,
      "prefer": 7101,
      "crieth": 7102,
      "harps": 7103,
      "arks": 7104,
      "usage": 7105,
      "bestowed": 7106,
      "evils": 7107,
      "casting": 7108,
      "clock": 7109,
      "kinds": 7110,
      "Alc": 7111,
      "grity": 7112,
      "message": 7113,
      "friendship": 7114,
      "powerful": 7115,
      "wiste": 7116,
      "needes": 7117,
      "confirmed": 7118,
      "garland": 7119,
      "bery": 7120,
      "correction": 7121,
      "penny": 7122,
      "deliverance": 7123,
      "izz": 7124,
      "atioun": 7125,
      "bowl": 7126,
      "Prophe": 7127,
      "careful": 7128,
      "Boaz": 7129,
      "reprove": 7130,
      "instructed": 7131,
      "Isabel": 7132,
      "thorough": 7133,
      "yielded": 7134,
      "MARIAN": 7135,
      "faithfulness": 7136,
      "flying": 7137,
      "wearied": 7138,
      "highe": 7139,
      "moral": 7140,
      "ninety": 7141,
      "basket": 7142,
      "heirs": 7143,
      "heaps": 7144,
      "marvelled": 7145,
      "candle": 7146,
      "scape": 7147,
      "persecute": 7148,
      "dainty": 7149,
      "proclaimed": 7150,
      "drinketh": 7151,
      "synagogues": 7152,
      "patron": 7153,
      "Midianites": 7154,
      "pierced": 7155,
      "Husha": 7156,
      "persuaded": 7157,
      "integrity": 7158,
      "Hebrews": 7159,
      "plenty": 7160,
      "Alein": 7161,
      "complete": 7162,
      "Amalekites": 7163,
      "searched": 7164,
      "imagination": 7165,
      "concubine": 7166,
      "Brother": 7167,
      "Jabesh": 7168,
      "adorned": 7169,
      "Tarshish": 7170,
      "Consider": 7171,
      "citizens": 7172,
      "Aurelius": 7173,
      "Lachish": 7174,
      "wholesome": 7175,
      "dispersed": 7176,
      "woful": 7177,
      "astrolo": 7178,
      "Boccaccio": 7179,
      "Ekron": 7180,
      "Euphrates": 7181,
      "Gomor": 7182,
      "peculiar": 7183,
      "MARIANA": 7184,
      "84": 7185,
      "85": 7186,
      "Ae": 7187,
      "Afri": 7188,
      "Awake": 7189,
      "BU": 7190,
      "Cuck": 7191,
      "Grem": 7192,
      "Grum": 7193,
      "Honour": 7194,
      "Hiram": 7195,
      "Pen": 7196,
      "RA": 7197,
      "Rab": 7198,
      "Rose": 7199,
      "Rather": 7200,
      "Stood": 7201,
      "Zac": 7202,
      "bark": 7203,
      "ement": 7204,
      "ealo": 7205,
      "fut": 7206,
      "frequent": 7207,
      "gour": 7208,
      "ician": 7209,
      "kk": 7210,
      "mass": 7211,
      "mire": 7212,
      "plight": 7213,
      "squi": 7214,
      "tub": 7215,
      "tran": 7216,
      "tasted": 7217,
      "zing": 7218,
      "recon": 7219,
      "hew": 7220,
      "tore": 7221,
      "enet": 7222,
      "encounter": 7223,
      "envious": 7224,
      "ascended": 7225,
      "methinks": 7226,
      "sting": 7227,
      "veil": 7228,
      "shal": 7229,
      "dee": 7230,
      "lovest": 7231,
      "urged": 7232,
      "fereth": 7233,
      "lacked": 7234,
      "conven": 7235,
      "conceive": 7236,
      "tied": 7237,
      "astray": 7238,
      "wool": 7239,
      "Hector": 7240,
      "acy": 7241,
      "chiah": 7242,
      "handle": 7243,
      "103": 7244,
      "whatever": 7245,
      "dies": 7246,
      "imprison": 7247,
      "applied": 7248,
      "spears": 7249,
      "chain": 7250,
      "champ": 7251,
      "brand": 7252,
      "flat": 7253,
      "privity": 7254,
      "exile": 7255,
      "exped": 7256,
      "excess": 7257,
      "disgu": 7258,
      "disposition": 7259,
      "monst": 7260,
      "presu": 7261,
      "vocation": 7262,
      "Jehor": 7263,
      "Jeze": 7264,
      "emin": 7265,
      "telleth": 7266,
      "omi": 7267,
      "ump": 7268,
      "turns": 7269,
      "carcases": 7270,
      "Joel": 7271,
      "pied": 7272,
      "pipe": 7273,
      "courti": 7274,
      "dwellest": 7275,
      "ppa": 7276,
      "ppes": 7277,
      "purged": 7278,
      "Yeoman": 7279,
      "waking": 7280,
      "steep": 7281,
      "gris": 7282,
      "sunne": 7283,
      "Fair": 7284,
      "genet": 7285,
      "genealo": 7286,
      "follows": 7287,
      "New": 7288,
      "lamp": 7289,
      "supreme": 7290,
      "Once": 7291,
      "killeth": 7292,
      "Sirrah": 7293,
      "gained": 7294,
      "brace": 7295,
      "groweth": 7296,
      "distri": 7297,
      "Dost": 7298,
      "Jehoahaz": 7299,
      "alim": 7300,
      "finish": 7301,
      "mette": 7302,
      "slayer": 7303,
      "delights": 7304,
      "knightes": 7305,
      "seeming": 7306,
      "wrongs": 7307,
      "arrayed": 7308,
      "Perizz": 7309,
      "lodging": 7310,
      "prosperous": 7311,
      "Ammonites": 7312,
      "eager": 7313,
      "vowed": 7314,
      "reckoned": 7315,
      "credit": 7316,
      "incline": 7317,
      "astonishment": 7318,
      "rebellion": 7319,
      "Hazael": 7320,
      "Machir": 7321,
      "Naomi": 7322,
      "Philogenet": 7323,
      "Mizpah": 7324,
      "Mizpeh": 7325,
      "swoon": 7326,
      "Nabal": 7327,
      "bounte": 7328,
      "avoid": 7329,
      "wolf": 7330,
      "ministry": 7331,
      "magnified": 7332,
      "Watchman": 7333,
      "pomegranates": 7334,
      "rhyme": 7335,
      "chivalry": 7336,
      "darkened": 7337,
      "powder": 7338,
      "dancing": 7339,
      "threshold": 7340,
      "baptism": 7341,
      "Plantag": 7342,
      "PARIS": 7343,
      "Transcriber": 7344,
      "Cuckoo": 7345,
      "Gremio": 7346,
      "Grumio": 7347,
      "future": 7348,
      "Jehoram": 7349,
      "Jezebel": 7350,
      ".,": 7351,
      "75": 7352,
      "90": 7353,
      ":'": 7354,
      "AL": 7355,
      "Ari": 7356,
      "Bil": 7357,
      "Cro": 7358,
      "Chur": 7359,
      "End": 7360,
      "Elk": 7361,
      "Hur": 7362,
      "Og": 7363,
      "Obadiah": 7364,
      "Vin": 7365,
      "West": 7366,
      "bred": 7367,
      "dod": 7368,
      "eloqu": 7369,
      "fun": 7370,
      "later": 7371,
      "mured": 7372,
      "rh": 7373,
      "ras": 7374,
      "rites": 7375,
      "rison": 7376,
      "surn": 7377,
      "science": 7378,
      "tap": 7379,
      "takes": 7380,
      "vap": 7381,
      "vari": 7382,
      "whor": 7383,
      "wages": 7384,
      "xand": 7385,
      "yr": 7386,
      "thund": 7387,
      "innumerable": 7388,
      "rehearse": 7389,
      "orison": 7390,
      "toil": 7391,
      "haply": 7392,
      "esche": 7393,
      "asp": 7394,
      "hit": 7395,
      "bewail": 7396,
      "stall": 7397,
      "stiff": 7398,
      "nostri": 7399,
      "hiss": 7400,
      "iring": 7401,
      "sam": 7402,
      "hoar": 7403,
      "ods": 7404,
      "withstand": 7405,
      "lim": 7406,
      "versal": 7407,
      "coal": 7408,
      "cope": 7409,
      "copy": 7410,
      "amorous": 7411,
      "los": 7412,
      "cake": 7413,
      "teries": 7414,
      "maker": 7415,
      "nearer": 7416,
      "doves": 7417,
      "faileth": 7418,
      "sult": 7419,
      "ticle": 7420,
      "ulf": 7421,
      "evermo": 7422,
      "quet": 7423,
      "moist": 7424,
      "cts": 7425,
      "ounce": 7426,
      "135": 7427,
      "145": 7428,
      "Believe": 7429,
      "Belial": 7430,
      "breed": 7431,
      "nail": 7432,
      "shouldst": 7433,
      "evidence": 7434,
      "hasten": 7435,
      "commune": 7436,
      "ornaments": 7437,
      "sinner": 7438,
      "sinneth": 7439,
      "desires": 7440,
      "partakers": 7441,
      "presum": 7442,
      "blush": 7443,
      "setteth": 7444,
      "workman": 7445,
      "empire": 7446,
      "headed": 7447,
      "Judge": 7448,
      "bathe": 7449,
      "wray": 7450,
      "bestow": 7451,
      "honoured": 7452,
      "viour": 7453,
      "sweat": 7454,
      "pious": 7455,
      "pict": 7456,
      "pierce": 7457,
      "humbly": 7458,
      "friars": 7459,
      "ppers": 7460,
      "curses": 7461,
      "verses": 7462,
      "sunk": 7463,
      "Arch": 7464,
      "minstre": 7465,
      "wisly": 7466,
      "Amas": 7467,
      "grim": 7468,
      "habitations": 7469,
      "trave": 7470,
      "dukes": 7471,
      "Canst": 7472,
      "garrison": 7473,
      "sending": 7474,
      "bows": 7475,
      "portions": 7476,
      "labours": 7477,
      "Lewis": 7478,
      "happened": 7479,
      "riseth": 7480,
      "finally": 7481,
      "Seeing": 7482,
      "circumstances": 7483,
      "Tyrus": 7484,
      "Saturn": 7485,
      "PETER": 7486,
      "custo": 7487,
      "Mercury": 7488,
      "visitation": 7489,
      "wanting": 7490,
      "embro": 7491,
      "embra": 7492,
      "LEW": 7493,
      "reported": 7494,
      "arers": 7495,
      "thinking": 7496,
      "Betwixt": 7497,
      "twined": 7498,
      "governors": 7499,
      "adulte": 7500,
      "thirsty": 7501,
      "Zerubba": 7502,
      "roaring": 7503,
      "streams": 7504,
      "Ashdod": 7505,
      "blos": 7506,
      "counsellor": 7507,
      "scriptures": 7508,
      "eleventh": 7509,
      "conspired": 7510,
      "Alexand": 7511,
      "retired": 7512,
      "Hittites": 7513,
      "Naboth": 7514,
      "hypocrites": 7515,
      "myrrh": 7516,
      "voyage": 7517,
      "utenberg": 7518,
      "Athens": 7519,
      "feathers": 7520,
      "controvers": 7521,
      "obeisance": 7522,
      "desperate": 7523,
      "opposite": 7524,
      "Chanticle": 7525,
      "softe": 7526,
      "Happy": 7527,
      "BURY": 7528,
      "Plantagenet": 7529,
      "Zerubbabel": 7530,
      "Amon": 7531,
      "Bid": 7532,
      "Bear": 7533,
      "Bret": 7534,
      "Ci": 7535,
      "Cho": 7536,
      "Cus": 7537,
      "Cates": 7538,
      "DOR": 7539,
      "Fie": 7540,
      "Gu": 7541,
      "Gab": 7542,
      "LAR": 7543,
      "Law": 7544,
      "Lift": 7545,
      "Ovid": 7546,
      "PSON": 7547,
      "San": 7548,
      "Shim": 7549,
      "Shad": 7550,
      "Seven": 7551,
      "Show": 7552,
      "Saw": 7553,
      "SAM": 7554,
      "Siser": 7555,
      "Shushan": 7556,
      "TIUS": 7557,
      "bi": 7558,
      "cit": 7559,
      "couth": 7560,
      "dru": 7561,
      "eg": 7562,
      "fand": 7563,
      "grows": 7564,
      "tall": 7565,
      "wore": 7566,
      "wate": 7567,
      "wrest": 7568,
      "yore": 7569,
      "rey": 7570,
      "reins": 7571,
      "reference": 7572,
      "hero": 7573,
      "heifer": 7574,
      "herald": 7575,
      "haunt": 7576,
      "edi": 7577,
      "asketh": 7578,
      "stan": 7579,
      "stabl": 7580,
      "lefe": 7581,
      "roth": 7582,
      "robes": 7583,
      "cere": 7584,
      "shave": 7585,
      "unne": 7586,
      "unts": 7587,
      "unrighteousness": 7588,
      "chri": 7589,
      "chant": 7590,
      "hoof": 7591,
      "hoped": 7592,
      "devices": 7593,
      "rial": 7594,
      "somuch": 7595,
      "coats": 7596,
      "using": 7597,
      "amid": 7598,
      "ores": 7599,
      "whiles": 7600,
      "fears": 7601,
      "cage": 7602,
      "goose": 7603,
      "neh": 7604,
      "nego": 7605,
      "teacher": 7606,
      "faced": 7607,
      "failed": 7608,
      "fix": 7609,
      "sustain": 7610,
      "sheen": 7611,
      "composed": 7612,
      "ender": 7613,
      "resign": 7614,
      "mayst": 7615,
      "serp": 7616,
      "serves": 7617,
      "ists": 7618,
      "dimin": 7619,
      "147": 7620,
      "imper": 7621,
      "nails": 7622,
      "chaff": 7623,
      "anything": 7624,
      "mightest": 7625,
      "exchange": 7626,
      "Lords": 7627,
      "discreet": 7628,
      "angle": 7629,
      "timely": 7630,
      "sive": 7631,
      "ARIEL": 7632,
      "settled": 7633,
      "bub": 7634,
      "bese": 7635,
      "longing": 7636,
      "worlde": 7637,
      "brothers": 7638,
      "Shem": 7639,
      "destiny": 7640,
      "tempered": 7641,
      "ctions": 7642,
      "devout": 7643,
      "subjection": 7644,
      "faithfully": 7645,
      "gently": 7646,
      "fairly": 7647,
      "compar": 7648,
      "Nothing": 7649,
      "tax": 7650,
      "tame": 7651,
      "chess": 7652,
      "openeth": 7653,
      "inie": 7654,
      "husbandmen": 7655,
      "Manciple": 7656,
      "salut": 7657,
      "stripes": 7658,
      "thrall": 7659,
      "Eliab": 7660,
      "dearly": 7661,
      "shoe": 7662,
      "cloudy": 7663,
      "March": 7664,
      "banquet": 7665,
      "waiteth": 7666,
      "metal": 7667,
      "Serpent": 7668,
      "elements": 7669,
      "neys": 7670,
      "provide": 7671,
      "quicken": 7672,
      "Jonah": 7673,
      "bitterly": 7674,
      "swim": 7675,
      "rushed": 7676,
      "marks": 7677,
      "marked": 7678,
      "abundant": 7679,
      "satisfaction": 7680,
      "morsel": 7681,
      "Achish": 7682,
      "bottles": 7683,
      "approved": 7684,
      "Esaias": 7685,
      "ancest": 7686,
      "Citizens": 7687,
      "couple": 7688,
      "talking": 7689,
      "stumbling": 7690,
      "dishon": 7691,
      "drunkenness": 7692,
      "potter": 7693,
      "cliff": 7694,
      "supplications": 7695,
      "inwards": 7696,
      "virginity": 7697,
      "renowned": 7698,
      "Divine": 7699,
      "Virt": 7700,
      "earnestly": 7701,
      "Petr": 7702,
      "mentioned": 7703,
      "prevented": 7704,
      "plenteous": 7705,
      "weapon": 7706,
      "Antioch": 7707,
      "translated": 7708,
      "Capi": 7709,
      "Capu": 7710,
      "philosopher": 7711,
      "experience": 7712,
      "usurp": 7713,
      "conceal": 7714,
      "style": 7715,
      "Ithamar": 7716,
      "celebrated": 7717,
      "Draw": 7718,
      "Gaza": 7719,
      "annoy": 7720,
      "skilful": 7721,
      "Nineve": 7722,
      "dagger": 7723,
      "Bethshemesh": 7724,
      "dungeon": 7725,
      "weighed": 7726,
      "centurion": 7727,
      "benefit": 7728,
      "Dream": 7729,
      "Diomede": 7730,
      "Elkanah": 7731,
      "LEWIS": 7732,
      "Chanticleer": 7733,
      "Catesby": 7734,
      "LARTIUS": 7735,
      "SAMPSON": 7736,
      "Sisera": 7737,
      "00": 7738,
      ";'": 7739,
      "Ahim": 7740,
      "Ages": 7741,
      "CUR": 7742,
      "Domin": 7743,
      "Eu": 7744,
      "Eno": 7745,
      "Id": 7746,
      "Jok": 7747,
      "Mow": 7748,
      "Nadab": 7749,
      "Pass": 7750,
      "Soud": 7751,
      "Sene": 7752,
      "Sidon": 7753,
      "Youn": 7754,
      "Zim": 7755,
      "afore": 7756,
      "brown": 7757,
      "brows": 7758,
      "cree": 7759,
      "dure": 7760,
      "danced": 7761,
      "pence": 7762,
      "thop": 7763,
      "thumb": 7764,
      "heres": 7765,
      "ert": 7766,
      "endeth": 7767,
      "hare": 7768,
      "editions": 7769,
      "asking": 7770,
      "arbour": 7771,
      "hip": 7772,
      "sey": 7773,
      "below": 7774,
      "melted": 7775,
      "stern": 7776,
      "leased": 7777,
      "ayed": 7778,
      "ldom": 7779,
      "cean": 7780,
      "share": 7781,
      "unk": 7782,
      "unaware": 7783,
      "sapp": 7784,
      "deals": 7785,
      "liking": 7786,
      "rie": 7787,
      "entereth": 7788,
      "keen": 7789,
      "cool": 7790,
      "ading": 7791,
      "admon": 7792,
      "ambas": 7793,
      "peer": 7794,
      "fever": 7795,
      "feareth": 7796,
      "thereal": 7797,
      "foreign": 7798,
      "lag": 7799,
      "tive": 7800,
      "tice": 7801,
      "resort": 7802,
      "comely": 7803,
      "spies": 7804,
      "grey": 7805,
      "proportion": 7806,
      "provost": 7807,
      "proclam": 7808,
      "gild": 7809,
      "116": 7810,
      "perple": 7811,
      "pertained": 7812,
      "division": 7813,
      "overtake": 7814,
      "overthrown": 7815,
      "Thr": 7816,
      "whereunto": 7817,
      "downward": 7818,
      "dismal": 7819,
      "merle": 7820,
      "medic": 7821,
      "inks": 7822,
      "blown": 7823,
      "crime": 7824,
      "resses": 7825,
      "ressed": 7826,
      "lighten": 7827,
      "achin": 7828,
      "babe": 7829,
      "stole": 7830,
      "highway": 7831,
      "shire": 7832,
      "hedge": 7833,
      "guil": 7834,
      "temples": 7835,
      "Italy": 7836,
      "sleight": 7837,
      "dwellings": 7838,
      "pleasures": 7839,
      "mariah": 7840,
      "smith": 7841,
      "smiles": 7842,
      "grind": 7843,
      "attern": 7844,
      "fortunes": 7845,
      "beastes": 7846,
      "needful": 7847,
      "wilde": 7848,
      "praising": 7849,
      "fastened": 7850,
      "departing": 7851,
      "burneth": 7852,
      "corse": 7853,
      "corage": 7854,
      "stricken": 7855,
      "bidden": 7856,
      "sooner": 7857,
      "Leave": 7858,
      "poster": 7859,
      "runneth": 7860,
      "murmured": 7861,
      "madest": 7862,
      "leads": 7863,
      "crave": 7864,
      "Seraiah": 7865,
      "fares": 7866,
      "knowe": 7867,
      "perfectly": 7868,
      "transgressors": 7869,
      "worthiness": 7870,
      "fowles": 7871,
      "relate": 7872,
      "yielding": 7873,
      "Hezron": 7874,
      "sendeth": 7875,
      "Abijah": 7876,
      "contented": 7877,
      "fifteenth": 7878,
      "corrupted": 7879,
      "uprightness": 7880,
      "foolishness": 7881,
      "regal": 7882,
      "regne": 7883,
      "Ahijah": 7884,
      "Ahikam": 7885,
      "Ahithop": 7886,
      "bottle": 7887,
      "sterve": 7888,
      "Haran": 7889,
      "Harry": 7890,
      "regarded": 7891,
      "Poor": 7892,
      "flourish": 7893,
      "filthy": 7894,
      "companies": 7895,
      "properly": 7896,
      "property": 7897,
      "fountains": 7898,
      "Monk": 7899,
      "maidenhead": 7900,
      "quarter": 7901,
      "brooks": 7902,
      "resolution": 7903,
      "conclude": 7904,
      "despiseth": 7905,
      "forgiveness": 7906,
      "block": 7907,
      "breathed": 7908,
      "Keeper": 7909,
      "abhorred": 7910,
      "guiltless": 7911,
      "pilgrims": 7912,
      "Nethaniah": 7913,
      "numerous": 7914,
      "scholar": 7915,
      "retire": 7916,
      "translation": 7917,
      "Ethiopia": 7918,
      "renewed": 7919,
      "Pedant": 7920,
      "Aumerle": 7921,
      "Obededom": 7922,
      "courteous": 7923,
      "stubble": 7924,
      "haughty": 7925,
      "magnify": 7926,
      "consolation": 7927,
      "tyranny": 7928,
      "different": 7929,
      "eunuchs": 7930,
      "Spenser": 7931,
      "reconciled": 7932,
      "quenched": 7933,
      "lofty": 7934,
      "Church": 7935,
      "nostrils": 7936,
      "controversy": 7937,
      "Nineveh": 7938,
      "CURTIS": 7939,
      "Mowbray": 7940,
      "Ahithophel": 7941,
      "*“": 7942,
      "82": 7943,
      ":--": 7944,
      ";**": 7945,
      "Da": 7946,
      "EX": 7947,
      "Eternal": 7948,
      "Gather": 7949,
      "Hal": 7950,
      "Hore": 7951,
      "IGON": 7952,
      "Mep": 7953,
      "OK": 7954,
      "Op": 7955,
      "Rede": 7956,
      "Sh": 7957,
      "Ta": 7958,
      "Wis": 7959,
      "awe": 7960,
      "apo": 7961,
      "awoke": 7962,
      "bay": 7963,
      "bren": 7964,
      "bower": 7965,
      "bility": 7966,
      "balm": 7967,
      "bounty": 7968,
      "cris": 7969,
      "cens": 7970,
      "epe": 7971,
      "gor": 7972,
      "gage": 7973,
      "grud": 7974,
      "gulf": 7975,
      "ky": 7976,
      "las": 7977,
      "lour": 7978,
      "lur": 7979,
      "nut": 7980,
      "push": 7981,
      "rated": 7982,
      "vines": 7983,
      "xion": 7984,
      "’;": 7985,
      "thic": 7986,
      "thew": 7987,
      "ancho": 7988,
      "iners": 7989,
      "invisible": 7990,
      "rear": 7991,
      "reig": 7992,
      "erie": 7993,
      "orb": 7994,
      "enforce": 7995,
      "engend": 7996,
      "hiah": 7997,
      "itess": 7998,
      "sets": 7999
    },
    "merges": [
      [
        "t",
        "h"
      ],
      [
        "th",
        "e"
      ],
      [
        "a",
        "n"
      ],
      [
        "i",
        "n"
      ],
      [
        "r",
        "e"
      ],
      [
        "an",
        "d"
      ],
      [
        "o",
        "u"
      ],
      [
        "h",
        "e"
      ],
      [
        "o",
        "f"
      ],
      [
        "i",
        "s"
      ],
      [
        "a",
        "t"
      ],
      [
        "o",
        "n"
      ],
      [
        "e",
        "r"
      ],
      [
        "o",
        "r"
      ],
      [
        "l",
        "l"
      ],
      [
        "t",
        "o"
      ],
      [
        "e",
        "n"
      ],
      [
        "h",
        "a"
      ],
      [
        "e",
        "s"
      ],
      [
        "e",
        "d"
      ],
      [
        "a",
        "s"
      ],
      [
        "a",
        "r"
      ],
      [
        "in",
        "g"
      ],
      [
        "h",
        "i"
      ],
      [
        "n",
        "d"
      ],
      [
        "i",
        "t"
      ],
      [
        "s",
        "e"
      ],
      [
        "b",
        "e"
      ],
      [
        "m",
        "e"
      ],
      [
        "s",
        "t"
      ],
      [
        "w",
        "i"
      ],
      [
        "l",
        "e"
      ],
      [
        "n",
        "o"
      ],
      [
        "th",
        "at"
      ],
      [
        "A",
        "nd"
      ],
      [
        "v",
        "e"
      ],
      [
        "a",
        "y"
      ],
      [
        "r",
        "o"
      ],
      [
        "g",
        "h"
      ],
      [
        "h",
        "is"
      ],
      [
        "f",
        "or"
      ],
      [
        "l",
        "d"
      ],
      [
        "c",
        "e"
      ],
      [
        "s",
        "ha"
      ],
      [
        "u",
        "n"
      ],
      [
        "c",
        "h"
      ],
      [
        "i",
        "d"
      ],
      [
        "w",
        "e"
      ],
      [
        "i",
        "r"
      ],
      [
        "a",
        "ll"
      ],
      [
        "s",
        "a"
      ],
      [
        "gh",
        "t"
      ],
      [
        "h",
        "o"
      ],
      [
        "ou",
        "r"
      ],
      [
        "u",
        "t"
      ],
      [
        "o",
        "d"
      ],
      [
        "sha",
        "ll"
      ],
      [
        "wi",
        "th"
      ],
      [
        "d",
        "e"
      ],
      [
        "no",
        "t"
      ],
      [
        "l",
        "i"
      ],
      [
        "r",
        "i"
      ],
      [
        "en",
        "t"
      ],
      [
        "hi",
        "m"
      ],
      [
        "a",
        "l"
      ],
      [
        "k",
        "e"
      ],
      [
        "s",
        "o"
      ],
      [
        "r",
        "a"
      ],
      [
        "v",
        "er"
      ],
      [
        "th",
        "ou"
      ],
      [
        "c",
        "o"
      ],
      [
        "un",
        "to"
      ],
      [
        "T",
        "he"
      ],
      [
        "the",
        "r"
      ],
      [
        "u",
        "s"
      ],
      [
        "m",
        "y"
      ],
      [
        "o",
        "w"
      ],
      [
        "the",
        "y"
      ],
      [
        "the",
        "m"
      ],
      [
        "w",
        "as"
      ],
      [
        "a",
        "d"
      ],
      [
        "a",
        "m"
      ],
      [
        "l",
        "y"
      ],
      [
        "y",
        "e"
      ],
      [
        "u",
        "p"
      ],
      [
        "l",
        "o"
      ],
      [
        "a",
        "in"
      ],
      [
        "p",
        "e"
      ],
      [
        "O",
        "R"
      ],
      [
        "o",
        "re"
      ],
      [
        "m",
        "an"
      ],
      [
        "a",
        "re"
      ],
      [
        "y",
        "ou"
      ],
      [
        "w",
        "hi"
      ],
      [
        "es",
        "t"
      ],
      [
        "i",
        "on"
      ],
      [
        "th",
        "y"
      ],
      [
        "or",
        "d"
      ],
      [
        "h",
        "at"
      ],
      [
        "u",
        "r"
      ],
      [
        "OR",
        "D"
      ],
      [
        "L",
        "ORD"
      ],
      [
        "ha",
        "ve"
      ],
      [
        "es",
        "s"
      ],
      [
        "on",
        "e"
      ],
      [
        "f",
        "e"
      ],
      [
        "he",
        "r"
      ],
      [
        "c",
        "a"
      ],
      [
        "t",
        "er"
      ],
      [
        "the",
        "re"
      ],
      [
        "g",
        "o"
      ],
      [
        "wi",
        "ll"
      ],
      [
        "ro",
        "m"
      ],
      [
        "m",
        "a"
      ],
      [
        "n",
        "e"
      ],
      [
        "th",
        "is"
      ],
      [
        "h",
        "ou"
      ],
      [
        "whi",
        "ch"
      ],
      [
        "v",
        "en"
      ],
      [
        "a",
        "b"
      ],
      [
        "w",
        "he"
      ],
      [
        "ou",
        "t"
      ],
      [
        "g",
        "e"
      ],
      [
        "i",
        "l"
      ],
      [
        "the",
        "ir"
      ],
      [
        "G",
        "od"
      ],
      [
        "the",
        "e"
      ],
      [
        "d",
        "o"
      ],
      [
        "f",
        "rom"
      ],
      [
        "b",
        "y"
      ],
      [
        "t",
        "e"
      ],
      [
        "sa",
        "id"
      ],
      [
        "f",
        "a"
      ],
      [
        "e",
        "l"
      ],
      [
        "k",
        "ing"
      ],
      [
        "f",
        "ore"
      ],
      [
        "we",
        "re"
      ],
      [
        "f",
        "i"
      ],
      [
        "l",
        "a"
      ],
      [
        "b",
        "ut"
      ],
      [
        "in",
        "e"
      ],
      [
        "no",
        "w"
      ],
      [
        "c",
        "k"
      ],
      [
        "c",
        "on"
      ],
      [
        "i",
        "ght"
      ],
      [
        "ar",
        "t"
      ],
      [
        "y",
        "our"
      ],
      [
        "s",
        "u"
      ],
      [
        "s",
        "on"
      ],
      [
        "s",
        "he"
      ],
      [
        "p",
        "le"
      ],
      [
        "p",
        "o"
      ],
      [
        "t",
        "i"
      ],
      [
        "ar",
        "d"
      ],
      [
        "as",
        "t"
      ],
      [
        "a",
        "g"
      ],
      [
        "r",
        "u"
      ],
      [
        "F",
        "or"
      ],
      [
        "r",
        "ou"
      ],
      [
        "w",
        "ho"
      ],
      [
        "a",
        "h"
      ],
      [
        "s",
        "ay"
      ],
      [
        "ha",
        "d"
      ],
      [
        "an",
        "t"
      ],
      [
        "d",
        "ay"
      ],
      [
        "re",
        "d"
      ],
      [
        "re",
        "n"
      ],
      [
        "whe",
        "n"
      ],
      [
        "u",
        "l"
      ],
      [
        "co",
        "m"
      ],
      [
        "w",
        "o"
      ],
      [
        "se",
        "l"
      ],
      [
        "up",
        "on"
      ],
      [
        "B",
        "ut"
      ],
      [
        "e",
        "ver"
      ],
      [
        "e",
        "t"
      ],
      [
        "en",
        "d"
      ],
      [
        "H",
        "e"
      ],
      [
        "I",
        "s"
      ],
      [
        "re",
        "s"
      ],
      [
        "ha",
        "th"
      ],
      [
        "co",
        "me"
      ],
      [
        "a",
        "c"
      ],
      [
        "th",
        "ing"
      ],
      [
        "er",
        "s"
      ],
      [
        "at",
        "ion"
      ],
      [
        "on",
        "g"
      ],
      [
        "m",
        "en"
      ],
      [
        "q",
        "u"
      ],
      [
        "i",
        "th"
      ],
      [
        "w",
        "or"
      ],
      [
        "i",
        "f"
      ],
      [
        "c",
        "hi"
      ],
      [
        "w",
        "ay"
      ],
      [
        "s",
        "p"
      ],
      [
        "ou",
        "s"
      ],
      [
        "g",
        "re"
      ],
      [
        "ag",
        "ain"
      ],
      [
        "m",
        "o"
      ],
      [
        "T",
        "hat"
      ],
      [
        "l",
        "t"
      ],
      [
        "ow",
        "n"
      ],
      [
        "a",
        "ke"
      ],
      [
        "is",
        "e"
      ],
      [
        "it",
        "y"
      ],
      [
        "c",
        "t"
      ],
      [
        "o",
        "k"
      ],
      [
        "h",
        "and"
      ],
      [
        "n",
        "ess"
      ],
      [
        "m",
        "ay"
      ],
      [
        "a",
        "k"
      ],
      [
        "p",
        "ro"
      ],
      [
        "ra",
        "el"
      ],
      [
        "Is",
        "rael"
      ],
      [
        "a",
        "f"
      ],
      [
        "p",
        "r"
      ],
      [
        "in",
        "d"
      ],
      [
        "g",
        "i"
      ],
      [
        "ca",
        "me"
      ],
      [
        "w",
        "ord"
      ],
      [
        "1",
        "0"
      ],
      [
        "a",
        "th"
      ],
      [
        "1",
        "1"
      ],
      [
        "ou",
        "n"
      ],
      [
        "b",
        "o"
      ],
      [
        "ur",
        "n"
      ],
      [
        "we",
        "ll"
      ],
      [
        "p",
        "t"
      ],
      [
        "hou",
        "se"
      ],
      [
        "as",
        "s"
      ],
      [
        "e",
        "p"
      ],
      [
        "pe",
        "o"
      ],
      [
        "ou",
        "ld"
      ],
      [
        "in",
        "to"
      ],
      [
        "peo",
        "ple"
      ],
      [
        "u",
        "d"
      ],
      [
        "u",
        "se"
      ],
      [
        "se",
        "e"
      ],
      [
        "chi",
        "ld"
      ],
      [
        "s",
        "er"
      ],
      [
        "T",
        "o"
      ],
      [
        "k",
        "now"
      ],
      [
        "the",
        "n"
      ],
      [
        "of",
        "f"
      ],
      [
        "l",
        "and"
      ],
      [
        "m",
        "ent"
      ],
      [
        "w",
        "hat"
      ],
      [
        "u",
        "nd"
      ],
      [
        "r",
        "y"
      ],
      [
        "p",
        "er"
      ],
      [
        "v",
        "es"
      ],
      [
        "at",
        "e"
      ],
      [
        "e",
        "ar"
      ],
      [
        "ho",
        "ld"
      ],
      [
        "m",
        "b"
      ],
      [
        "1",
        "3"
      ],
      [
        "is",
        "t"
      ],
      [
        "w",
        "ent"
      ],
      [
        "be",
        "fore"
      ],
      [
        "d",
        "i"
      ],
      [
        "le",
        "t"
      ],
      [
        "1",
        "2"
      ],
      [
        "go",
        "od"
      ],
      [
        "1",
        "4"
      ],
      [
        "ma",
        "de"
      ],
      [
        "ri",
        "ght"
      ],
      [
        "i",
        "ll"
      ],
      [
        "m",
        "ore"
      ],
      [
        "B",
        "e"
      ],
      [
        "an",
        "ce"
      ],
      [
        "S",
        "o"
      ],
      [
        "v",
        "ed"
      ],
      [
        "ro",
        "w"
      ],
      [
        "o",
        "ther"
      ],
      [
        "u",
        "re"
      ],
      [
        "gre",
        "at"
      ],
      [
        "f",
        "o"
      ],
      [
        "an",
        "s"
      ],
      [
        "id",
        "e"
      ],
      [
        "ca",
        "use"
      ],
      [
        "i",
        "m"
      ],
      [
        "al",
        "so"
      ],
      [
        "again",
        "st"
      ],
      [
        "child",
        "ren"
      ],
      [
        "he",
        "re"
      ],
      [
        "fa",
        "ther"
      ],
      [
        "b",
        "re"
      ],
      [
        "ma",
        "ke"
      ],
      [
        "a",
        "p"
      ],
      [
        "s",
        "pe"
      ],
      [
        "u",
        "ll"
      ],
      [
        "sel",
        "f"
      ],
      [
        "n",
        "a"
      ],
      [
        "1",
        "5"
      ],
      [
        "ou",
        "nd"
      ],
      [
        "hou",
        "ld"
      ],
      [
        "u",
        "st"
      ],
      [
        "The",
        "n"
      ],
      [
        "n",
        "or"
      ],
      [
        "sha",
        "lt"
      ],
      [
        "c",
        "ha"
      ],
      [
        "o",
        "ver"
      ],
      [
        "A",
        "s"
      ],
      [
        "i",
        "es"
      ],
      [
        "an",
        "y"
      ],
      [
        "p",
        "l"
      ],
      [
        "b",
        "r"
      ],
      [
        "s",
        "hould"
      ],
      [
        "c",
        "he"
      ],
      [
        "T",
        "h"
      ],
      [
        "O",
        "f"
      ],
      [
        "1",
        "6"
      ],
      [
        "he",
        "art"
      ],
      [
        "I",
        "n"
      ],
      [
        "e",
        "th"
      ],
      [
        "a",
        "v"
      ],
      [
        "c",
        "i"
      ],
      [
        "i",
        "g"
      ],
      [
        "a",
        "ven"
      ],
      [
        "af",
        "ter"
      ],
      [
        "m",
        "ight"
      ],
      [
        "l",
        "ess"
      ],
      [
        "1",
        "8"
      ],
      [
        "e",
        "v"
      ],
      [
        "ever",
        "y"
      ],
      [
        "ha",
        "st"
      ],
      [
        "re",
        "e"
      ],
      [
        "whe",
        "re"
      ],
      [
        "w",
        "ould"
      ],
      [
        "p",
        "ass"
      ],
      [
        "i",
        "ce"
      ],
      [
        "en",
        "ce"
      ],
      [
        "p",
        "la"
      ],
      [
        "d",
        "id"
      ],
      [
        "th",
        "an"
      ],
      [
        "the",
        "se"
      ],
      [
        "ar",
        "s"
      ],
      [
        "com",
        "m"
      ],
      [
        "w",
        "ard"
      ],
      [
        "d",
        "own"
      ],
      [
        "e",
        "ven"
      ],
      [
        "or",
        "n"
      ],
      [
        "1",
        "9"
      ],
      [
        "1",
        "7"
      ],
      [
        "is",
        "h"
      ],
      [
        "a",
        "ve"
      ],
      [
        "s",
        "in"
      ],
      [
        "c",
        "an"
      ],
      [
        "li",
        "ke"
      ],
      [
        "t",
        "ru"
      ],
      [
        "oun",
        "t"
      ],
      [
        ",",
        "*"
      ],
      [
        "ser",
        "v"
      ],
      [
        "2",
        "0"
      ],
      [
        "ir",
        "st"
      ],
      [
        "f",
        "l"
      ],
      [
        "p",
        "ri"
      ],
      [
        "t",
        "s"
      ],
      [
        "d",
        "es"
      ],
      [
        "o",
        "se"
      ],
      [
        "o",
        "s"
      ],
      [
        "e",
        "x"
      ],
      [
        "2",
        "1"
      ],
      [
        "2",
        "2"
      ],
      [
        "o",
        "l"
      ],
      [
        "lo",
        "ve"
      ],
      [
        "say",
        "ing"
      ],
      [
        "L",
        "ord"
      ],
      [
        "d",
        "is"
      ],
      [
        "c",
        "es"
      ],
      [
        "c",
        "er"
      ],
      [
        "c",
        "all"
      ],
      [
        "it",
        "t"
      ],
      [
        "thing",
        "s"
      ],
      [
        "an",
        "g"
      ],
      [
        "gi",
        "ve"
      ],
      [
        "re",
        "t"
      ],
      [
        "na",
        "me"
      ],
      [
        "u",
        "ght"
      ],
      [
        "for",
        "th"
      ],
      [
        "E",
        "N"
      ],
      [
        "sa",
        "ith"
      ],
      [
        "f",
        "ul"
      ],
      [
        "it",
        "e"
      ],
      [
        "ti",
        "me"
      ],
      [
        "i",
        "ther"
      ],
      [
        "ho",
        "w"
      ],
      [
        "he",
        "ar"
      ],
      [
        "f",
        "ull"
      ],
      [
        "er",
        "ing"
      ],
      [
        "b",
        "ro"
      ],
      [
        "g",
        "l"
      ],
      [
        "I",
        "N"
      ],
      [
        "p",
        "ut"
      ],
      [
        "t",
        "ake"
      ],
      [
        "2",
        "3"
      ],
      [
        "u",
        "e"
      ],
      [
        "f",
        "t"
      ],
      [
        "m",
        "er"
      ],
      [
        "T",
        "hou"
      ],
      [
        "ear",
        "th"
      ],
      [
        "k",
        "en"
      ],
      [
        "ye",
        "t"
      ],
      [
        "t",
        "wo"
      ],
      [
        "rou",
        "ght"
      ],
      [
        "i",
        "ah"
      ],
      [
        "I",
        "O"
      ],
      [
        "p",
        "art"
      ],
      [
        "m",
        "on"
      ],
      [
        "s",
        "ou"
      ],
      [
        "2",
        "4"
      ],
      [
        "son",
        "s"
      ],
      [
        "m",
        "ed"
      ],
      [
        "m",
        "ine"
      ],
      [
        "ac",
        "c"
      ],
      [
        "W",
        "hat"
      ],
      [
        "ig",
        "n"
      ],
      [
        "p",
        "re"
      ],
      [
        "j",
        "o"
      ],
      [
        "in",
        "k"
      ],
      [
        "T",
        "his"
      ],
      [
        "c",
        "l"
      ],
      [
        "th",
        "ine"
      ],
      [
        "N",
        "ow"
      ],
      [
        "b",
        "le"
      ],
      [
        "o",
        "th"
      ],
      [
        "a",
        "way"
      ],
      [
        "b",
        "l"
      ],
      [
        "c",
        "ri"
      ],
      [
        "o",
        "t"
      ],
      [
        "li",
        "ve"
      ],
      [
        "s",
        "i"
      ],
      [
        "The",
        "re"
      ],
      [
        "J",
        "es"
      ],
      [
        "n",
        "ight"
      ],
      [
        "und",
        "er"
      ],
      [
        "he",
        "n"
      ],
      [
        "so",
        "me"
      ],
      [
        "serv",
        "ant"
      ],
      [
        ".",
        "”"
      ],
      [
        "who",
        "m"
      ],
      [
        "g",
        "ra"
      ],
      [
        "pla",
        "ce"
      ],
      [
        "d",
        "a"
      ],
      [
        "A",
        "R"
      ],
      [
        "st",
        "and"
      ],
      [
        "se",
        "t"
      ],
      [
        "l",
        "ord"
      ],
      [
        "re",
        "ad"
      ],
      [
        "2",
        "5"
      ],
      [
        "res",
        "s"
      ],
      [
        "f",
        "irst"
      ],
      [
        "be",
        "cause"
      ],
      [
        "rou",
        "gh"
      ],
      [
        "v",
        "o"
      ],
      [
        "li",
        "ght"
      ],
      [
        "su",
        "ch"
      ],
      [
        "man",
        "y"
      ],
      [
        "b",
        "u"
      ],
      [
        "2",
        "6"
      ],
      [
        "comm",
        "and"
      ],
      [
        "D",
        "av"
      ],
      [
        "Dav",
        "id"
      ],
      [
        "h",
        "y"
      ],
      [
        "s",
        "ent"
      ],
      [
        "or",
        "t"
      ],
      [
        "in",
        "t"
      ],
      [
        "o",
        "p"
      ],
      [
        "li",
        "fe"
      ],
      [
        "there",
        "fore"
      ],
      [
        "e",
        "ld"
      ],
      [
        "wor",
        "k"
      ],
      [
        "J",
        "e"
      ],
      [
        "a",
        "ch"
      ],
      [
        "a",
        "ce"
      ],
      [
        "w",
        "at"
      ],
      [
        "J",
        "er"
      ],
      [
        "he",
        "aven"
      ],
      [
        "am",
        "ong"
      ],
      [
        "br",
        "ing"
      ],
      [
        "Jes",
        "us"
      ],
      [
        "e",
        "y"
      ],
      [
        "b",
        "rought"
      ],
      [
        "e",
        "m"
      ],
      [
        "pri",
        "est"
      ],
      [
        "do",
        "m"
      ],
      [
        ",",
        "”"
      ],
      [
        "be",
        "g"
      ],
      [
        "ab",
        "le"
      ],
      [
        "pr",
        "ay"
      ],
      [
        "c",
        "ity"
      ],
      [
        "th",
        "us"
      ],
      [
        "t",
        "y"
      ],
      [
        "he",
        "ad"
      ],
      [
        "I",
        "f"
      ],
      [
        "day",
        "s"
      ],
      [
        "to",
        "ok"
      ],
      [
        "l",
        "ed"
      ],
      [
        "off",
        "ering"
      ],
      [
        "2",
        "7"
      ],
      [
        "as",
        "e"
      ],
      [
        "ha",
        "r"
      ],
      [
        "spe",
        "ak"
      ],
      [
        "W",
        "ith"
      ],
      [
        "u",
        "ch"
      ],
      [
        "o",
        "ld"
      ],
      [
        "j",
        "ud"
      ],
      [
        "h",
        "r"
      ],
      [
        "ne",
        "w"
      ],
      [
        "e",
        "f"
      ],
      [
        "st",
        "r"
      ],
      [
        "there",
        "of"
      ],
      [
        "it",
        "es"
      ],
      [
        "A",
        "b"
      ],
      [
        "a",
        "ge"
      ],
      [
        "le",
        "m"
      ],
      [
        "he",
        "ard"
      ],
      [
        "J",
        "ud"
      ],
      [
        "te",
        "ll"
      ],
      [
        "de",
        "ath"
      ],
      [
        "o",
        "m"
      ],
      [
        "sa",
        "w"
      ],
      [
        "th",
        "rough"
      ],
      [
        "wi",
        "fe"
      ],
      [
        "b",
        "a"
      ],
      [
        "2",
        "8"
      ],
      [
        "lo",
        "od"
      ],
      [
        "t",
        "ain"
      ],
      [
        "ar",
        "k"
      ],
      [
        "be",
        "t"
      ],
      [
        "d",
        "one"
      ],
      [
        "U",
        "S"
      ],
      [
        "b",
        "it"
      ],
      [
        "e",
        "at"
      ],
      [
        "M",
        "y"
      ],
      [
        "s",
        "to"
      ],
      [
        "p",
        "he"
      ],
      [
        "ab",
        "out"
      ],
      [
        "be",
        "hold"
      ],
      [
        "ce",
        "i"
      ],
      [
        "u",
        "m"
      ],
      [
        "li",
        "e"
      ],
      [
        "W",
        "e"
      ],
      [
        "f",
        "ound"
      ],
      [
        "hi",
        "gh"
      ],
      [
        "ll",
        "ow"
      ],
      [
        "ne",
        "ither"
      ],
      [
        "os",
        "es"
      ],
      [
        "v",
        "ing"
      ],
      [
        "acc",
        "ord"
      ],
      [
        "c",
        "le"
      ],
      [
        "u",
        "sa"
      ],
      [
        "la",
        "w"
      ],
      [
        "M",
        "oses"
      ],
      [
        "w",
        "r"
      ],
      [
        "b",
        "es"
      ],
      [
        "W",
        "ho"
      ],
      [
        "l",
        "ong"
      ],
      [
        "s",
        "h"
      ],
      [
        "ing",
        "s"
      ],
      [
        "be",
        "en"
      ],
      [
        "re",
        "st"
      ],
      [
        "s",
        "hi"
      ],
      [
        "on",
        "d"
      ],
      [
        "a",
        "le"
      ],
      [
        "da",
        "ught"
      ],
      [
        "ir",
        "it"
      ],
      [
        "2",
        "9"
      ],
      [
        "W",
        "here"
      ],
      [
        "h",
        "on"
      ],
      [
        "v",
        "i"
      ],
      [
        "C",
        "hr"
      ],
      [
        "po",
        "s"
      ],
      [
        "or",
        "y"
      ],
      [
        "he",
        "d"
      ],
      [
        "l",
        "ay"
      ],
      [
        "g",
        "y"
      ],
      [
        "thou",
        "gh"
      ],
      [
        "call",
        "ed"
      ],
      [
        "Jer",
        "usa"
      ],
      [
        "Jerusa",
        "lem"
      ],
      [
        "m",
        "ust"
      ],
      [
        "sel",
        "ves"
      ],
      [
        "rou",
        "nd"
      ],
      [
        "word",
        "s"
      ],
      [
        "b",
        "lood"
      ],
      [
        "s",
        "and"
      ],
      [
        "ation",
        "s"
      ],
      [
        "Jud",
        "ah"
      ],
      [
        "him",
        "self"
      ],
      [
        "W",
        "hen"
      ],
      [
        "sou",
        "l"
      ],
      [
        "t",
        "ri"
      ],
      [
        "b",
        "urn"
      ],
      [
        "accord",
        "ing"
      ],
      [
        "W",
        "hi"
      ],
      [
        "t",
        "en"
      ],
      [
        "an",
        "ge"
      ],
      [
        "wor",
        "ld"
      ],
      [
        "fi",
        "re"
      ],
      [
        "t",
        "urn"
      ],
      [
        "w",
        "ar"
      ],
      [
        "ro",
        "y"
      ],
      [
        "ev",
        "il"
      ],
      [
        "c",
        "re"
      ],
      [
        "ck",
        "ed"
      ],
      [
        "bro",
        "ther"
      ],
      [
        "f",
        "all"
      ],
      [
        "bo",
        "th"
      ],
      [
        "go",
        "ld"
      ],
      [
        "d",
        "en"
      ],
      [
        "thou",
        "sand"
      ],
      [
        "3",
        "0"
      ],
      [
        "S",
        "he"
      ],
      [
        "d",
        "r"
      ],
      [
        "w",
        "ise"
      ],
      [
        "sp",
        "ake"
      ],
      [
        "E",
        "gy"
      ],
      [
        "s",
        "we"
      ],
      [
        "mb",
        "er"
      ],
      [
        "3",
        "1"
      ],
      [
        "c",
        "ar"
      ],
      [
        "d",
        "est"
      ],
      [
        "m",
        "uch"
      ],
      [
        "th",
        "ose"
      ],
      [
        "ow",
        "er"
      ],
      [
        "U",
        "C"
      ],
      [
        "g",
        "u"
      ],
      [
        "J",
        "o"
      ],
      [
        "c",
        "ast"
      ],
      [
        "n",
        "g"
      ],
      [
        "t",
        "re"
      ],
      [
        "or",
        "row"
      ],
      [
        "p",
        "i"
      ],
      [
        "ey",
        "es"
      ],
      [
        "with",
        "out"
      ],
      [
        "Chr",
        "ist"
      ],
      [
        "te",
        "m"
      ],
      [
        "c",
        "our"
      ],
      [
        "o",
        "me"
      ],
      [
        "n",
        "ing"
      ],
      [
        "mo",
        "st"
      ],
      [
        "E",
        "R"
      ],
      [
        "The",
        "y"
      ],
      [
        "I",
        "t"
      ],
      [
        "n",
        "one"
      ],
      [
        "al",
        "t"
      ],
      [
        "ke",
        "ep"
      ],
      [
        "IN",
        "G"
      ],
      [
        "A",
        "N"
      ],
      [
        "gi",
        "ven"
      ],
      [
        "ho",
        "st"
      ],
      [
        "s",
        "ide"
      ],
      [
        "c",
        "y"
      ],
      [
        "i",
        "ly"
      ],
      [
        "s",
        "le"
      ],
      [
        "es",
        "h"
      ],
      [
        "und",
        "red"
      ],
      [
        "h",
        "undred"
      ],
      [
        "p",
        "h"
      ],
      [
        "pro",
        "phe"
      ],
      [
        "s",
        "po"
      ],
      [
        "de",
        "ad"
      ],
      [
        "at",
        "t"
      ],
      [
        "c",
        "lo"
      ],
      [
        "Th",
        "us"
      ],
      [
        "L",
        "et"
      ],
      [
        "th",
        "ree"
      ],
      [
        "3",
        "2"
      ],
      [
        "ver",
        "y"
      ],
      [
        "p",
        "res"
      ],
      [
        "i",
        "re"
      ],
      [
        "fe",
        "ar"
      ],
      [
        "a",
        "ul"
      ],
      [
        "ct",
        "ion"
      ],
      [
        "m",
        "ount"
      ],
      [
        "d",
        "well"
      ],
      [
        "lo",
        "ok"
      ],
      [
        "con",
        "t"
      ],
      [
        "ye",
        "ars"
      ],
      [
        "h",
        "u"
      ],
      [
        "ne",
        "ver"
      ],
      [
        "an",
        "other"
      ],
      [
        "ple",
        "as"
      ],
      [
        "g",
        "a"
      ],
      [
        "l",
        "s"
      ],
      [
        "l",
        "es"
      ],
      [
        "fa",
        "ce"
      ],
      [
        "c",
        "ed"
      ],
      [
        "m",
        "ar"
      ],
      [
        "se",
        "ven"
      ],
      [
        "al",
        "k"
      ],
      [
        "f",
        "ri"
      ],
      [
        "E",
        "S"
      ],
      [
        "ment",
        "s"
      ],
      [
        "cha",
        "r"
      ],
      [
        "k",
        "ind"
      ],
      [
        "H",
        "is"
      ],
      [
        "e",
        "ous"
      ],
      [
        "re",
        "m"
      ],
      [
        "c",
        "ut"
      ],
      [
        "di",
        "e"
      ],
      [
        "vo",
        "ice"
      ],
      [
        "pe",
        "ace"
      ],
      [
        "f",
        "our"
      ],
      [
        "p",
        "p"
      ],
      [
        "it",
        "ies"
      ],
      [
        "ar",
        "y"
      ],
      [
        "thou",
        "ght"
      ],
      [
        "E",
        "T"
      ],
      [
        "wo",
        "man"
      ],
      [
        "h",
        "or"
      ],
      [
        "H",
        "ow"
      ],
      [
        "ge",
        "ther"
      ],
      [
        "de",
        "v"
      ],
      [
        "m",
        "s"
      ],
      [
        "Whi",
        "ch"
      ],
      [
        "c",
        "ount"
      ],
      [
        "ho",
        "ly"
      ],
      [
        "Egy",
        "pt"
      ],
      [
        "p",
        "ur"
      ],
      [
        "G",
        "o"
      ],
      [
        "Y",
        "e"
      ],
      [
        "g",
        "ave"
      ],
      [
        "jud",
        "g"
      ],
      [
        "3",
        "3"
      ],
      [
        "to",
        "gether"
      ],
      [
        "pr",
        "in"
      ],
      [
        "itt",
        "le"
      ],
      [
        "Be",
        "hold"
      ],
      [
        "O",
        "r"
      ],
      [
        "un",
        "t"
      ],
      [
        "w",
        "a"
      ],
      [
        "o",
        "ve"
      ],
      [
        "A",
        "ll"
      ],
      [
        "s",
        "m"
      ],
[...]
