{
  "version": "1.0",
  "truncation": null,
  "padding": null,
  "added_tokens": [
    {
      "id": 0,
      "content": "[UNK]",
      "single_word": false,
      "lstrip": false,
      "rstrip": false,
      "normalized": false,
      "special": true
    },
    {
      "id": 1,
      "content": "[PAD]",
      "single_word": false,
      "lstrip": false,
      "rstrip": false,
      "normalized": false,
      "special": true
    },
    {
      "id": 2,
      "content": "[BOS]",
      "single_word": false,
      "lstrip": false,
      "rstrip": false,
      "normalized": false,
      "special": true
    },
    {
      "id": 3,
      "content": "[EOS]",
      "single_word": false,
      "lstrip": false,
      "rstrip": false,
      "normalized": false,
      "special": true
    },
    {
      "id": 4,
      "content": "[SEP]",
      "single_word": false,
      "lstrip": false,
      "rstrip": false,
      "normalized": false,
      "special": true
    },
    {
      "id": 5,
      "content": "[MASK]",
      "single_word": false,
      "lstrip": false,
      "rstrip": false,
      "normalized": false,
      "special": true
    },
    {
      "id": 6,
      "content": "[CLS]",
      "single_word": false,
      "lstrip": false,
      "rstrip": false,
      "normalized": false,
      "special": true
    },
    {
      "id": 7,
      "content": "<|im_start|>",
      "single_word": false,
      "lstrip": false,
      "rstrip": false,
      "normalized": false,
      "special": true
    },
    {
      "id": 8,
      "content": "<|im_end|>",
      "single_word": false,
      "lstrip": false,
      "rstrip": false,
      "normalized": false,
      "special": true
    },
    {
      "id": 9,
      "content": "<|start_header_id|>",
      "single_word": false,
      "lstrip": false,
      "rstrip": false,
      "normalized": false,
      "special": true
    },
    {
      "id": 10,
      "content": "<|end_header_id|>",
      "single_word": false,
      "lstrip": false,
      "rstrip": false,
      "normalized": false,
      "special": true
    },
    {
      "id": 11,
      "content": "<|eot_id|>",
      "single_word": false,
      "lstrip": false,
      "rstrip": false,
      "normalized": false,
      "special": true
    },
    {
      "id": 12,
      "content": "<start_of_turn>",
      "single_word": false,
      "lstrip": false,
      "rstrip": false,
      "normalized": false,
      "special": true
    },
    {
      "id": 13,
      "content": "<end_of_turn>",
      "single_word": false,
      "lstrip": false,
      "rstrip": false,
      "normalized": false,
      "special": true
    },
    {
      "id": 14,
      "content": "<|tool_call|>",
      "single_word": false,
      "lstrip": false,
      "rstrip": false,
      "normalized": false,
      "special": true
    },
    {
      "id": 15,
      "content": "<|tool_result|>",
      "single_word": false,
      "lstrip": false,
      "rstrip": false,
      "normalized": false,
      "special": true
    },
    {
      "id": 16,
      "content": "<|doc_start|>",
      "single_word": false,
      "lstrip": false,
      "rstrip": false,
      "normalized": false,
      "special": true
    },
    {
      "id": 17,
      "content": "<|doc_end|>",
      "single_word": false,
      "lstrip": false,
      "rstrip": false,
      "normalized": false,
      "special": true
    },
    {
      "id": 18,
      "content": "<|code_start|>",
      "single_word": false,
      "lstrip": false,
      "rstrip": false,
      "normalized": false,
      "special": true
    },
    {
      "id": 19,
      "content": "<|code_end|>",
      "single_word": false,
      "lstrip": false,
      "rstrip": false,
      "normalized": false,
      "special": true
    },
    {
      "id": 20,
      "content": "<|system|>",
      "single_word": false,
      "lstrip": false,
      "rstrip": false,
      "normalized": false,
      "special": true
    }
  ],
  "normalizer": null,
  "pre_tokenizer": {
    "type": "ByteLevel",
    "add_prefix_space": true,
    "trim_offsets": true,
    "use_regex": true
  },
  "post_processor": null,
  "decoder": {
    "type": "ByteLevel",
    "add_prefix_space": true,
    "trim_offsets": true,
    "use_regex": true
  },
  "model": {
    "type": "BPE",
    "dropout": null,
    "unk_token": "[UNK]",
    "continuing_subword_prefix": null,
    "end_of_word_suffix": null,
    "fuse_unk": false,
    "byte_fallback": false,
    "ignore_merges": false,
    "vocab": {
      "[UNK]": 0,
      "[PAD]": 1,
      "[BOS]": 2,
      "[EOS]": 3,
      "[SEP]": 4,
      "[MASK]": 5,
      "[CLS]": 6,
      "<|im_start|>": 7,
      "<|im_end|>": 8,
      "<|start_header_id|>": 9,
      "<|end_header_id|>": 10,
      "<|eot_id|>": 11,
      "<start_of_turn>": 12,
      "<end_of_turn>": 13,
      "<|tool_call|>": 14,
      "<|tool_result|>": 15,
      "<|doc_start|>": 16,
      "<|doc_end|>": 17,
      "<|code_start|>": 18,
      "<|code_end|>": 19,
      "<|system|>": 20,
      "!": 21,
      "\"": 22,
      "#": 23,
      "$": 24,
      "%": 25,
      "&": 26,
      "'": 27,
      "(": 28,
      ")": 29,
      "*": 30,
      "+": 31,
      ",": 32,
      "-": 33,
      ".": 34,
      "/": 35,
      "0": 36,
      "1": 37,
      "2": 38,
      "3": 39,
      "4": 40,
      "5": 41,
      "6": 42,
      "7": 43,
      "8": 44,
      "9": 45,
      ":": 46,
      ";": 47,
      "<": 48,
      "=": 49,
      ">": 50,
      "?": 51,
      "@": 52,
      "A": 53,
      "B": 54,
      "C": 55,
      "D": 56,
      "E": 57,
      "F": 58,
      "G": 59,
      "H": 60,
      "I": 61,
      "J": 62,
      "K": 63,
      "L": 64,
      "M": 65,
      "N": 66,
      "O": 67,
      "P": 68,
      "Q": 69,
      "R": 70,
      "S": 71,
      "T": 72,
      "U": 73,
      "V": 74,
      "W": 75,
      "X": 76,
      "Y": 77,
      "Z": 78,
      "[": 79,
      "\\": 80,
      "]": 81,
      "^": 82,
      "_": 83,
      "`": 84,
      "a": 85,
      "b": 86,
      "c": 87,
      "d": 88,
      "e": 89,
      "f": 90,
      "g": 91,
      "h": 92,
      "i": 93,
      "j": 94,
      "k": 95,
      "l": 96,
      "m": 97,
      "n": 98,
      "o": 99,
      "p": 100,
      "q": 101,
      "r": 102,
      "s": 103,
      "t": 104,
      "u": 105,
      "v": 106,
      "w": 107,
      "x": 108,
      "y": 109,
      "z": 110,
      "|": 111,
      "}": 112,
      "~": 113,
      "¡": 114,
      "¢": 115,
      "£": 116,
      "¤": 117,
      "¥": 118,
      "¦": 119,
      "§": 120,
      "¨": 121,
      "©": 122,
      "ª": 123,
      "«": 124,
      "¬": 125,
      "®": 126,
      "¯": 127,
      "°": 128,
      "±": 129,
      "²": 130,
      "³": 131,
      "´": 132,
      "µ": 133,
      "¶": 134,
      "·": 135,
      "¸": 136,
      "¹": 137,
      "º": 138,
      "»": 139,
      "¼": 140,
      "½": 141,
      "¾": 142,
      "¿": 143,
      "Â": 144,
      "Ã": 145,
      "Ä": 146,
      "Å": 147,
      "Æ": 148,
      "Ç": 149,
      "È": 150,
      "É": 151,
      "Ê": 152,
      "Ë": 153,
      "Ì": 154,
      "Í": 155,
      "Î": 156,
      "Ï": 157,
      "Ð": 158,
      "Ñ": 159,
      "Ò": 160,
      "Ó": 161,
      "Ô": 162,
      "Õ": 163,
      "Ö": 164,
      "×": 165,
      "Ø": 166,
      "Ù": 167,
      "Ú": 168,
      "Û": 169,
      "Ü": 170,
      "ß": 171,
      "à": 172,
      "á": 173,
      "â": 174,
      "ã": 175,
      "ä": 176,
      "å": 177,
      "æ": 178,
      "ç": 179,
      "è": 180,
      "é": 181,
      "ê": 182,
      "ë": 183,
      "ì": 184,
      "í": 185,
      "ï": 186,
      "ð": 187,
      "Ċ": 188,
      "Ġ": 189,
      "Ģ": 190,
      "ģ": 191,
      "Ĥ": 192,
      "ĥ": 193,
      "Ħ": 194,
      "ħ": 195,
      "Ĩ": 196,
      "ĩ": 197,
      "Ī": 198,
      "ī": 199,
      "Ĭ": 200,
      "ĭ": 201,
      "Į": 202,
      "į": 203,
      "İ": 204,
      "ı": 205,
      "Ĳ": 206,
      "ĳ": 207,
      "Ĵ": 208,
      "ĵ": 209,
      "Ķ": 210,
      "ķ": 211,
      "ĸ": 212,
      "Ĺ": 213,
      "ĺ": 214,
      "Ļ": 215,
      "ļ": 216,
      "Ľ": 217,
      "ľ": 218,
      "Ŀ": 219,
      "ŀ": 220,
      "Ł": 221,
      "ł": 222,
      "Ń": 223,
      "Ġt": 224,
      "Ġa": 225,
      "in": 226,
      "he": 227,
      "re": 228,
      "on": 229,
      "Ġthe": 230,
      "er": 231,
      "Ġs": 232,
      "Ġw": 233,
      "at": 234,
      "Ġo": 235,
      "nd": 236,
      "Ġc": 237,
      "it": 238,
      "or": 239,
      "es": 240,
      "is": 241,
      "en": 242,
      "ou": 243,
      "Ġf": 244,
      "Ġb": 245,
      "ing": 246,
      "Ġp": 247,
      "ed": 248,
      "an": 249,
      "al": 250,
      "Ġto": 251,
      "Ġm": 252,
      "ar": 253,
      "Ġand": 254,
      "Ġof": 255,
      "Ġin": 256,
      "Ġd": 257,
      "ic": 258,
      "le": 259,
      "Ġh": 260,
      "as": 261,
      "om": 262,
      "ion": 263,
      "Ġth": 264,
      "ll": 265,
      "âĢ": 266,
      "ent": 267,
      "Ġl": 268,
      "ĠT": 269,
      "ĠI": 270,
      "ve": 271,
      "Ġe": 272,
      "Ġre": 273,
      "st": 274,
      "Ġn": 275,
      "ro": 276,
      "Ġy": 277,
      "Ġg": 278,
      "ly": 279,
      "ct": 280,
      "ĠS": 281,
      "Ġbe": 282,
      "ĠA": 283,
      "et": 284,
      "ut": 285,
      "Ġyou": 286,
      "Ġis": 287,
      "ot": 288,
      "id": 289,
      "ĠC": 290,
      "Ġon": 291,
      "Ġfor": 292,
      "ay": 293,
      "ow": 294,
      "ur": 295,
      "se": 296,
      "im": 297,
      "ce": 298,
      "ad": 299,
      "ig": 300,
      "am": 301,
      "Ġthat": 302,
      "ver": 303,
      "Ġu": 304,
      "ch": 305,
      "il": 306,
      "ith": 307,
      "Ġst": 308,
      "ation": 309,
      "ĠM": 310,
      "ol": 311,
      "ir": 312,
      "Ġwith": 313,
      "âĢĻ": 314,
      "Ġit": 315,
      "ĠB": 316,
      "Ġhe": 317,
      "ĠP": 318,
      "ĠThe": 319,
      "ĠW": 320,
      "Ġwe": 321,
      "ra": 322,
      "Ġan": 323,
      "Ġwh": 324,
      "Ġas": 325,
      "ill": 326,
      "ers": 327,
      "ĠH": 328,
      "if": 329,
      "ke": 330,
      "Ġpro": 331,
      "ter": 332,
      "Ġare": 333,
      "ĠD": 334,
      "Ġha": 335,
      "ge": 336,
      "ĠF": 337,
      "Ġcon": 338,
      "ld": 339,
      "oo": 340,
      "her": 341,
      "Ġor": 342,
      "ul": 343,
      "ate": 344,
      "ĠR": 345,
      "ess": 346,
      "pp": 347,
      "Ġ1": 348,
      "Ġat": 349,
      "ck": 350,
      "Ġcom": 351,
      "Ġse": 352,
      "ment": 353,
      "ore": 354,
      "ri": 355,
      "est": 356,
      "Ġde": 357,
      "us": 358,
      "ĠâĢ": 359,
      "Ġ2": 360,
      "igh": 361,
      "ĠL": 362,
      "ab": 363,
      "th": 364,
      "Ġwas": 365,
      "Ġ(": 366,
      "rom": 367,
      "ist": 368,
      "Ġne": 369,
      "Ġex": 370,
      "pe": 371,
      "ĠN": 372,
      "ĠG": 373,
      "un": 374,
      "ĠE": 375,
      "ant": 376,
      "ity": 377,
      "qu": 378,
      "Ġv": 379,
      "Ġsu": 380,
      "res": 381,
      "ive": 382,
      "Ġ-": 383,
      "Ġhave": 384,
      "ort": 385,
      "op": 386,
      "Ġr": 387,
      "ĠO": 388,
      "em": 389,
      "Ġyour": 390,
      "ain": 391,
      "art": 392,
      "Ġthis": 393,
      "Ġfrom": 394,
      "ust": 395,
      "Ġnot": 396,
      "nt": 397,
      "Ġsh": 398,
      "um": 399,
      "el": 400,
      "os": 401,
      "Ġby": 402,
      "Ġal": 403,
      "ies": 404,
      "Ġch": 405,
      "and": 406,
      "ight": 407,
      "Ġcan": 408,
      "Ġle": 409,
      "ie": 410,
      "all": 411,
      "ome": 412,
      "ard": 413,
      "Ġwill": 414,
      "out": 415,
      "ould": 416,
      "ud": 417,
      "Ġab": 418,
      "ĠJ": 419,
      "red": 420,
      "our": 421,
      "Ġdo": 422,
      "iv": 423,
      "Ġwor": 424,
      "ally": 425,
      "gh": 426,
      "te": 427,
      "ost": 428,
      "00": 429,
      "Ġpl": 430,
      "od": 431,
      "Ġall": 432,
      "rou": 433,
      "ast": 434,
      "Ġj": 435,
      "ide": 436,
      "ci": 437,
      "'s": 438,
      "ear": 439,
      "ak": 440,
      "ine": 441,
      "Ġk": 442,
      "ure": 443,
      "ag": 444,
      "per": 445,
      "ĠTh": 446,
      "fe": 447,
      "Ġso": 448,
      "Ġhas": 449,
      "pt": 450,
      "Ġme": 451,
      "ĠâĢľ": 452,
      "Ġwhe": 453,
      "Ġbut": 454,
      "âĢĿ": 455,
      "ack": 456,
      "ice": 457,
      "ĠU": 458,
      "ĠIn": 459,
      "age": 460,
      "Ġus": 461,
      "ction": 462,
      "ac": 463,
      "Ġad": 464,
      "ther": 465,
      "Ġout": 466,
      "ich": 467,
      "Ġcomp": 468,
      "Ġup": 469,
      "ook": 470,
      "ake": 471,
      "one": 472,
      "Ġthey": 473,
      "ind": 474,
      "Ġtheir": 475,
      "are": 476,
      "Ġmore": 477,
      "so": 478,
      "ry": 479,
      "Ġen": 480,
      "lo": 481,
      "very": 482,
      "ong": 483,
      "able": 484,
      "Ġmy": 485,
      "ime": 486,
      "ated": 487,
      "ood": 488,
      "Ġte": 489,
      "cc": 490,
      "ĠY": 491,
      "ous": 492,
      "ite": 493,
      "Ġone": 494,
      "ip": 495,
      "Ġhis": 496,
      "ame": 497,
      "iz": 498,
      "ike": 499,
      "ans": 500,
      "Ġabout": 501,
      "Ġim": 502,
      "Ġsa": 503,
      "orm": 504,
      "Ġwho": 505,
      "ĠK": 506,
      "Ġour": 507,
      "Ġ\"": 508,
      "Ġcont": 509,
      "ber": 510,
      "og": 511,
      "ru": 512,
      "Ġgo": 513,
      "ions": 514,
      "Ġman": 515,
      "Ġfe": 516,
      "ĠIt": 517,
      "ance": 518,
      "du": 519,
      "Ġinc": 520,
      "act": 521,
      "Ġwhich": 522,
      "ĠSt": 523,
      "Ġ20": 524,
      "Ġcl": 525,
      "ne": 526,
      "Ġwork": 527,
      "Ġres": 528,
      "ia": 529,
      "ire": 530,
      "ib": 531,
      "ase": 532,
      "ail": 533,
      "ign": 534,
      "ree": 535,
      "ap": 536,
      "Ġapp": 537,
      "oc": 538,
      "ach": 539,
      "ff": 540,
      "ations": 541,
      "Ġint": 542,
      "reat": 543,
      "ays": 544,
      "ĠV": 545,
      "ace": 546,
      "Ġper": 547,
      "ick": 548,
      "ary": 549,
      "Ġother": 550,
      "ep": 551,
      "ven": 552,
      "ult": 553,
      "ĠWe": 554,
      "Ġoff": 555,
      "Ġqu": 556,
      "ass": 557,
      "au": 558,
      "Ġtime": 559,
      "pl": 560,
      "Ġyear": 561,
      "ub": 562,
      "Ġlike": 563,
      "Ġsome": 564,
      "ical": 565,
      "ĠCh": 566,
      "Ġany": 567,
      "Ġalso": 568,
      "ue": 569,
      "Ġ3": 570,
      "Ġdis": 571,
      "ile": 572,
      "..": 573,
      "ark": 574,
      "Ġget": 575,
      "ount": 576,
      "ence": 577,
      "now": 578,
      "Ġun": 579,
      "form": 580,
      "Ġsp": 581,
      "vel": 582,
      "Ġthem": 583,
      "Ġhad": 584,
      "ings": 585,
      "ord": 586,
      "Ġnew": 587,
      "Ġpart": 588,
      "ress": 589,
      "erv": 590,
      "Ġwere": 591,
      "Ġbeen": 592,
      "Ġag": 593,
      "ond": 594,
      "Ġher": 595,
      "Ġthere": 596,
      "ĠHe": 597,
      "Ġpe": 598,
      "Ġover": 599,
      "Ġwhen": 600,
      "ove": 601,
      "ition": 602,
      "Ġwould": 603,
      "Ġwhat": 604,
      "ough": 605,
      "Ġar": 606,
      "ĠThis": 607,
      "ents": 608,
      "ial": 609,
      "av": 610,
      "ink": 611,
      "Ġif": 612,
      "ors": 613,
      "Ġjust": 614,
      "Ġthan": 615,
      "Ġtr": 616,
      "ens": 617,
      "Ġ201": 618,
      "port": 619,
      "ound": 620,
      "ild": 621,
      "Ġpre": 622,
      "Ġro": 623,
      "Ġspe": 624,
      "int": 625,
      "Ġbec": 626,
      "ish": 627,
      "mer": 628,
      "irst": 629,
      "Ġrec": 630,
      "Ġknow": 631,
      "wn": 632,
      "Ġinto": 633,
      "ople": 634,
      "Ġneed": 635,
      "own": 636,
      "ren": 637,
      "Ġno": 638,
      "nder": 639,
      "Ġsaid": 640,
      "ory": 641,
      "Ġhow": 642,
      "Ġsc": 643,
      "fter": 644,
      "ater": 645,
      "ose": 646,
      "Ġacc": 647,
      "Ġam": 648,
      "Ġco": 649,
      "lic": 650,
      "ade": 651,
      "rough": 652,
      "itt": 653,
      "Ġtw": 654,
      "Ġits": 655,
      "ov": 656,
      "Ġpeople": 657,
      "vers": 658,
      "ang": 659,
      "ning": 660,
      "old": 661,
      "ĠWh": 662,
      "Ġdes": 663,
      "Ġshe": 664,
      "ĠâĢĵ": 665,
      "lud": 666,
      "ons": 667,
      "Ġfirst": 668,
      "cial": 669,
      "ĠRe": 670,
      "ual": 671,
      "ces": 672,
      "Ġmay": 673,
      "Ġ4": 674,
      "Ġcomm": 675,
      "we": 676,
      "ause": 677,
      "ian": 678,
      "ates": 679,
      "hed": 680,
      "amp": 681,
      "Ġonly": 682,
      "lp": 683,
      "ĠYou": 684,
      "Ġmake": 685,
      "ull": 686,
      "Ġ5": 687,
      "Ġtra": 688,
      "'t": 689,
      "ments": 690,
      "les": 691,
      "Ġmost": 692,
      "ric": 693,
      "ft": 694,
      "Ġadd": 695,
      "Ġ19": 696,
      "Ġbet": 697,
      "ob": 698,
      "Ġpo": 699,
      "end": 700,
      "rent": 701,
      "ating": 702,
      "Ġhelp": 703,
      "Ġlook": 704,
      "Ġprov": 705,
      "Ġback": 706,
      "Ġind": 707,
      "ily": 708,
      "Ġem": 709,
      "tern": 710,
      "Ġevery": 711,
      "day": 712,
      "Ġwant": 713,
      "round": 714,
      "Ġthrough": 715,
      "Ġinclud": 716,
      "ĠAs": 717,
      "Ġcons": 718,
      "hing": 719,
      "ise": 720,
      "ious": 721,
      "Ġtwo": 722,
      "Ġsee": 723,
      "Ġuse": 724,
      "Ġact": 725,
      "Ġwell": 726,
      "iew": 727,
      "ĠNe": 728,
      "Ġbu": 729,
      "ĠIf": 730,
      "Ġprodu": 731,
      "gr": 732,
      "Ġthese": 733,
      "Ġunder": 734,
      ").": 735,
      "sel": 736,
      "ect": 737,
      "ks": 738,
      "ities": 739,
      "iss": 740,
      "ph": 741,
      "Ġph": 742,
      "Ġcould": 743,
      "Ġafter": 744,
      "ife": 745,
      "fect": 746,
      "Ġserv": 747,
      "fore": 748,
      "oll": 749,
      "ĠAnd": 750,
      "ced": 751,
      "xt": 752,
      "ific": 753,
      "hen": 754,
      "pport": 755,
      "aw": 756,
      "Ġvery": 757,
      "Ġdif": 758,
      "row": 759,
      "urn": 760,
      "Ġplay": 761,
      "ting": 762,
      "uch": 763,
      "Ġyears": 764,
      "ĠSe": 765,
      "Ġgood": 766,
      "li": 767,
      "Ġway": 768,
      "ont": 769,
      "ert": 770,
      "Ġmany": 771,
      "Ġreg": 772,
      "Ġinv": 773,
      "Ġeven": 774,
      "rit": 775,
      "Ġsy": 776,
      "lect": 777,
      "ject": 778,
      "ful": 779,
      "ys": 780,
      "erson": 781,
      "Ġpr": 782,
      "Ġimp": 783,
      "Ġstud": 784,
      "Ġra": 785,
      "Ġhim": 786,
      "als": 787,
      "ange": 788,
      "Ġwhere": 789,
      "Ġdec": 790,
      "Ġthen": 791,
      "Ġnow": 792,
      "ĠAn": 793,
      "Ġshould": 794,
      "ool": 795,
      "Ġcol": 796,
      "aking": 797,
      "Ġrem": 798,
      "oss": 799,
      "iness": 800,
      "ĠUn": 801,
      "cess": 802,
      "pect": 803,
      "Ġke": 804,
      "oth": 805,
      "Ġev": 806,
      "ational": 807,
      "Ġ200": 808,
      "Ġfl": 809,
      "Ġdid": 810,
      "bs": 811,
      "ility": 812,
      "Ġsm": 813,
      "Ġright": 814,
      "Ġexper": 815,
      "ased": 816,
      "ible": 817,
      "ward": 818,
      "ĠCom": 819,
      "ts": 820,
      ".âĢĿ": 821,
      "Ġbecause": 822,
      "com": 823,
      "Ġstart": 824,
      "olog": 825,
      "Ġrel": 826,
      "Ġsec": 827,
      "Ġdon": 828,
      "Ġown": 829,
      "||": 830,
      "get": 831,
      "ident": 832,
      "any": 833,
      "ures": 834,
      "ath": 835,
      "ular": 836,
      "Ġdown": 837,
      "erm": 838,
      "uring": 839,
      "Ġgu": 840,
      "Ġgreat": 841,
      "ices": 842,
      "Ġ6": 843,
      "Ġac": 844,
      "Ġfin": 845,
      "ble": 846,
      "ty": 847,
      "Ġbl": 848,
      "ower": 849,
      "Ġbus": 850,
      "ĠFor": 851,
      "Ġmuch": 852,
      "ĠBut": 853,
      "ĠPro": 854,
      "Ġthink": 855,
      "Ġatt": 856,
      "Ġ$": 857,
      "hip": 858,
      "Ġtoo": 859,
      "ative": 860,
      "Ġent": 861,
      "formation": 862,
      "ĠDe": 863,
      "hes": 864,
      "),": 865,
      "its": 866,
      "ract": 867,
      "Ġsuch": 868,
      "other": 869,
      "up": 870,
      "Ġ|": 871,
      "oy": 872,
      "stem": 873,
      "Ġday": 874,
      "ited": 875,
      "Ġlong": 876,
      "Ġagain": 877,
      "Ġhigh": 878,
      "omet": 879,
      "ict": 880,
      "ics": 881,
      "Ġfind": 882,
      "velop": 883,
      "alth": 884,
      "Ġinst": 885,
      "gan": 886,
      "ork": 887,
      "ĠSo": 888,
      "Ġset": 889,
      "air": 890,
      "Ġtake": 891,
      "arch": 892,
      "Ġhere": 893,
      "Ġread": 894,
      "und": 895,
      "Ġbefore": 896,
      "Ġbeing": 897,
      "ener": 898,
      "Ġinte": 899,
      "Ġthose": 900,
      "Ġmade": 901,
      "Ġwee": 902,
      "line": 903,
      "rib": 904,
      "cy": 905,
      "Ġbest": 906,
      "Ġshow": 907,
      "Ġ&": 908,
      "ĠAl": 909,
      "Ġdoes": 910,
      "Ġdiffe": 911,
      "Ġcar": 912,
      "Ġmon": 913,
      "Ġins": 914,
      "ied": 915,
      "ĠBe": 916,
      "Ġend": 917,
      "Ġperson": 918,
      "Ġpres": 919,
      "Ġmin": 920,
      "Ġcall": 921,
      "ually": 922,
      "ner": 923,
      "chool": 924,
      "Ġbel": 925,
      "ĠNew": 926,
      "Ġworld": 927,
      "ason": 928,
      "Ġloc": 929,
      "Ġass": 930,
      "Ġrequ": 931,
      "Ġsur": 932,
      "Ġ7": 933,
      "Ġ10": 934,
      "Ġhome": 935,
      "alk": 936,
      "Ġfam": 937,
      "Ġbr": 938,
      "ues": 939,
      "ix": 940,
      "ollow": 941,
      "Ġinformation": 942,
      "Ġlast": 943,
      "way": 944,
      "Ġlife": 945,
      "Ġmark": 946,
      "rest": 947,
      "Ġche": 948,
      "ank": 949,
      "ĠSh": 950,
      "ĠThere": 951,
      "Ġbusiness": 952,
      "self": 953,
      "ving": 954,
      "ell": 955,
      "ax": 956,
      "io": 957,
      "Ġav": 958,
      "Ġsim": 959,
      "gram": 960,
      "Ġhand": 961,
      "Ġdisc": 962,
      "ng": 963,
      "Ġop": 964,
      "led": 965,
      "Ġused": 966,
      "Ġmed": 967,
      "gg": 968,
      "ins": 969,
      "Ġ8": 970,
      "ffect": 971,
      "Ġmem": 972,
      "Ġwhile": 973,
      "Ġdevelop": 974,
      "ince": 975,
      "Ġear": 976,
      "ather": 977,
      "Ġsystem": 978,
      "ĠHow": 979,
      "ublic": 980,
      "atch": 981,
      "Ġtrans": 982,
      "...": 983,
      "Ġsub": 984,
      "Ġpol": 985,
      "ave": 986,
      "Ġinter": 987,
      "Ġreally": 988,
      "ouse": 989,
      "20": 990,
      "Ġcre": 991,
      "Ġart": 992,
      "ros": 993,
      "chn": 994,
      "Ġlead": 995,
      "ives": 996,
      "arm": 997,
      "az": 998,
      "Ġmod": 999,
      "akes": 1000,
      "Ġgoing": 1001,
      "Ġaround": 1002,
      "imes": 1003,
      "ĠThey": 1004,
      "ness": 1005,
      "Ġeach": 1006,
      "Ġexperi": 1007,
      "land": 1008,
      "ple": 1009,
      "Ġthough": 1010,
      "cept": 1011,
      "Ġdet": 1012,
      "Ġcount": 1013,
      ",âĢĿ": 1014,
      "ale": 1015,
      "Ġvis": 1016,
      "pr": 1017,
      "Ġnum": 1018,
      "Ġdesign": 1019,
      "ĠLe": 1020,
      "ene": 1021,
      "ved": 1022,
      "ĠOn": 1023,
      "Ġret": 1024,
      "Ġsupport": 1025,
      "Ġproduct": 1026,
      "ĠAr": 1027,
      "read": 1028,
      "Ġsomet": 1029,
      "Ġcour": 1030,
      "ock": 1031,
      "view": 1032,
      "ines": 1033,
      "Ġbo": 1034,
      "Ġstill": 1035,
      "Ġexp": 1036,
      "ality": 1037,
      "Ġfollow": 1038,
      "Ġchild": 1039,
      "oun": 1040,
      "ĠCl": 1041,
      "riend": 1042,
      "ets": 1043,
      "Ġform": 1044,
      ".\"": 1045,
      "Ġteam": 1046,
      "Ġcur": 1047,
      "ween": 1048,
      "roup": 1049,
      "ĠAd": 1050,
      "irect": 1051,
      "ctions": 1052,
      "Ġ9": 1053,
      "ional": 1054,
      "Ġbook": 1055,
      "Ġcomple": 1056,
      "Ġprovid": 1057,
      "Ġsay": 1058,
      "Ġcare": 1059,
      "ages": 1060,
      "meric": 1061,
      "Ġgr": 1062,
      "ash": 1063,
      "Ġdifferent": 1064,
      "Ġfeel": 1065,
      "Ġadv": 1066,
      "der": 1067,
      "ize": 1068,
      "Ġed": 1069,
      "Ġsign": 1070,
      "Ġstr": 1071,
      "Ġser": 1072,
      "Ġpoint": 1073,
      "Ġchar": 1074,
      "Ġsame": 1075,
      "Ġfound": 1076,
      "lease": 1077,
      "ah": 1078,
      "ittle": 1079,
      "ivers": 1080,
      "Ġcommun": 1081,
      "Ġbetween": 1082,
      "Ġaut": 1083,
      "Ġboth": 1084,
      "Ġsk": 1085,
      "Ġsl": 1086,
      "ute": 1087,
      "ars": 1088,
      "Ġrun": 1089,
      "Ġplace": 1090,
      "Ġcle": 1091,
      "Ġmet": 1092,
      "ustom": 1093,
      "Ġeas": 1094,
      "man": 1095,
      "ata": 1096,
      "Ġfew": 1097,
      "Ġthree": 1098,
      "ways": 1099,
      "Ġlot": 1100,
      "Ġprogram": 1101,
      "ution": 1102,
      "Ġhapp": 1103,
      "Ġfree": 1104,
      "ĠWhat": 1105,
      "000": 1106,
      "less": 1107,
      "Ġpur": 1108,
      "ĠAmeric": 1109,
      "Ġstate": 1110,
      "ves": 1111,
      "ever": 1112,
      "Ġrep": 1113,
      "ized": 1114,
      "ĠShe": 1115,
      "Ġthings": 1116,
      "be": 1117,
      "Ġprof": 1118,
      "Ġpost": 1119,
      "Ġlist": 1120,
      "Ġimport": 1121,
      "Ġlove": 1122,
      "ĠTo": 1123,
      "Ġprocess": 1124,
      "ton": 1125,
      "ody": 1126,
      "ames": 1127,
      "Ġext": 1128,
      "ired": 1129,
      "Ġtop": 1130,
      "ĠAll": 1131,
      "ants": 1132,
      "ient": 1133,
      "Ġfull": 1134,
      "Ġfun": 1135,
      "Ġreal": 1136,
      "Ġlittle": 1137,
      "Ġlar": 1138,
      "Ġmonth": 1139,
      "ety": 1140,
      "The": 1141,
      "ĠTe": 1142,
      "thing": 1143,
      "Ġcor": 1144,
      "Ġplan": 1145,
      "ital": 1146,
      "Ġgener": 1147,
      "Ġhealth": 1148,
      "att": 1149,
      "vern": 1150,
      "ĠWhen": 1151,
      "uc": 1152,
      "Ġreport": 1153,
      "ailable": 1154,
      "ology": 1155,
      "oh": 1156,
      "Ġduring": 1157,
      "Ġfact": 1158,
      "Ġkeep": 1159,
      "arn": 1160,
      "ross": 1161,
      "ug": 1162,
      "cer": 1163,
      "ists": 1164,
      "Ġappro": 1165,
      "Ġtechn": 1166,
      "Ġcome": 1167,
      "ature": 1168,
      "Ġfil": 1169,
      "ten": 1170,
      "Ġopen": 1171,
      "bers": 1172,
      "Ġref": 1173,
      "ĠAt": 1174,
      "Ġdef": 1175,
      "Ġschool": 1176,
      "Ġposs": 1177,
      "Ġpartic": 1178,
      "ĠQ": 1179,
      "ering": 1180,
      "Ġfr": 1181,
      "ining": 1182,
      "Ġob": 1183,
      "cent": 1184,
      "Ġusing": 1185,
      "ĠEx": 1186,
      "ically": 1187,
      "ĠPl": 1188,
      "rand": 1189,
      "Ġcontin": 1190,
      "ms": 1191,
      "Ġsomething": 1192,
      "ined": 1193,
      "Ġiss": 1194,
      "ense": 1195,
      "Ġty": 1196,
      "Ġsol": 1197,
      "Ġput": 1198,
      "gy": 1199,
      "Ġcustom": 1200,
      "Ġmust": 1201,
      "Ġcent": 1202,
      "Ġresult": 1203,
      "Ġrest": 1204,
      "ĠIs": 1205,
      "con": 1206,
      "Ġresp": 1207,
      "Ġgame": 1208,
      "Ġallow": 1209,
      "Ġmarket": 1210,
      "ished": 1211,
      "Ġbetter": 1212,
      "Ġinterest": 1213,
      "Ġwithout": 1214,
      "ield": 1215,
      "ling": 1216,
      "Ġvar": 1217,
      "Ġfriend": 1218,
      "Ġincluding": 1219,
      "Ġbig": 1220,
      "iving": 1221,
      "Ġdist": 1222,
      "Ġquest": 1223,
      "Ġpat": 1224,
      "ention": 1225,
      "Ġanother": 1226,
      "Ġpass": 1227,
      "orn": 1228,
      "Ġpri": 1229,
      "oot": 1230,
      "Ġnext": 1231,
      "Ġwater": 1232,
      "ared": 1233,
      "Ġalways": 1234,
      "uss": 1235,
      "Ġsmall": 1236,
      "ĠâĢĺ": 1237,
      "Ġval": 1238,
      "ĠFr": 1239,
      "Ġmain": 1240,
      "Ġgot": 1241,
      "Ġgroup": 1242,
      "Ġavailable": 1243,
      "atur": 1244,
      "loy": 1245,
      "iqu": 1246,
      "Ġcompany": 1247,
      "Ġconf": 1248,
      "Ġmight": 1249,
      "Ġi": 1250,
      "Ġhead": 1251,
      "Ġopt": 1252,
      "Ġstand": 1253,
      "Ġtry": 1254,
      "ĠThat": 1255,
      "Ġfamily": 1256,
      "Ġbuild": 1257,
      ",\"": 1258,
      "Ġpay": 1259,
      "Ġwom": 1260,
      "Ġide": 1261,
      "Ġtri": 1262,
      "Ġweek": 1263,
      "stand": 1264,
      "Ġorgan": 1265,
      "Ġeffect": 1266,
      "Ġwr": 1267,
      "ger": 1268,
      "Ġnever": 1269,
      "Ġmus": 1270,
      "Ġlet": 1271,
      "reen": 1272,
      "ik": 1273,
      "Ġsince": 1274,
      "Ġsecond": 1275,
      "Ġcr": 1276,
      "âĢ¦": 1277,
      "ĠâĢĶ": 1278,
      "Ġhard": 1279,
      "Ġdri": 1280,
      "Ġmov": 1281,
      "ier": 1282,
      "ĠInd": 1283,
      "Ġexperience": 1284,
      "Ġ0": 1285,
      "Ġrece": 1286,
      "ately": 1287,
      "ertain": 1288,
      "ision": 1289,
      "ploy": 1290,
      "Ġimportant": 1291,
      "Ġask": 1292,
      "oney": 1293,
      "ĠPh": 1294,
      "Ġnumber": 1295,
      "aj": 1296,
      "Ġincre": 1297,
      "me": 1298,
      "illion": 1299,
      "ĠWith": 1300,
      "Ġpublic": 1301,
      "Ġsure": 1302,
      "ism": 1303,
      "Ġproject": 1304,
      "Ġproble": 1305,
      "Ġdata": 1306,
      "ware": 1307,
      "Ġold": 1308,
      "ample": 1309,
      "Ġclass": 1310,
      "Ġbro": 1311,
      "rist": 1312,
      "10": 1313,
      "cl": 1314,
      "Ġperform": 1315,
      "els": 1316,
      "Ġinf": 1317,
      "Ġdirect": 1318,
      "Ġlevel": 1319,
      "Ġ'": 1320,
      "Ġdays": 1321,
      "ER": 1322,
      "ted": 1323,
      "Ġservice": 1324,
      "Ġ12": 1325,
      "Ġonline": 1326,
      "ĠCon": 1327,
      "Ġlaw": 1328,
      "iversity": 1329,
      "Ġagainst": 1330,
      "ĠZ": 1331,
      "ps": 1332,
      "Ġpower": 1333,
      "Ġgive": 1334,
      "ccess": 1335,
      "Ġinvest": 1336,
      "Ġve": 1337,
      "Ġcost": 1338,
      "Ġable": 1339,
      "ĠOr": 1340,
      "Ġspec": 1341,
      "Ġtest": 1342,
      "Ġgrow": 1343,
      "ĠBl": 1344,
      "Ġless": 1345,
      "Ġbre": 1346,
      "pend": 1347,
      "ex": 1348,
      "ior": 1349,
      "rence": 1350,
      "ĠNo": 1351,
      "co": 1352,
      "Ġwin": 1353,
      "Ġsit": 1354,
      "the": 1355,
      "ards": 1356,
      "Ġpos": 1357,
      "Ġrese": 1358,
      "Ġexpl": 1359,
      "work": 1360,
      "Ġbelie": 1361,
      "Ġel": 1362,
      "ret": 1363,
      "rol": 1364,
      "inal": 1365,
      "Ġca": 1366,
      "uck": 1367,
      "Ġ18": 1368,
      "Ġseem": 1369,
      "Ġblo": 1370,
      "Ġunt": 1371,
      "ird": 1372,
      "ral": 1373,
      "ĠCol": 1374,
      "ered": 1375,
      "ivid": 1376,
      "ours": 1377,
      "Ġorder": 1378,
      "ases": 1379,
      "Ġprovide": 1380,
      "Ġmeet": 1381,
      "ĠMy": 1382,
      "Ġ.": 1383,
      "ote": 1384,
      "Ġwithin": 1385,
      "ĠTr": 1386,
      "ency": 1387,
      "raph": 1388,
      "Ġcurrent": 1389,
      "ĠSp": 1390,
      "Ġlight": 1391,
      "Ġturn": 1392,
      "ission": 1393,
      "ĠUS": 1394,
      "ann": 1395,
      "Ġfour": 1396,
      "Ġhum": 1397,
      "ott": 1398,
      "ients": 1399,
      "Ġleg": 1400,
      "cing": 1401,
      "ruct": 1402,
      "Ġsays": 1403,
      "âĢĶ": 1404,
      "pped": 1405,
      "gin": 1406,
      "ffic": 1407,
      "aut": 1408,
      "ats": 1409,
      "Ġoper": 1410,
      "ably": 1411,
      "outh": 1412,
      "here": 1413,
      "Ġest": 1414,
      "ĠComm": 1415,
      "Ġgovern": 1416,
      "ration": 1417,
      "ently": 1418,
      "Ġ[": 1419,
      "ember": 1420,
      "ised": 1421,
      "Ġprev": 1422,
      "Ġtoday": 1423,
      "Ġproper": 1424,
      "Ġaccess": 1425,
      "Ġpop": 1426,
      "pping": 1427,
      "Ġservices": 1428,
      "Ġaway": 1429,
      "Ġworking": 1430,
      "ok": 1431,
      "Ġann": 1432,
      "ĠRes": 1433,
      "Ġfood": 1434,
      "Ġprote": 1435,
      "19": 1436,
      "Ġsupp": 1437,
      "Ġprom": 1438,
      "50": 1439,
      "pos": 1440,
      "Ġdi": 1441,
      "ron": 1442,
      "Ġeng": 1443,
      "Ġmaking": 1444,
      "ator": 1445,
      "eng": 1446,
      "ains": 1447,
      "ider": 1448,
      "Ġarea": 1449,
      "med": 1450,
      "Ġchildren": 1451,
      "Ġgl": 1452,
      "Ġjob": 1453,
      "ĠMar": 1454,
      "Ġview": 1455,
      "oint": 1456,
      ".,": 1457,
      "Ġaddition": 1458,
      "Ġdem": 1459,
      "Ġsing": 1460,
      "ĠMan": 1461,
      "to": 1462,
      "ium": 1463,
      "ĠSc": 1464,
      "Ġbeh": 1465,
      "Ġcase": 1466,
      "Ġphot": 1467,
      "atter": 1468,
      "Ġspecial": 1469,
      "Ġcap": 1470,
      "Ġequ": 1471,
      "tend": 1472,
      "Ġwebs": 1473,
      "Ġnight": 1474,
      "ified": 1475,
      "Ġtru": 1476,
      "Ġcourse": 1477,
      "Ġthing": 1478,
      "ĠCan": 1479,
      "hor": 1480,
      "ley": 1481,
      "Ġsal": 1482,
      "ids": 1483,
      "Ġchange": 1484,
      "iron": 1485,
      "ina": 1486,
      "Ġhist": 1487,
      "ured": 1488,
      "Ġuntil": 1489,
      "Ġchang": 1490,
      "Ġmoney": 1491,
      "iting": 1492,
      "Ġlooking": 1493,
      "ream": 1494,
      "ording": 1495,
      "ope": 1496,
      "orth": 1497,
      "Ġpast": 1498,
      "Ġstudents": 1499,
      "Ġlocal": 1500,
      "Ġpract": 1501,
      "Ġfac": 1502,
      "ĠOne": 1503,
      "Ġbas": 1504,
      "ury": 1505,
      "ories": 1506,
      "Ġvide": 1507,
      "por": 1508,
      "ify": 1509,
      "let": 1510,
      "ĠChrist": 1511,
      "Ġwhy": 1512,
      "Ġroom": 1513,
      "Ġsite": 1514,
      "Ġpresent": 1515,
      "Ġconst": 1516,
      "Ġintern": 1517,
      "arent": 1518,
      "ney": 1519,
      "Ġunderstand": 1520,
      "ĠMay": 1521,
      "ĠCent": 1522,
      "ability": 1523,
      "ump": 1524,
      "ills": 1525,
      "Ġlarge": 1526,
      "Ġkind": 1527,
      "aring": 1528,
      "ĠGod": 1529,
      "Ġwrit": 1530,
      "Ġword": 1531,
      "Ġprofess": 1532,
      "ential": 1533,
      "Ġ11": 1534,
      "ww": 1535,
      "min": 1536,
      "icle": 1537,
      "augh": 1538,
      "lection": 1539,
      "Ġimpro": 1540,
      "ization": 1541,
      "joy": 1542,
      "lish": 1543,
      "Ġname": 1544,
      "Ġleft": 1545,
      "itions": 1546,
      "Ġtimes": 1547,
      "Ġdr": 1548,
      "iven": 1549,
      "ĠOur": 1550,
      "soci": 1551,
      "Ġtoget": 1552,
      "Ġtogether": 1553,
      "Ġsuccess": 1554,
      "utes": 1555,
      "ĠCo": 1556,
      "Ġair": 1557,
      "Ġactiv": 1558,
      "Ġevent": 1559,
      "IN": 1560,
      "ged": 1561,
      "Ġterm": 1562,
      "Ġexpect": 1563,
      "Ġhaving": 1564,
      "omm": 1565,
      "Ġoften": 1566,
      "Ġ15": 1567,
      "sh": 1568,
      "'re": 1569,
      "conom": 1570,
      "agement": 1571,
      "enn": 1572,
      "Ġdra": 1573,
      "ising": 1574,
      "Ġseason": 1575,
      "ĠÂ": 1576,
      "ĠThese": 1577,
      "Ġdidn": 1578,
      "Ġemploy": 1579,
      "veral": 1580,
      "Ġtell": 1581,
      "ohn": 1582,
      "Ġlearn": 1583,
      "Ġalong": 1584,
      "Ġindust": 1585,
      "ocus": 1586,
      "ived": 1587,
      "Ġapplic": 1588,
      "ries": 1589,
      "Ġcheck": 1590,
      "ĠDo": 1591,
      "Ġcomplete": 1592,
      "Ġdev": 1593,
      "cu": 1594,
      "ode": 1595,
      "Ġnear": 1596,
      "Ġcond": 1597,
      "ĠAm": 1598,
      "ividual": 1599,
      "30": 1600,
      "Ġes": 1601,
      "ane": 1602,
      "Ġcreat": 1603,
      "ĠSu": 1604,
      "Ġmove": 1605,
      "Ġtalk": 1606,
      "Ġside": 1607,
      "ready": 1608,
      "part": 1609,
      "enef": 1610,
      "ajor": 1611,
      "Ġsw": 1612,
      "bo": 1613,
      "Ġenough": 1614,
      "ĠSte": 1615,
      "Ġcommunity": 1616,
      "Ġstory": 1617,
      "Ġever": 1618,
      "Ġpa": 1619,
      "br": 1620,
      "aster": 1621,
      "Ġhouse": 1622,
      "ĠAfter": 1623,
      "side": 1624,
      "itive": 1625,
      "urs": 1626,
      "Ġmar": 1627,
      "Ġtreat": 1628,
      "Ġbuy": 1629,
      "Ġbecome": 1630,
      "Ġshort": 1631,
      "ination": 1632,
      "ĠUniversity": 1633,
      "Ġproducts": 1634,
      "ĠCar": 1635,
      "Ġ30": 1636,
      "ĠApp": 1637,
      "Ġinclude": 1638,
      "alf": 1639,
      "Ġoffer": 1640,
      "Ġpot": 1641,
      "Ġoffic": 1642,
      "aterial": 1643,
      "Ġdone": 1644,
      "irl": 1645,
      "tain": 1646,
      "ON": 1647,
      "ead": 1648,
      "aim": 1649,
      "Ġbit": 1650,
      "Ġfeat": 1651,
      "Ġmembers": 1652,
      "Ġneeds": 1653,
      "load": 1654,
      "Ġaccount": 1655,
      "Ġclo": 1656,
      "Ġconne": 1657,
      "Ġpain": 1658,
      "son": 1659,
      "Ġmen": 1660,
      "ery": 1661,
      "Ġresearch": 1662,
      "Ġcountry": 1663,
      "Ġalready": 1664,
      "Ġbody": 1665,
      "ĠEng": 1666,
      "Ġwomen": 1667,
      "Ġcalled": 1668,
      "Ġrecord": 1669,
      "ern": 1670,
      "ĠJohn": 1671,
      "ĠFe": 1672,
      "Ġmakes": 1673,
      "by": 1674,
      "Ġfar": 1675,
      "Ġcertain": 1676,
      "ots": 1677,
      "Ġpossible": 1678,
      "Ġline": 1679,
      "Ġtrad": 1680,
      "une": 1681,
      "rap": 1682,
      "Ġ199": 1683,
      "Ġpersonal": 1684,
      "uro": 1685,
      "Ġindividual": 1686,
      "Ġlive": 1687,
      "Ġseveral": 1688,
      "'m": 1689,
      "Ġothers": 1690,
      "ows": 1691,
      "Ġenjoy": 1692,
      "ĠHowever": 1693,
      "Ġmean": 1694,
      "ails": 1695,
      "Ġbased": 1696,
      "Ġquality": 1697,
      "viron": 1698,
      "Ġcou": 1699,
      "Ġcame": 1700,
      "Ġocc": 1701,
      "ĠAmerican": 1702,
      "ec": 1703,
      "Ġeasy": 1704,
      "pportun": 1705,
      "Ġwebsite": 1706,
      "Ġmusic": 1707,
      "Ġmeans": 1708,
      "Ġreview": 1709,
      "fer": 1710,
      "oice": 1711,
      "fort": 1712,
      "Ġfollowing": 1713,
      "Ġmil": 1714,
      "Ġgetting": 1715,
      "Ġfore": 1716,
      "Ġcontrol": 1717,
      "ither": 1718,
      "Ġnon": 1719,
      "Ġdoing": 1720,
      "Ġgovernment": 1721,
      "Ġbenef": 1722,
      "uture": 1723,
      "Ġfocus": 1724,
      "ored": 1725,
      "Ġsocial": 1726,
      "ique": 1727,
      "Ġlo": 1728,
      "ush": 1729,
      "ands": 1730,
      "ĠRep": 1731,
      "Ġcamp": 1732,
      "Ġnews": 1733,
      "Ġlim": 1734,
      "ĠEn": 1735,
      "Ġmajor": 1736,
      "Ġfund": 1737,
      "ances": 1738,
      "Ġvisit": 1739,
      "ES": 1740,
      "Ġleast": 1741,
      "Ġactually": 1742,
      "aff": 1743,
      "osed": 1744,
      "Ġmillion": 1745,
      "of": 1746,
      "Ġmind": 1747,
      "Ġtre": 1748,
      "AT": 1749,
      "ĠNot": 1750,
      "Ġeduc": 1751,
      "Ġcomes": 1752,
      "ĠFl": 1753,
      "Ġ--": 1754,
      "Ġla": 1755,
      "ĠCont": 1756,
      "12": 1757,
      "tt": 1758,
      "Ġhold": 1759,
      "ides": 1760,
      "ĠRo": 1761,
      "ript": 1762,
      "Ġfav": 1763,
      "Ġopportun": 1764,
      "Ġthought": 1765,
      "wards": 1766,
      "orts": 1767,
      "ĠMe": 1768,
      "Ġreturn": 1769,
      "Ġyoung": 1770,
      "atic": 1771,
      "yle": 1772,
      "Ġdoesn": 1773,
      "ĠPr": 1774,
      "Ġacross": 1775,
      "err": 1776,
      "Ġelect": 1777,
      "lement": 1778,
      "idd": 1779,
      "Ġquick": 1780,
      "Ġtook": 1781,
      "cially": 1782,
      "most": 1783,
      "Ġcreate": 1784,
      "Ġcharact": 1785,
      "Ġmom": 1786,
      "Ġcontact": 1787,
      "Ġdeal": 1788,
      "Ġwent": 1789,
      "ee": 1790,
      "Ġmaterial": 1791,
      "ape": 1792,
      "ches": 1793,
      "Ġonce": 1794,
      "Ġce": 1795,
      "'ve": 1796,
      "rop": 1797,
      "Ġclear": 1798,
      "Ġey": 1799,
      "ully": 1800,
      "ony": 1801,
      "Ġparticular": 1802,
      "ĠBr": 1803,
      "Ġstarted": 1804,
      "ians": 1805,
      "AR": 1806,
      "ched": 1807,
      "Ġmult": 1808,
      "app": 1809,
      "Ġnet": 1810,
      "Ġanal": 1811,
      "Ġcity": 1812,
      "Ġlow": 1813,
      "Ġhappen": 1814,
      "ĠMed": 1815,
      "ĠYour": 1816,
      "mber": 1817,
      "duct": 1818,
      "Ġinvol": 1819,
      "vironment": 1820,
      "Ġsoft": 1821,
      "ino": 1822,
      "Ġwon": 1823,
      "Ġpercent": 1824,
      "Ġdevelopment": 1825,
      "Ġorig": 1826,
      "aps": 1827,
      "Ġfuture": 1828,
      "ones": 1829,
      "Ġbeaut": 1830,
      "Ġfriends": 1831,
      "crib": 1832,
      "urther": 1833,
      "not": 1834,
      "ister": 1835,
      "Ġreason": 1836,
      "uff": 1837,
      "OR": 1838,
      "book": 1839,
      "room": 1840,
      "mm": 1841,
      "Ġeconom": 1842,
      "Ġvideo": 1843,
      "Ġearly": 1844,
      "aken": 1845,
      "Ġhot": 1846,
      "Ġlater": 1847,
      "Ġbring": 1848,
      "Ġspecific": 1849,
      "Ġyet": 1850,
      "lf": 1851,
      "Ġmonths": 1852,
      "Ġhours": 1853,
      "Ġvers": 1854,
      "Ġcut": 1855,
      "AN": 1856,
      "Ġris": 1857,
      "urity": 1858,
      "Ġstrong": 1859,
      "ĠInst": 1860,
      "Ġperfect": 1861,
      "ĠBy": 1862,
      "Ġ14": 1863,
      "Ġwa": 1864,
      "Ġexample": 1865,
      "Ġredu": 1866,
      "ĠSy": 1867,
      "Ġ16": 1868,
      "Ġident": 1869,
      "ips": 1870,
      "Ġtold": 1871,
      "Ġstudy": 1872,
      "ograph": 1873,
      "Ġtyp": 1874,
      "11": 1875,
      "ges": 1876,
      "lished": 1877,
      "ĠChe": 1878,
      "Ġlink": 1879,
      "ĠUnited": 1880,
      "Ġtem": 1881,
      "Ġhig": 1882,
      "ĠWor": 1883,
      "ĠIntern": 1884,
      "for": 1885,
      "Ġheart": 1886,
      "ĠComp": 1887,
      "Ġshare": 1888,
      "Ġkey": 1889,
      "oose": 1890,
      "ences": 1891,
      "Ġrequire": 1892,
      "ift": 1893,
      "ners": 1894,
      "Ġfive": 1895,
      "bal": 1896,
      "Ġcompet": 1897,
      "lling": 1898,
      "hod": 1899,
      "ference": 1900,
      "use": 1901,
      "Ġ/": 1902,
      "!!": 1903,
      "arr": 1904,
      "wh": 1905,
      "ateg": 1906,
      "Ġemail": 1907,
      "iday": 1908,
      "Ġhuman": 1909,
      "resent": 1910,
      "Ġpar": 1911,
      "Ġstep": 1912,
      "Ġbegin": 1913,
      "cle": 1914,
      "ĠState": 1915,
      "Ġcompan": 1916,
      "Ġclose": 1917,
      "Ġess": 1918,
      "reet": 1919,
      "Ġet": 1920,
      "ĠX": 1921,
      "Ġknown": 1922,
      "utions": 1923,
      "Ġproblem": 1924,
      "sw": 1925,
      "verage": 1926,
      "Ġpage": 1927,
      "We": 1928,
      "Ġdiscuss": 1929,
      "Ġwalk": 1930,
      "ource": 1931,
      "ulation": 1932,
      "Ġappear": 1933,
      "Ġrele": 1934,
      "osp": 1935,
      "Ġpress": 1936,
      "Ġste": 1937,
      "Ġvari": 1938,
      "Ġdeli": 1939,
      "Ġpriv": 1940,
      "ilities": 1941,
      "Ġchall": 1942,
      "acy": 1943,
      "Ġauthor": 1944,
      "Ġbelow": 1945,
      "ster": 1946,
      "icy": 1947,
      "Ġgiven": 1948,
      "ources": 1949,
      "unch": 1950,
      "Ġant": 1951,
      "iod": 1952,
      "Ġminutes": 1953,
      "Ġcomb": 1954,
      "idence": 1955,
      "ĠAb": 1956,
      "Ġtax": 1957,
      "pro": 1958,
      "ĠNow": 1959,
      "ights": 1960,
      "Ġeverything": 1961,
      "Ġsound": 1962,
      "Ġitem": 1963,
      "Ġrelations": 1964,
      "ler": 1965,
      "lege": 1966,
      "ĠServ": 1967,
      "Ġspace": 1968,
      "ĠSome": 1969,
      "ball": 1970,
      "Ġpack": 1971,
      "Ġindustry": 1972,
      "Ġface": 1973,
      "Ġpurch": 1974,
      "rew": 1975,
      "ama": 1976,
      "Ġ13": 1977,
      "Ġquestion": 1978,
      "che": 1979,
      "ĠGu": 1980,
      "oon": 1981,
      "Ġener": 1982,
      "Ġ100": 1983,
      "Ġstay": 1984,
      "ai": 1985,
      "Ġwhole": 1986,
      "Ġgames": 1987,
      "Ġseen": 1988,
      "eral": 1989,
      "oring": 1990,
      "Ġpick": 1991,
      "hers": 1992,
      "ĠWhile": 1993,
      "Ġpolit": 1994,
      "ourn": 1995,
      "illed": 1996,
      "ĠHere": 1997,
      "Ġsomeone": 1998,
      "Ġ17": 1999,
      "Ġsingle": 2000,
      "Ġprob": 2001,
      "ĠTw": 2002,
      "ĠBo": 2003,
      "Ġwhether": 2004,
      "Ġrespons": 2005,
      "though": 2006,
      "rict": 2007,
      "Ġfield": 2008,
      "over": 2009,
      "Ġpie": 2010,
      "ural": 2011,
      "ĠDes": 2012,
      "'ll": 2013,
      "par": 2014,
      "Ġsuper": 2015,
      "Ġ*": 2016,
      "Ġens": 2017,
      "Ġamong": 2018,
      "ned": 2019,
      "de": 2020,
      "atural": 2021,
      "Ġtot": 2022,
      "ilar": 2023,
      "ĠMr": 2024,
      "aces": 2025,
      "Ġcontent": 2026,
      "ilt": 2027,
      "ĠDr": 2028,
      "ĠCount": 2029,
      "Ġbelieve": 2030,
      "Ġvol": 2031,
      "Ġage": 2032,
      "ĠBro": 2033,
      "Ġaddress": 2034,
      "ply": 2035,
      "Ġenc": 2036,
      "Ġbreak": 2037,
      "ĠCal": 2038,
      "Ġwind": 2039,
      "Ġcult": 2040,
      "Ġjo": 2041,
      "Ġtaking": 2042,
      "urch": 2043,
      "ison": 2044,
      "pecially": 2045,
      "ibility": 2046,
      "Ġago": 2047,
      "Ġclean": 2048,
      "selves": 2049,
      "ensive": 2050,
      "Ġhistory": 2051,
      "ĠMc": 2052,
      "ained": 2053,
      "Ġmedia": 2054,
      "gs": 2055,
      "Ġmor": 2056,
      "Ġtool": 2057,
      "ided": 2058,
      "Ġamount": 2059,
      "ĠEuro": 2060,
      "ued": 2061,
      "Ġhope": 2062,
      "ĠYork": 2063,
      "Ġmess": 2064,
      "Ġclaim": 2065,
      "Ġanything": 2066,
      "Ġissues": 2067,
      "ĠPe": 2068,
      "ctor": 2069,
      "Ġfall": 2070,
      "Ġhalf": 2071,
      "ĠHis": 2072,
      "rain": 2073,
      "Ġprice": 2074,
      "15": 2075,
      "Ġfre": 2076,
      "ĠGo": 2077,
      "Ġport": 2078,
      "Ġabove": 2079,
      "Ġcompanies": 2080,
      "Ġcred": 2081,
      "Ġseries": 2082,
      "Ġsex": 2083,
      "new": 2084,
      "ĠEd": 2085,
      "iously": 2086,
      "Ġrecomm": 2087,
      "ental": 2088,
      "Ġexc": 2089,
      "abor": 2090,
      "Ġenvironment": 2091,
      "go": 2092,
      "Ġplease": 2093,
      "Ġrecommend": 2094,
      "Ġquestions": 2095,
      "ancial": 2096,
      "ogn": 2097,
      "Ġ24": 2098,
      "ĠJust": 2099,
      "irm": 2100,
      "Ġmanag": 2101,
      "fic": 2102,
      "imate": 2103,
      "Ġresults": 2104,
      "Ġstore": 2105,
      "Ġdue": 2106,
      "fully": 2107,
      "Ġ#": 2108,
      "ĠMin": 2109,
      "Ġconsider": 2110,
      "Ġcra": 2111,
      "Ġz": 2112,
      "ĠCity": 2113,
      "Ġpub": 2114,
      "Ġ25": 2115,
      "ĠPres": 2116,
      "ili": 2117,
      "Ġphys": 2118,
      "EN": 2119,
      "ggest": 2120,
      "gle": 2121,
      "Ġsci": 2122,
      "Ġgirl": 2123,
      "irt": 2124,
      "Ġworks": 2125,
      "Ġfront": 2126,
      "Ġ2012": 2127,
      "Ġperiod": 2128,
      "af": 2129,
      "asing": 2130,
      "ĠGr": 2131,
      "mb": 2132,
      "Ġcommon": 2133,
      "Ġbuilding": 2134,
      "uation": 2135,
      "Ġwond": 2136,
      "ĠKe": 2137,
      "Ġwatch": 2138,
      "Ġtechnology": 2139,
      "ille": 2140,
      "Ġalmost": 2141,
      "ledge": 2142,
      "Ġidea": 2143,
      "iver": 2144,
      "Ġaud": 2145,
      "Ġeff": 2146,
      "Ġeither": 2147,
      "Ġbar": 2148,
      "Ġtravel": 2149,
      "Ġmot": 2150,
      "elt": 2151,
      "ĠSec": 2152,
      "Ġbrand": 2153,
      "ĠJan": 2154,
      "AS": 2155,
      "ĠJe": 2156,
      "ĠQu": 2157,
      "Ġenergy": 2158,
      "Ġcal": 2159,
      "ried": 2160,
      "Ġpict": 2161,
      "ators": 2162,
      "come": 2163,
      "Ġrange": 2164,
      "Ġaff": 2165,
      "itted": 2166,
      "ĠMore": 2167,
      "Ġbad": 2168,
      "ams": 2169,
      "Ġcrit": 2170,
      "cript": 2171,
      "Ġentire": 2172,
      "Ġconcer": 2173,
      "Ġrepl": 2174,
      "ĠPer": 2175,
      "ĠWill": 2176,
      "Ġtraining": 2177,
      "Ġeveryone": 2178,
      "anks": 2179,
      "Ġsuggest": 2180,
      "Ġfurther": 2181,
      "back": 2182,
      "Ġdeb": 2183,
      "Ġfeatures": 2184,
      "vent": 2185,
      "Ġmeas": 2186,
      "Ġland": 2187,
      "Ġtrack": 2188,
      "Ġquite": 2189,
      "Ġsearch": 2190,
      "Ġrelationship": 2191,
      "Ġvalue": 2192,
      "Ġself": 2193,
      "ĠNational": 2194,
      "ites": 2195,
      "Ġparent": 2196,
      "ĠDis": 2197,
      "Ġmiss": 2198,
      "IS": 2199,
      "cell": 2200,
      "play": 2201,
      "chie": 2202,
      "Ġmethod": 2203,
      "Ġimprove": 2204,
      "Ġtype": 2205,
      "Ġwanted": 2206,
      "arning": 2207,
      "ask": 2208,
      "Ġblack": 2209,
      "ĠSm": 2210,
      "//": 2211,
      "ĠStates": 2212,
      "used": 2213,
      "Ġthird": 2214,
      "Ġsix": 2215,
      "âĢĵ": 2216,
      "ĠPart": 2217,
      "Ġtaken": 2218,
      "org": 2219,
      "Ġfilm": 2220,
      "Ġoffers": 2221,
      "ĠSouth": 2222,
      "AL": 2223,
      "Ġdel": 2224,
      "ĠEurope": 2225,
      "ively": 2226,
      "Ġcustomers": 2227,
      "Ġnecess": 2228,
      "Ġdig": 2229,
      "rodu": 2230,
      "Ġtrying": 2231,
      "Ġsignific": 2232,
      "Ġglo": 2233,
      "aur": 2234,
      "Ġmag": 2235,
      "Ġfavor": 2236,
      "Ġparticip": 2237,
      "iful": 2238,
      "vert": 2239,
      "ging": 2240,
      "Ġespecially": 2241,
      "omes": 2242,
      "://": 2243,
      "iol": 2244,
      "Ġpoints": 2245,
      "Ġlikely": 2246,
      "Ġconsum": 2247,
      "ĠNorth": 2248,
      "Ġhowever": 2249,
      "Th": 2250,
      "gest": 2251,
      "ĠTH": 2252,
      "ED": 2253,
      "ops": 2254,
      "Ġsent": 2255,
      "Ġdou": 2256,
      "ficult": 2257,
      "Ġele": 2258,
      "ĠTra": 2259,
      "lex": 2260,
      "Ġ50": 2261,
      "Ġweb": 2262,
      "fact": 2263,
      "ĠGe": 2264,
      "Ġneeded": 2265,
      "gress": 2266,
      "resh": 2267,
      "Ġvarious": 2268,
      "Ġcir": 2269,
      "Ġareas": 2270,
      "Ġ:": 2271,
      "Ġprotect": 2272,
      "Ġpret": 2273,
      "Ġsimple": 2274,
      "ĠWorld": 2275,
      "Ġasked": 2276,
      "Ġcomput": 2277,
      "Ġmanagement": 2278,
      "Ġspend": 2279,
      "Ġoffice": 2280,
      "ires": 2281,
      "ĠDon": 2282,
      "ĠIm": 2283,
      "ples": 2284,
      "Ġissue": 2285,
      "Ġperformance": 2286,
      "ĠPre": 2287,
      "Ġdocu": 2288,
      "ĠInc": 2289,
      "yn": 2290,
      "Ġcoming": 2291,
      "Ġelse": 2292,
      "rie": 2293,
      "Ġways": 2294,
      "Ġoil": 2295,
      "ĠSchool": 2296,
      "Ġstaff": 2297,
      "ruction": 2298,
      "Ġdifficult": 2299,
      "ially": 2300,
      "ĠMark": 2301,
      "Ġcard": 2302,
      "IT": 2303,
      "Ġadded": 2304,
      "Ġhost": 2305,
      "Ġrather": 2306,
      "ĠDep": 2307,
      ".)": 2308,
      "Ġrequired": 2309,
      "yl": 2310,
      "time": 2311,
      "itch": 2312,
      "aching": 2313,
      "Ġfoot": 2314,
      "ĠPlease": 2315,
      "Ġsimply": 2316,
      "Ġwriting": 2317,
      "Ġinstall": 2318,
      "Ġprobably": 2319,
      "18": 2320,
      "--": 2321,
      "ĠPol": 2322,
      "Ġred": 2323,
      "Ġprovides": 2324,
      "ĠPark": 2325,
      "16": 2326,
      "oid": 2327,
      "Ġ2013": 2328,
      "empt": 2329,
      "Ġabs": 2330,
      "Ġtext": 2331,
      "Ġcontinue": 2332,
      "year": 2333,
      "ĠJu": 2334,
      "Ġansw": 2335,
      "ĠCor": 2336,
      "ĠAust": 2337,
      "ification": 2338,
      "opy": 2339,
      "ication": 2340,
      "ĠFrom": 2341,
      "200": 2342,
      "ung": 2343,
      "Ġsoon": 2344,
      "Ġisn": 2345,
      "ĠSpe": 2346,
      "13": 2347,
      "Ġpretty": 2348,
      "umb": 2349,
      "Ġexist": 2350,
      "Ġliving": 2351,
      "itting": 2352,
      "Ġposition": 2353,
      "angu": 2354,
      "itor": 2355,
      "Ġcell": 2356,
      "Ġprofessional": 2357,
      "Ġrisk": 2358,
      "roll": 2359,
      "ze": 2360,
      "It": 2361,
      "ĠAcc": 2362,
      "Ġbehind": 2363,
      "Ġbed": 2364,
      "Ġupd": 2365,
      "Ġdam": 2366,
      "Ġassist": 2367,
      "Ġrepresent": 2368,
      "ĠAug": 2369,
      "ibr": 2370,
      "minist": 2371,
      "ĠOct": 2372,
      "ĠApr": 2373,
      "ĠBar": 2374,
      "Ġproblems": 2375,
      "Ġhy": 2376,
      "Ġmatter": 2377,
      "Ġaction": 2378,
      "reme": 2379,
      "Ġnothing": 2380,
      "Ġcharacter": 2381,
      "Ġevents": 2382,
      "ĠAg": 2383,
      "val": 2384,
      "Ġdeterm": 2385,
      "Ġwords": 2386,
      "Ġaccording": 2387,
      "apt": 2388,
      "Ġinit": 2389,
      "itten": 2390,
      "Ġprep": 2391,
      "eth": 2392,
      "ises": 2393,
      "Ġinfl": 2394,
      "ĠStud": 2395,
      "Ġwhite": 2396,
      "Ġsize": 2397,
      "14": 2398,
      "Ġflo": 2399,
      "where": 2400,
      "Ġyourself": 2401,
      "ĠAdd": 2402,
      "Ġsignificant": 2403,
      "Ġprovided": 2404,
      "Ġgra": 2405,
      "ience": 2406,
      "urance": 2407,
      "ĠâĢ¢": 2408,
      "itional": 2409,
      "Ġannoun": 2410,
      "IC": 2411,
      "lt": 2412,
      "Ġroad": 2413,
      "Ġaccept": 2414,
      "Ġcook": 2415,
      "Ġfail": 2416,
      "ole": 2417,
      "Ġhon": 2418,
      "uge": 2419,
      "pper": 2420,
      "my": 2421,
      "Ġforward": 2422,
      "Ġfinal": 2423,
      "ĠAf": 2424,
      "Ġweeks": 2425,
      "Ġdeath": 2426,
      "Ġsimilar": 2427,
      "obile": 2428,
      "Ġproperty": 2429,
      "ief": 2430,
      "ables": 2431,
      "Ġpopular": 2432,
      "Ġlov": 2433,
      "Ġnatural": 2434,
      "ĠReg": 2435,
      "Ġtakes": 2436,
      "astic": 2437,
      "head": 2438,
      "Ġground": 2439,
      "Ġsubject": 2440,
      "amer": 2441,
      "Ġtou": 2442,
      "Ġimpact": 2443,
      "Ġrole": 2444,
      "__": 2445,
      "ring": 2446,
      "Ġphone": 2447,
      "Ġoutside": 2448,
      "Ġconnect": 2449,
      "Ġparty": 2450,
      "ĠCenter": 2451,
      "ival": 2452,
      "Ġstat": 2453,
      "Ġextra": 2454,
      "ules": 2455,
      "Ġdate": 2456,
      "25": 2457,
      "ĠAct": 2458,
      "ume": 2459,
      "Ġlog": 2460,
      "Ġfinancial": 2461,
      "nes": 2462,
      "Ġtrue": 2463,
      "Ġsum": 2464,
      "anc": 2465,
      "Ġupon": 2466,
      "Ġunique": 2467,
      "ĠPa": 2468,
      "Ġachie": 2469,
      "ufact": 2470,
      "Ġfire": 2471,
      "Ġgeneral": 2472,
      "Ġinj": 2473,
      "ĠDav": 2474,
      "Ġincludes": 2475,
      "Ġswe": 2476,
      "Ġchanges": 2477,
      "Ġassoci": 2478,
      "ees": 2479,
      "ades": 2480,
      "ĠAmerica": 2481,
      "medi": 2482,
      "ĠMarch": 2483,
      "Ġselect": 2484,
      "Ġregard": 2485,
      "olution": 2486,
      "Ġsecurity": 2487,
      "Ġwide": 2488,
      "istic": 2489,
      "ffe": 2490,
      "Ġcover": 2491,
      "Ġincrease": 2492,
      "Ġrecent": 2493,
      "Ġheld": 2494,
      "Ġsend": 2495,
      "ĠArt": 2496,
      "ĠUs": 2497,
      "Ġeducation": 2498,
      "Ġtit": 2499,
      "Ġsle": 2500,
      "Ġrespect": 2501,
      "US": 2502,
      "Ġhtt": 2503,
      "Ġagree": 2504,
      "Ġestab": 2505,
      "ĠPresident": 2506,
      "aily": 2507,
      "Ġofficial": 2508,
      "Ġsong": 2509,
      "Ġbeautiful": 2510,
      "Ġcoll": 2511,
      "ĠCounty": 2512,
      "Ġx": 2513,
      "Ġinn": 2514,
      "Ġ,": 2515,
      "Ġ2011": 2516,
      "icro": 2517,
      "Ġexam": 2518,
      "Ġkids": 2519,
      "Ġcouple": 2520,
      "Ġpaper": 2521,
      "Ġseems": 2522,
      "Ġcannot": 2523,
      "oph": 2524,
      "ĠFin": 2525,
      "AC": 2526,
      "Ġrecogn": 2527,
      "ox": 2528,
      "Ġcreated": 2529,
      "na": 2530,
      "Ġrequest": 2531,
      "Ġopp": 2532,
      "eter": 2533,
      "Ġsafe": 2534,
      "Ġarticle": 2535,
      "Ġ198": 2536,
      "overed": 2537,
      "ĠThen": 2538,
      "17": 2539,
      "Ġoptions": 2540,
      "ĠJune": 2541,
      "Ġshows": 2542,
      "ĠEm": 2543,
      "Ġanim": 2544,
      "Ġmodel": 2545,
      "Ġopportunity": 2546,
      "Ġmember": 2547,
      "Ġrunning": 2548,
      "Ġsystems": 2549,
      "ĠWest": 2550,
      "Ġhigher": 2551,
      "anced": 2552,
      "Ġloss": 2553,
      "Ġstop": 2554,
      "Ġlonger": 2555,
      "Ġtable": 2556,
      "reg": 2557,
      "Ġgen": 2558,
      "Ġdesigned": 2559,
      "ĠBu": 2560,
      "oura": 2561,
      "ana": 2562,
      "iter": 2563,
      "Ġknowledge": 2564,
      "Ġdefin": 2565,
      "arget": 2566,
      "Ġpotential": 2567,
      "ada": 2568,
      "ĠHigh": 2569,
      "Ġrad": 2570,
      "Ġleave": 2571,
      "Ġfig": 2572,
      "ĠDay": 2573,
      "ĠApril": 2574,
      "Ġinde": 2575,
      "aving": 2576,
      "Ġsoftware": 2577,
      "Ġusually": 2578,
      "cil": 2579,
      "Ġcoun": 2580,
      "Ġtreatment": 2581,
      "Ġreceived": 2582,
      "izing": 2583,
      "Ġcontrib": 2584,
      "face": 2585,
      "Ġattack": 2586,
      "ĠHer": 2587,
      "RE": 2588,
      "Ġfa": 2589,
      "Ġbott": 2590,
      "Ġengine": 2591,
      "oud": 2592,
      "ĠOf": 2593,
      "Ġmoment": 2594,
      "Ġchoose": 2595,
      "hib": 2596,
      "Ġneg": 2597,
      "ĠInt": 2598,
      "Ġinside": 2599,
      "Ġplayers": 2600,
      "Ġleaders": 2601,
      "Ġtown": 2602,
      "Ġready": 2603,
      "Ġlat": 2604,
      "ĠSept": 2605,
      "22": 2606,
      "oogle": 2607,
      "Ġprint": 2608,
      "Ġdetails": 2609,
      "Ġstri": 2610,
      "ĠEl": 2611,
      "Ġfast": 2612,
      "Ġanyone": 2613,
      "cks": 2614,
      "gu": 2615,
      "Ġreading": 2616,
      "Ġfunction": 2617,
      "Ġpark": 2618,
      "Ġcourt": 2619,
      "Ġthroughout": 2620,
      "Ġ...": 2621,
      "Ġcollect": 2622,
      "ese": 2623,
      "arter": 2624,
      "Ġreceive": 2625,
      "Ġspeak": 2626,
      "Ġnetwork": 2627,
      "Ã©": 2628,
      "ĠJo": 2629,
      "ĠWas": 2630,
      "Ġball": 2631,
      "Ġdom": 2632,
      "Ġskin": 2633,
      "ude": 2634,
      "Ġcomfort": 2635,
      "Ġoriginal": 2636,
      "idge": 2637,
      "Ġetc": 2638,
      "Ġregular": 2639,
      "Ġill": 2640,
      "Ġsaw": 2641,
      "aced": 2642,
      "ĠHouse": 2643,
      "Ġmach": 2644,
      "Ġworth": 2645,
      "erc": 2646,
      "Ġwar": 2647,
      "Ġcontract": 2648,
      "ĠPost": 2649,
      "Ġtotal": 2650,
      "Ġrate": 2651,
      "Ġgrowth": 2652,
      "ĠHealth": 2653,
      "Ġattend": 2654,
      "mit": 2655,
      "Ġbooks": 2656,
      "Ġlives": 2657,
      "amed": 2658,
      "Ġexpress": 2659,
      "iet": 2660,
      "Ġdepend": 2661,
      "Ġ2010": 2662,
      "atory": 2663,
      "Ġnorm": 2664,
      "uary": 2665,
      "Ġensure": 2666,
      "iddle": 2667,
      "60": 2668,
      "Ġdescrib": 2669,
      "rect": 2670,
      "Ġnational": 2671,
      "Ġbox": 2672,
      "Ġhit": 2673,
      "Ġsense": 2674,
      "Ġnice": 2675,
      "Ġsales": 2676,
      "Ġclick": 2677,
      "Ġmass": 2678,
      "Ġlate": 2679,
      "ĠMich": 2680,
      "Ġlay": 2681,
      "Ġcolor": 2682,
      "Ġfit": 2683,
      "Ġhappy": 2684,
      "Ġthemselves": 2685,
      "Ġwonder": 2686,
      "Ġdownload": 2687,
      "iff": 2688,
      "Ġrecently": 2689,
      "ky": 2690,
      "ID": 2691,
      "Ġdep": 2692,
      "Ġsho": 2693,
      "ening": 2694,
      "Ġlearning": 2695,
      "aining": 2696,
      "Ġusers": 2697,
      "Ġdest": 2698,
      "Ġdeep": 2699,
      "Ġmedical": 2700,
      "Ġdecision": 2701,
      "Ġemb": 2702,
      "ĠOff": 2703,
      "ĠHar": 2704,
      "Ġbase": 2705,
      "Ġapplication": 2706,
      "based": 2707,
      "ederal": 2708,
      "earch": 2709,
      "Ġgoal": 2710,
      "Ġversion": 2711,
      "sy": 2712,
      "ĠFirst": 2713,
      "Ġprior": 2714,
      "ĠEvery": 2715,
      "Ġstruct": 2716,
      "ĠJuly": 2717,
      "Ġformer": 2718,
      "Ġ>": 2719,
      "Ġpractice": 2720,
      "Ġcause": 2721,
      "Ġstra": 2722,
      "irit": 2723,
      "Ġviol": 2724,
      "Ġrights": 2725,
      "Ġpric": 2726,
      "Ġut": 2727,
      "ceed": 2728,
      "Ġmorning": 2729,
      "atform": 2730,
      "Ġcele": 2731,
      "icles": 2732,
      "cast": 2733,
      "aign": 2734,
      "Ġprivate": 2735,
      "Ġexact": 2736,
      "Ġhands": 2737,
      "Ġple": 2738,
      "aging": 2739,
      "ciety": 2740,
      "Ġcurrently": 2741,
      "ĠFeb": 2742,
      "Ġmeeting": 2743,
      "Ġvia": 2744,
      "ĠOb": 2745,
      "ĠRead": 2746,
      "ysis": 2747,
      "ament": 2748,
      "Ġquickly": 2749,
      "Ġpers": 2750,
      "Ġworked": 2751,
      "do": 2752,
      "ĠSw": 2753,
      "Ġ40": 2754,
      "Ġsens": 2755,
      "edd": 2756,
      "Ġpolicy": 2757,
      "ached": 2758,
      "Ġstyle": 2759,
      "Ġboard": 2760,
      "ĠFriday": 2761,
      "Ġproduction": 2762,
      "Ġlost": 2763,
      "ĠCour": 2764,
      "Ġcredit": 2765,
      "Ġadditional": 2766,
      "Ġ21": 2767,
      "uth": 2768,
      "lier": 2769,
      "Ġsat": 2770,
      "adem": 2771,
      "Ġteac": 2772,
      "Ġdeg": 2773,
      "Ġblog": 2774,
      "ĠMost": 2775,
      "like": 2776,
      "Ġterms": 2777,
      "Ġaffect": 2778,
      "ournal": 2779,
      "iber": 2780,
      "ny": 2781,
      "Ġincluded": 2782,
      "sc": 2783,
      "Ġep": 2784,
      "Ġveh": 2785,
      "dd": 2786,
      "Ġconc": 2787,
      "40": 2788,
      "Ġimm": 2789,
      "Ġplaying": 2790,
      "Ġobs": 2791,
      "Ġcareer": 2792,
      "Ġsqu": 2793,
      "ĠLet": 2794,
      "Ġitself": 2795,
      "oke": 2796,
      "Ġitems": 2797,
      "Ġmother": 2798,
      "ĠSund": 2799,
      "Ġability": 2800,
      "ague": 2801,
      "ux": 2802,
      "Ġri": 2803,
      "ober": 2804,
      "action": 2805,
      "ground": 2806,
      "Ġsummer": 2807,
      "Ġbegan": 2808,
      "ĠAre": 2809,
      "Ġprim": 2810,
      "Ġmyself": 2811,
      "Ġlangu": 2812,
      "azing": 2813,
      "bor": 2814,
      "Ġfight": 2815,
      "ĠSatur": 2816,
      "right": 2817,
      "ek": 2818,
      "Ġpatients": 2819,
      "Ġmanufact": 2820,
      "Ġdrive": 2821,
      "ming": 2822,
      "inary": 2823,
      "Ġactivities": 2824,
      "Ġwoman": 2825,
      "artment": 2826,
      "off": 2827,
      "irth": 2828,
      "ession": 2829,
      "ĠVal": 2830,
      "Ġprograms": 2831,
      "ĠChar": 2832,
      "Ġobject": 2833,
      "aby": 2834,
      "Ġpolitical": 2835,
      "Ġcas": 2836,
      "ĠWell": 2837,
      "erve": 2838,
      "clus": 2839,
      "Ġscreen": 2840,
      "Ġmultip": 2841,
      "Ġskills": 2842,
      "Ġshall": 2843,
      "ham": 2844,
      "Ġwasn": 2845,
      "Ġwall": 2846,
      "Ġcases": 2847,
      "ĠMon": 2848,
      "Ġpan": 2849,
      "Ġcustomer": 2850,
      "ha": 2851,
      "Ġgoes": 2852,
      "ĠCO": 2853,
      "ĠUp": 2854,
      "ecut": 2855,
      "Ġ22": 2856,
      "Ġbal": 2857,
      "ĠGet": 2858,
      "ological": 2859,
      "Ġblood": 2860,
      "Ġjud": 2861,
      "Ġhair": 2862,
      "ĠPar": 2863,
      "Ġstudent": 2864,
      "ĠAugust": 2865,
      "Ġautom": 2866,
      "Ġremember": 2867,
      "Ġdru": 2868,
      "ĠBlack": 2869,
      "Ġintrodu": 2870,
      "Ġbecame": 2871,
      "Ġarri": 2872,
      "Ġmix": 2873,
      "Ġweight": 2874,
      "ĠCons": 2875,
      "ĠWar": 2876,
      "hood": 2877,
      "Ġchance": 2878,
      "Ġdise": 2879,
      "imum": 2880,
      "hel": 2881,
      "Ġinsp": 2882,
      "asons": 2883,
      "Ġlevels": 2884,
      "light": 2885,
      "Ġdraw": 2886,
      "Ġcool": 2887,
      "ales": 2888,
      "pose": 2889,
      "Ġclos": 2890,
      "airs": 2891,
      "Ġlegal": 2892,
      "Ġcand": 2893,
      "ĠAssoci": 2894,
      "Ġtour": 2895,
      "Ġapproach": 2896,
      "Ġlatest": 2897,
      "Ġgrad": 2898,
      "ĠAut": 2899,
      "Ġ2014": 2900,
      "Ġimmedi": 2901,
      "ĠSan": 2902,
      "Ġtarget": 2903,
      "Ġconditions": 2904,
      "ĠRed": 2905,
      "Ġinvolved": 2906,
      "Ġmatch": 2907,
      "Ġinstead": 2908,
      "Ġchalleng": 2909,
      "Ġeasily": 2910,
      "Ġinternational": 2911,
      "Ġparents": 2912,
      "haps": 2913,
      "Ġdecided": 2914,
      "Ġappe": 2915,
      "ĠAustral": 2916,
      "Ġround": 2917,
      "reng": 2918,
      "Ġwritten": 2919,
      "pri": 2920,
      "mon": 2921,
      "ĠSaturday": 2922,
      "Ġcountries": 2923,
      "itte": 2924,
      "Ġlooks": 2925,
      "Ġstock": 2926,
      "Ġbuilt": 2927,
      "ĠSim": 2928,
      "iam": 2929,
      "OT": 2930,
      "Ġnecessary": 2931,
      "Ġsun": 2932,
      "Ġchoice": 2933,
      "ĠTV": 2934,
      "ĠEven": 2935,
      "itc": 2936,
      "Ġsurpr": 2937,
      "ĠAlso": 2938,
      "ters": 2939,
      "illing": 2940,
      "Ġsell": 2941,
      "Ġbur": 2942,
      "21": 2943,
      "hern": 2944,
      "ĠMus": 2945,
      "ris": 2946,
      "Ġfelt": 2947,
      "Ġsaf": 2948,
      "Ġord": 2949,
      "rought": 2950,
      "Ġwrite": 2951,
      "lim": 2952,
      "Ġhol": 2953,
      "Ġattempt": 2954,
      "fficient": 2955,
      "ipment": 2956,
      "enced": 2957,
      "iction": 2958,
      "itter": 2959,
      "Ġcomputer": 2960,
      "Ġ2009": 2961,
      "Ġ2016": 2962,
      "Ġapply": 2963,
      "Ġbank": 2964,
      "Ġfresh": 2965,
      "Ġbi": 2966,
      "rown": 2967,
      "Ġsett": 2968,
      "Ġlower": 2969,
      "Ġmaintain": 2970,
      "ĠPat": 2971,
      "atives": 2972,
      "Ġattention": 2973,
      "Ġbud": 2974,
      "Ġinvestig": 2975,
      "ĠBrit": 2976,
      "str": 2977,
      "ĠAc": 2978,
      "ule": 2979,
      "kend": 2980,
      "ĠFace": 2981,
      "ĠDirect": 2982,
      "Ġclients": 2983,
      "amb": 2984,
      "Ġrelated": 2985,
      "Ġstandard": 2986,
      "In": 2987,
      "ĠDepartment": 2988,
      "Ġrelease": 2989,
      "Ġfavorite": 2990,
      "Ġmention": 2991,
      "Ġcampaign": 2992,
      "Ġones": 2993,
      "uses": 2994,
      "ING": 2995,
      "Ġglobal": 2996,
      "wood": 2997,
      "Ġprojects": 2998,
      "Ġplatform": 2999,
      "Ġintegr": 3000,
      "inc": 3001,
      "Ġ23": 3002,
      "ĠEnglish": 3003,
      "Ġmarketing": 3004,
      "Ġgroups": 3005,
      "Ġeyes": 3006,
      "Ġcy": 3007,
      "Ġcosts": 3008,
      "OS": 3009,
      "Ġhear": 3010,
      "ĠSch": 3011,
      "Ġdefe": 3012,
      "AM": 3013,
      "ĠOctober": 3014,
      "Ġ2017": 3015,
      "attle": 3016,
      "ĠAfric": 3017,
      "Ġdiv": 3018,
      "icated": 3019,
      "Ġvict": 3020,
      "ĠJanuary": 3021,
      "ĠWhy": 3022,
      "Ġmovie": 3023,
      "ĠSunday": 3024,
      "Ġexcept": 3025,
      "Ġhuge": 3026,
      "Ġencoura": 3027,
      "Ġideas": 3028,
      "Ġgave": 3029,
      "ĠMond": 3030,
      "ĠCalif": 3031,
      "ought": 3032,
      "'d": 3033,
      "ray": 3034,
      "Ġemer": 3035,
      "Ġlab": 3036,
      "Ġwrong": 3037,
      "Ġallows": 3038,
      "onse": 3039,
      "Ġfeed": 3040,
      "Ġhor": 3041,
      "itary": 3042,
      "ĠSeptember": 3043,
      "uel": 3044,
      "ovember": 3045,
      "Ġrev": 3046,
      "Ġleading": 3047,
      "Ġbenefits": 3048,
      "erous": 3049,
      "Ġcirc": 3050,
      "rel": 3051,
      "Ġsn": 3052,
      "Ġplans": 3053,
      "aves": 3054,
      "Ġ2015": 3055,
      "ivity": 3056,
      "Ġvariety": 3057,
      "Ġpropos": 3058,
      "Ġreported": 3059,
      "ĠGoogle": 3060,
      "put": 3061,
      "Ġgets": 3062,
      "ĠSer": 3063,
      "Ġtrust": 3064,
      "Ġpolice": 3065,
      "OU": 3066,
      "ĠSen": 3067,
      "ester": 3068,
      "Ġsus": 3069,
      "ĠOther": 3070,
      "ests": 3071,
      "ĠFree": 3072,
      "Ġtouch": 3073,
      "Ġeffective": 3074,
      "Ġuser": 3075,
      "ĠBus": 3076,
      "Ġdrink": 3077,
      "Ġsepar": 3078,
      "Ġsil": 3079,
      "ondon": 3080,
      "Ġdoor": 3081,
      "Ġresources": 3082,
      "just": 3083,
      "Ġsaying": 3084,
      "Ġpresident": 3085,
      "ĠUK": 3086,
      "Ġtal": 3087,
      "avy": 3088,
      "bit": 3089,
      "Ġsold": 3090,
      "Ġpull": 3091,
      "ĠMany": 3092,
      "body": 3093,
      "ĠNews": 3094,
      "Ġaw": 3095,
      "ĠInternational": 3096,
      "Ġur": 3097,
      "cription": 3098,
      "Ġadminist": 3099,
      "Ġdisplay": 3100,
      "ĠAny": 3101,
      "Ġstru": 3102,
      "Ġfair": 3103,
      "ett": 3104,
      "cip": 3105,
      "ĠGerm": 3106,
      "Ġmodern": 3107,
      "Ġimage": 3108,
      "hold": 3109,
      "su": 3110,
      "Ġoption": 3111,
      "Ġhimself": 3112,
      "aged": 3113,
      "ension": 3114,
      "St": 3115,
      "70": 3116,
      "ĠSci": 3117,
      "bert": 3118,
      "Ġparts": 3119,
      "Ġgives": 3120,
      "Ġanswer": 3121,
      "Ġspeed": 3122,
      "idered": 3123,
      "Ġplayed": 3124,
      "Ġthinking": 3125,
      "ĠâĢ¦": 3126,
      "Ġ2008": 3127,
      "ville": 3128,
      "....": 3129,
      "enty": 3130,
      "Ġsafety": 3131,
      "Ġsites": 3132,
      "Ġpred": 3133,
      "iring": 3134,
      "Ġknew": 3135,
      "Ġaverage": 3136,
      "Ġheard": 3137,
      "verse": 3138,
      "ĠGener": 3139,
      "wise": 3140,
      "Ġdigital": 3141,
      "Ġstreng": 3142,
      "Ġflow": 3143,
      "mercial": 3144,
      "Ġexpected": 3145,
      "Ġexcell": 3146,
      "Ġcenter": 3147,
      "alt": 3148,
      "Ġsource": 3149,
      "Ġplant": 3150,
      "ishing": 3151,
      "pite": 3152,
      "vey": 3153,
      "yond": 3154,
      "Ġcompletely": 3155,
      "Ġenter": 3156,
      "Ġcat": 3157,
      "ĠCommun": 3158,
      "Ġinteresting": 3159,
      "Ġdocument": 3160,
      "ns": 3161,
      "cember": 3162,
      "ĠNet": 3163,
      "ĠNovember": 3164,
      "Ġlif": 3165,
      "Ġdaily": 3166,
      "Ġfile": 3167,
      "Ġdating": 3168,
      "Ġpurchase": 3169,
      "Ġtypes": 3170,
      "Ġmid": 3171,
      "Ġrout": 3172,
      "Ġpiece": 3173,
      "Ġtele": 3174,
      "ĠMonday": 3175,
      "Ġprin": 3176,
      "Ġgiving": 3177,
      "EC": 3178,
      "Ġlocated": 3179,
      "Ġnote": 3180,
      "Ġcomment": 3181,
      "Ġinterview": 3182,
      "Ġled": 3183,
      "iding": 3184,
      "Ġ+": 3185,
      "cious": 3186,
      "Ġ28": 3187,
      "ornia": 3188,
      "Ġpositive": 3189,
      "fl": 3190,
      "Ġprevent": 3191,
      "mission": 3192,
      "Ġcross": 3193,
      "Ġremov": 3194,
      "Ġsche": 3195,
      "ĠAir": 3196,
      "Ġsituation": 3197,
      "Ġamazing": 3198,
      "Ġconduct": 3199,
      "king": 3200,
      "isions": 3201,
      "rupt": 3202,
      "apan": 3203,
      "enge": 3204,
      "Ġlocation": 3205,
      "Ġslow": 3206,
      "urt": 3207,
      "itation": 3208,
      "ĠCoun": 3209,
      "aly": 3210,
      "aker": 3211,
      "ĠTHE": 3212,
      "Ġvac": 3213,
      "Ġnature": 3214,
      "Ġsave": 3215,
      "Ġbroad": 3216,
      "ĠLondon": 3217,
      "band": 3218,
      "Ġextreme": 3219,
      "Ġsometimes": 3220,
      "Ġ2018": 3221,
      "99": 3222,
      "Ġdepart": 3223,
      "Ġdark": 3224,
      "Ġpath": 3225,
      "sec": 3226,
      "Ġdead": 3227,
      "Ġorganization": 3228,
      "ĠLaw": 3229,
      "Ġinflu": 3230,
      "ĠOver": 3231,
      "Ġpublished": 3232,
      "ĠStreet": 3233,
      "Ġwood": 3234,
      "ilies": 3235,
      "Ġcelebr": 3236,
      "Ġproviding": 3237,
      "Ġsection": 3238,
      "Ġstarting": 3239,
      "ET": 3240,
      "ĠDem": 3241,
      "Ġbrought": 3242,
      "ĠChina": 3243,
      "gar": 3244,
      "zy": 3245,
      "Ġdetail": 3246,
      "Ġgreen": 3247,
      "Ġqual": 3248,
      "Ġcapt": 3249,
      "hington": 3250,
      "unt": 3251,
      "imately": 3252,
      "ĠOnce": 3253,
      "Ġhighly": 3254,
      "Ġconsidered": 3255,
      "ael": 3256,
      "itute": 3257,
      "ened": 3258,
      "Ġarch": 3259,
      "Ġweekend": 3260,
      "ospital": 3261,
      "ĠFacebook": 3262,
      "ĠSince": 3263,
      "Ġfather": 3264,
      "Ġinsurance": 3265,
      "Ġdirectly": 3266,
      "ĠGl": 3267,
      "Ġsubs": 3268,
      "idents": 3269,
      "\".": 3270,
      "iles": 3271,
      "pre": 3272,
      "Wh": 3273,
      "ĠCalifornia": 3274,
      "ĠDavid": 3275,
      "ĠLa": 3276,
      "Ġeye": 3277,
      "Ġtools": 3278,
      "Ġstuff": 3279,
      "itely": 3280,
      "Ġstories": 3281,
      "Ġpartners": 3282,
      "Ġpen": 3283,
      "Ġstates": 3284,
      "oul": 3285,
      "ara": 3286,
      "ibly": 3287,
      "Ġfeature": 3288,
      "ma": 3289,
      "key": 3290,
      "ĠDecember": 3291,
      "Ġreve": 3292,
      "cies": 3293,
      "orge": 3294,
      "aches": 3295,
      "Ġfine": 3296,
      "ica": 3297,
      "80": 3298,
      "ĠOut": 3299,
      "Ġturned": 3300,
      "Ġoffe": 3301,
      "ittee": 3302,
      "aste": 3303,
      "Ġcollection": 3304,
      "Ġconvers": 3305,
      "aint": 3306,
      "ĠAN": 3307,
      "Ġplayer": 3308,
      "agn": 3309,
      "Ġsleep": 3310,
      "rote": 3311,
      "cause": 3312,
      "Ġreleased": 3313,
      "Ġmultiple": 3314,
      "ivil": 3315,
      "Ġreach": 3316,
      "Ġvot": 3317,
      "Ġ26": 3318,
      "Ġfell": 3319,
      "Ġphysical": 3320,
      "Ġeconomic": 3321,
      "aries": 3322,
      "Ġindividuals": 3323,
      "ĠKing": 3324,
      "ications": 3325,
      "Ġdevice": 3326,
      "lin": 3327,
      "name": 3328,
      "Ġnation": 3329,
      "ĠTod": 3330,
      "LL": 3331,
      "ĠCourt": 3332,
      "ĠEar": 3333,
      "ores": 3334,
      "oms": 3335,
      "Ġhelps": 3336,
      "Ġcup": 3337,
      "Ġlanguage": 3338,
      "Ġconsist": 3339,
      "Ġdream": 3340,
      "Ġrestaur": 3341,
      "Ġprogress": 3342,
      "Ġwarm": 3343,
      "Ġten": 3344,
      "Ġmobile": 3345,
      "Ġmaterials": 3346,
      "Ġlimited": 3347,
      "omen": 3348,
      "?âĢĿ": 3349,
      "ford": 3350,
      "Ġson": 3351,
      "Ġavoid": 3352,
      "Ġblock": 3353,
      "Ġregul": 3354,
      "Ġcondition": 3355,
      "ĠProf": 3356,
      "ĠWind": 3357,
      "ĠWed": 3358,
      "Ġanalysis": 3359,
      "Ġmis": 3360,
      "Ġhttp": 3361,
      "Ġcamer": 3362,
      "Ġsolution": 3363,
      "board": 3364,
      "Ġlack": 3365,
      "ari": 3366,
      "Ġlooked": 3367,
      "Ġtowards": 3368,
      "Ġcopy": 3369,
      "ĠWashington": 3370,
      "EO": 3371,
      "24": 3372,
      "sych": 3373,
      "Ġge": 3374,
      "Ġresponse": 3375,
      "Ġhour": 3376,
      "Ġcode": 3377,
      "ĠPaul": 3378,
      "ancy": 3379,
      "Ġmount": 3380,
      "ald": 3381,
      "Ġbehav": 3382,
      "aught": 3383,
      "Ġrace": 3384,
      "ĠJes": 3385,
      "Ġ27": 3386,
      "Ġcomplex": 3387,
      "Ġdro": 3388,
      "Ġsubst": 3389,
      "Ġaware": 3390,
      "Ġequipment": 3391,
      "Ġregist": 3392,
      "ĠGroup": 3393,
      "ĠThurs": 3394,
      "ruary": 3395,
      "error": 3396,
      "Ġspent": 3397,
      "Ġcarry": 3398,
      "Ġcollege": 3399,
      "arily": 3400,
      "bur": 3401,
      "ocr": 3402,
      "ength": 3403,
      "www": 3404,
      "Ġneigh": 3405,
      "Ġconcept": 3406,
      "Ġfirm": 3407,
      "vin": 3408,
      "Ġimplement": 3409,
      "Ġmessage": 3410,
      "izes": 3411,
      "raft": 3412,
      "Ġlic": 3413,
      "Ġsuccessful": 3414,
      "Ġemployees": 3415,
      "Ġfarm": 3416,
      "Ġcertainly": 3417,
      "Ġadvant": 3418,
      "Ġtrip": 3419,
      "ĠCollege": 3420,
      "ĠJapan": 3421,
      "ĠIndia": 3422,
      "Ġinterested": 3423,
      "rs": 3424,
      "uate": 3425,
      "Ġplaces": 3426,
      "Ġfinally": 3427,
      "Ġgrowing": 3428,
      "rast": 3429,
      "Ġ60": 3430,
      "Ġfeeling": 3431,
      "antly": 3432,
      "ĠTrans": 3433,
      "Ġrespond": 3434,
      "aling": 3435,
      "ani": 3436,
      "ĠService": 3437,
      "Ġfix": 3438,
      "ĠMet": 3439,
      "Ġphotos": 3440,
      "Ġgold": 3441,
      "add": 3442,
      "aughter": 3443,
      "ĠGreat": 3444,
      "Ġdistrib": 3445,
      "ography": 3446,
      "ĠTues": 3447,
      "oming": 3448,
      "Ġclub": 3449,
      "Ġded": 3450,
      "Ġbirth": 3451,
      "Ġeffects": 3452,
      "Ġexerc": 3453,
      "Ġâ": 3454,
      "Ġeffort": 3455,
      "ĠWeb": 3456,
      "ĠOp": 3457,
      "itchen": 3458,
      "23": 3459,
      "Ġachieve": 3460,
      "Ġband": 3461,
      "Ġevidence": 3462,
      "Ġpromot": 3463,
      "unk": 3464,
      "Ġprevious": 3465,
      "ida": 3466,
      "ĠJack": 3467,
      "âĢĿ.": 3468,
      "nds": 3469,
      "Ġthreat": 3470,
      "Ġdeveloped": 3471,
      "Ġbag": 3472,
      "sequ": 3473,
      "):": 3474,
      "Ġadult": 3475,
      "zz": 3476,
      "Ġnearly": 3477,
      "Ġcorrect": 3478,
      "rences": 3479,
      "sp": 3480,
      "erved": 3481,
      "ĠBook": 3482,
      "ĠRuss": 3483,
      "Ġfully": 3484,
      "ĠTechn": 3485,
      "Ġexpert": 3486,
      "Ġinnov": 3487,
      "ĠHome": 3488,
      "Ġtick": 3489,
      "Ġtried": 3490,
      "ĠBusiness": 3491,
      "vant": 3492,
      "Ġimag": 3493,
      "Ġfeet": 3494,
      "ĠBest": 3495,
      "Ġwants": 3496,
      "ĠIN": 3497,
      "Ġeat": 3498,
      "het": 3499,
      "Ġspot": 3500,
      "Ġbra": 3501,
      "Ġdemand": 3502,
      "Ġactivity": 3503,
      "Ġult": 3504,
      "Ġorganiz": 3505,
      "uk": 3506,
      "Ġbeginning": 3507,
      "Ġprem": 3508,
      "ĠThursday": 3509,
      "Ġexactly": 3510,
      "bum": 3511,
      "Ġplanning": 3512,
      "ĠSee": 3513,
      "ĠWhite": 3514,
      "mas": 3515,
      "ĠAccording": 3516,
      "field": 3517,
      "Ġhistor": 3518,
      "Ġmat": 3519,
      "Ġstage": 3520,
      "Ġbusinesses": 3521,
      "mitted": 3522,
      "ĠMor": 3523,
      "ĠGood": 3524,
      "ĠEast": 3525,
      "Ġgoals": 3526,
      "ĠPal": 3527,
      "Ġsen": 3528,
      "Ġwife": 3529,
      "uted": 3530,
      "Ġimpress": 3531,
      "ĠRem": 3532,
      "ION": 3533,
      "ĠAlthough": 3534,
      "Ġkn": 3535,
      "ĠFebruary": 3536,
      "vis": 3537,
      "Ġtraditional": 3538,
      "ĠAss": 3539,
      "Ġmoving": 3540,
      "ĠII": 3541,
      "ĠIr": 3542,
      "Ġpurpose": 3543,
      "AP": 3544,
      "Ġfamilies": 3545,
      "ibrary": 3546,
      "olute": 3547,
      "Ġstress": 3548,
      "Ġaltern": 3549,
      "Ġdress": 3550,
      "Ġwel": 3551,
      "Ġschools": 3552,
      "Ġemot": 3553,
      "Ġculture": 3554,
      "Ġpicture": 3555,
      "mark": 3556,
      "Ġdisease": 3557,
      "more": 3558,
      "wide": 3559,
      "Ġhous": 3560,
      "isc": 3561,
      "Ġdifference": 3562,
      "wor": 3563,
      "Ġaccom": 3564,
      "Ġindepend": 3565,
      "ĠTuesday": 3566,
      "Ġinform": 3567,
      "Ġcreating": 3568,
      "ares": 3569,
      "Ġobtain": 3570,
      "arden": 3571,
      "Ġsort": 3572,
      "ying": 3573,
      "Ġwish": 3574,
      "ato": 3575,
      "Ġmaybe": 3576,
      "itable": 3577,
      "reed": 3578,
      "Ġconsult": 3579,
      "Ġwrote": 3580,
      "rench": 3581,
      "Ġdeliver": 3582,
      "ĠGreen": 3583,
      "rael": 3584,
      "Ġpaid": 3585,
      "Ġprot": 3586,
      "arant": 3587,
      "Ġshoot": 3588,
      "Ġhealthy": 3589,
      "Ġter": 3590,
      "Ġrelig": 3591,
      "ĠWednes": 3592,
      "Ġdire": 3593,
      "Ġdry": 3594,
      "estern": 3595,
      "Ġunderstanding": 3596,
      "Ġinstru": 3597,
      "Ġparticularly": 3598,
      "Ġbudget": 3599,
      "chan": 3600,
      "ĠMod": 3601,
      "lied": 3602,
      "ĠiP": 3603,
      "Ġbeyond": 3604,
      "BC": 3605,
      "Ġdemon": 3606,
      "Ġspirit": 3607,
      "Ġpressure": 3608,
      "ategy": 3609,
      "Ġexcellent": 3610,
      "Ġtitle": 3611,
      "Ġappropri": 3612,
      "ĠServices": 3613,
      "Ġreports": 3614,
      "Ġshot": 3615,
      "Ġthous": 3616,
      "ager": 3617,
      "anch": 3618,
      "ram": 3619,
      "Ġacqu": 3620,
      "Ġteams": 3621,
      "Ġer": 3622,
      "Ġfloor": 3623,
      "Ġstraight": 3624,
      "Ġfat": 3625,
      "ords": 3626,
      "Ġhop": 3627,
      "Ġregion": 3628,
      "ĠClick": 3629,
      "ipping": 3630,
      "Ġdirector": 3631,
      "Ġwhose": 3632,
      "Ġopportunities": 3633,
      "ĠGovern": 3634,
      "Ġrent": 3635,
      "rows": 3636,
      "ruit": 3637,
      "Ġtalking": 3638,
      "Ġoccur": 3639,
      "Ġalone": 3640,
      "ĠAM": 3641,
      "venue": 3642,
      "Ġimages": 3643,
      "Ġannounced": 3644,
      "down": 3645,
      "ĠDist": 3646,
      "Ġheat": 3647,
      "Ġassess": 3648,
      "ĠWork": 3649,
      "atever": 3650,
      "Ġwait": 3651,
      "duc": 3652,
      "ube": 3653,
      "Ġbaby": 3654,
      "ĠCle": 3655,
      "hest": 3656,
      "vest": 3657,
      "ĠTex": 3658,
      "oly": 3659,
      "ĠProgram": 3660,
      "Ġdog": 3661,
      "pm": 3662,
      "ĠOh": 3663,
      "undred": 3664,
      "Ġprices": 3665,
      "ĠPlay": 3666,
      "Ġtemper": 3667,
      "imin": 3668,
      "ĠLast": 3669,
      "Ġfrequ": 3670,
      "asc": 3671,
      "Ġbillion": 3672,
      "Ġanaly": 3673,
      "ĠRepublic": 3674,
      "ĠDel": 3675,
      "orage": 3676,
      "Ġearlier": 3677,
      "amm": 3678,
      "ĠBel": 3679,
      "ault": 3680,
      "Ġcert": 3681,
      "Ġsolutions": 3682,
      "Ġincreased": 3683,
      "Ġaim": 3684,
      "itiz": 3685,
      "ĠBecause": 3686,
      "Ġinvestment": 3687,
      "Ġstrateg": 3688,
      "ĠSub": 3689,
      "Ġcapital": 3690,
      "Ġrequirements": 3691,
      "ĠWednesday": 3692,
      "45": 3693,
      "olf": 3694,
      "ancing": 3695,
      "ocol": 3696,
      "ĠÂ£": 3697,
      "ears": 3698,
      "Ġroll": 3699,
      "ĠWhe": 3700,
      "Ġbenefit": 3701,
      "Ġver": 3702,
      "Ġdoll": 3703,
      "Ġincreasing": 3704,
      "Ġrock": 3705,
      "Ġapart": 3706,
      "ashion": 3707,
      "Ġ2007": 3708,
      "Ġcharge": 3709,
      "ĠSuper": 3710,
      "Ġstatement": 3711,
      "Ġfans": 3712,
      "Ġtur": 3713,
      "Ġaward": 3714,
      "Ġdoub": 3715,
      "ils": 3716,
      "Ġgas": 3717,
      "inner": 3718,
      "Ġapplications": 3719,
      "Ġcommercial": 3720,
      "Ġoverall": 3721,
      "Ġglass": 3722,
      "Ġeight": 3723,
      "example": 3724,
      "Ġextend": 3725,
      "ounds": 3726,
      "Ġallowed": 3727,
      "Ġseven": 3728,
      "Ġopin": 3729,
      "Ġsale": 3730,
      "ĠEach": 3731,
      "isl": 3732,
      "isf": 3733,
      "Ġenh": 3734,
      "change": 3735,
      "ĠGold": 3736,
      "Ġserve": 3737,
      "Ġcandid": 3738,
      "ĠCong": 3739,
      "Ġuses": 3740,
      "Ġserious": 3741,
      "Ġtrade": 3742,
      "Ġdefinitely": 3743,
      "ĠInter": 3744,
      "reci": 3745,
      "Ġalthough": 3746,
      "ĠJames": 3747,
      "Ġstrugg": 3748,
      "ously": 3749,
      "ĠSystem": 3750,
      "ronic": 3751,
      "Ġmeaning": 3752,
      "ĠPri": 3753,
      "gen": 3754,
      "lock": 3755,
      "ecutive": 3756,
      "aled": 3757,
      "Ġgrand": 3758,
      "ĠJesus": 3759,
      "Ġsurv": 3760,
      "ffee": 3761,
      "Ġload": 3762,
      "Ġ29": 3763,
      "Ġ197": 3764,
      "Ġ2019": 3765,
      "Ġcorpor": 3766,
      "Ġmiddle": 3767,
      "Ġcouldn": 3768,
      "Ġnumbers": 3769,
      "Ġmilitary": 3770,
      "ĠIsrael": 3771,
      "Ġvoice": 3772,
      "ew": 3773,
      "ĠTy": 3774,
      "ĠResearch": 3775,
      "ĠToday": 3776,
      "Ġrules": 3777,
      "Ġliter": 3778,
      "Ġimmediately": 3779,
      "Ġfederal": 3780,
      "Ġremain": 3781,
      "force": 3782,
      "ĠFound": 3783,
      "Ġmer": 3784,
      "Ġchanged": 3785,
      "Ġsmart": 3786,
      "Ġfem": 3787,
      "Ġund": 3788,
      "Ġshown": 3789,
      "Ġproced": 3790,
      "ĠInternet": 3791,
      "ĠPM": 3792,
      "ĠRet": 3793,
      "Ġcomments": 3794,
      "Ġrates": 3795,
      "AD": 3796,
      "Ġpattern": 3797,
      "Ġscient": 3798,
      "ĠMichael": 3799,
      "Ġden": 3800,
      "ĠIndian": 3801,
      "ĠRich": 3802,
      "Ġnut": 3803,
      "Ġchurch": 3804,
      "Ġinstit": 3805,
      "You": 3806,
      "Ġowners": 3807,
      "Ġmachine": 3808,
      "Ġpet": 3809,
      "ĠIS": 3810,
      "vision": 3811,
      "Ġoffered": 3812,
      "Ġforce": 3813,
      "Ġnormal": 3814,
      "ĠAssociation": 3815,
      "ĠPort": 3816,
      "dom": 3817,
      "ĠAnt": 3818,
      "Ġloved": 3819,
      "Ġhappened": 3820,
      "set": 3821,
      "rial": 3822,
      "Ġcold": 3823,
      "Ġquarter": 3824,
      "ĠDesign": 3825,
      "ban": 3826,
      "ĠCouncil": 3827,
      "Ġadvert": 3828,
      "Ġcateg": 3829,
      "ĠDevelop": 3830,
      "RO": 3831,
      "Ġmax": 3832,
      "Ġtruly": 3833,
      "Ġreasons": 3834,
      "nded": 3835,
      "Ġbasis": 3836,
      "Ġadvice": 3837,
      "omb": 3838,
      "ĠCanada": 3839,
      "icate": 3840,
      "EL": 3841,
      "Ġactive": 3842,
      "Ġsupply": 3843,
      "order": 3844,
      "Ġreduce": 3845,
      "Ġalbum": 3846,
      "que": 3847,
      "Ġwww": 3848,
      "This": 3849,
      "Ġhus": 3850,
      "ago": 3851,
      "Ġconstruction": 3852,
      "inger": 3853,
      "ĠMac": 3854,
      "edding": 3855,
      "etic": 3856,
      "ĠCheck": 3857,
      "ĠLike": 3858,
      "ĠEuropean": 3859,
      "Ġlines": 3860,
      "Ġgar": 3861,
      "Ġcancer": 3862,
      "PS": 3863,
      "ĠSol": 3864,
      "Ġmoved": 3865,
      "Ġlik": 3866,
      "iling": 3867,
      "Ġreflect": 3868,
      "Ġcash": 3869,
      "bon": 3870,
      "Ġscience": 3871,
      "Ġessential": 3872,
      "Ġstudies": 3873,
      "Ġresponsible": 3874,
      "ĠSur": 3875,
      "Ġdevices": 3876,
      "Ġprefer": 3877,
      "Ġaspect": 3878,
      "Ġfra": 3879,
      "Ġphoto": 3880,
      "house": 3881,
      "Ġdegree": 3882,
      "Ġ2020": 3883,
      "ĠAbout": 3884,
      "Ġdamage": 3885,
      "Ġassociated": 3886,
      "Ġguide": 3887,
      "Ġchallenge": 3888,
      "ĠDuring": 3889,
      "Ġhundred": 3890,
      "Ġhelped": 3891,
      "Ġgone": 3892,
      "ĠSpr": 3893,
      "ĠYes": 3894,
      "Ġcru": 3895,
      "ĠCr": 3896,
      "ĠObama": 3897,
      "Ġpow": 3898,
      "Ġspread": 3899,
      "35": 3900,
      "Ġing": 3901,
      "ĠBoard": 3902,
      "ĠTexas": 3903,
      "Ġwild": 3904,
      "Ġpoor": 3905,
      "ĠEduc": 3906,
      "ĠPeople": 3907,
      "ooth": 3908,
      "ties": 3909,
      "ĠHall": 3910,
      "ĠOffice": 3911,
      "Ġmeasure": 3912,
      "ĠAnge": 3913,
      "ĠMake": 3914,
      "useum": 3915,
      "Ġjoin": 3916,
      "Ġclin": 3917,
      "well": 3918,
      "Ġahead": 3919,
      "Ġinternet": 3920,
      "ĠReview": 3921,
      "iny": 3922,
      "Ġdecl": 3923,
      "Ġ=": 3924,
      "Ġvehicle": 3925,
      "Ġgreater": 3926,
      "ĠRom": 3927,
      "Ġbill": 3928,
      "Ġcontain": 3929,
      "Ġperhaps": 3930,
      "Ġbasic": 3931,
      "ĠAv": 3932,
      "ĠChristmas": 3933,
      "Ġsust": 3934,
      "orrow": 3935,
      "Ġeasier": 3936,
      "Ġpages": 3937,
      "Ġcry": 3938,
      "ico": 3939,
      "Ġaren": 3940,
      "Ġble": 3941,
      "Ġguy": 3942,
      "Ġabsolute": 3943,
      "He": 3944,
      "arc": 3945,
      "rief": 3946,
      "Ġannual": 3947,
      "amic": 3948,
      "ĠMem": 3949,
      "Ġjobs": 3950,
      "mp": 3951,
      "Ġlargest": 3952,
      "Ġmiles": 3953,
      "iant": 3954,
      "icip": 3955,
      "Ġwonderful": 3956,
      "Ġdang": 3957,
      "ĠUse": 3958,
      "26": 3959,
      "istry": 3960,
      "ĠThanks": 3961,
      "pa": 3962,
      "olic": 3963,
      "Ġprofession": 3964,
      "Ġclient": 3965,
      "ĠFlor": 3966,
      "ĠHot": 3967,
      "ĠCompany": 3968,
      "Ġoffering": 3969,
      "ĠLoc": 3970,
      "Ġproduce": 3971,
      "Ġpeace": 3972,
      "Ġnotice": 3973,
      "Ġpowerful": 3974,
      "Ġpartner": 3975,
      "Ġsports": 3976,
      "Ġnamed": 3977,
      "Ġfollowed": 3978,
      "Ġstar": 3979,
      "la": 3980,
      "Ġpatient": 3981,
      "27": 3982,
      "ĠPublic": 3983,
      "ĠBra": 3984,
      "Ġbrother": 3985,
      "coming": 3986,
      "Ġbottom": 3987,
      "see": 3988,
      "Ġsurround": 3989,
      "Ġchem": 3990,
      "osing": 3991,
      "Ġefforts": 3992,
      "iment": 3993,
      "ĠMarket": 3994,
      "ĠPhot": 3995,
      "ses": 3996,
      "Ġfab": 3997,
      "ĠAnn": 3998,
      "bed": 3999,
      "ĠBill": 4000,
      "ls": 4001,
      "ĠChurch": 4002,
      "Ġattract": 4003,
      "cul": 4004,
      "Ġdouble": 4005,
      "ero": 4006,
      "Ġstrategy": 4007,
      "ĠRec": 4008,
      "Ġletter": 4009,
      "ston": 4010,
      "ĠRel": 4011,
      "ports": 4012,
      "istics": 4013,
      "Ġserved": 4014,
      "Ġeval": 4015,
      "Ġaccur": 4016,
      "rapy": 4017,
      "Ġpictures": 4018,
      "Ġshop": 4019,
      "Ġguys": 4020,
      "ĠBritish": 4021,
      "Ġdelivery": 4022,
      "ĠST": 4023,
      "Ġcast": 4024,
      "Ġclot": 4025,
      "akers": 4026,
      "Ġhotel": 4027,
      "Ġoccas": 4028,
      "Ġstick": 4029,
      "Ġborn": 4030,
      "Ġtransfer": 4031,
      "Ġlots": 4032,
      "Ġappreci": 4033,
      "Ġtrou": 4034,
      "Ġsociety": 4035,
      "ĠBig": 4036,
      "hips": 4037,
      "LE": 4038,
      "Ġfinished": 4039,
      "IG": 4040,
      "Ġblue": 4041,
      "Ġcompon": 4042,
      "Ġexpand": 4043,
      "ĠChristian": 4044,
      "Ġgirls": 4045,
      "Ġsurface": 4046,
      "Ġfaith": 4047,
      "Ġstrength": 4048,
      "ulf": 4049,
      "term": 4050,
      "Ġtruth": 4051,
      "ĠMart": 4052,
      "atively": 4053,
      "Ġkept": 4054,
      "ĠGeneral": 4055,
      "Ġslight": 4056,
      "Ġfinish": 4057,
      "Ġcompared": 4058,
      "inated": 4059,
      "Ġframe": 4060,
      "place": 4061,
      "apter": 4062,
      "Ġobv": 4063,
      "ustr": 4064,
      "ĠWho": 4065,
      "Ġregarding": 4066,
      "ĠSk": 4067,
      "Ġlearned": 4068,
      "ĠCur": 4069,
      "Ch": 4070,
      "ĠAnother": 4071,
      "Ġsteps": 4072,
      "Ġsweet": 4073,
      "ĠEv": 4074,
      "ken": 4075,
      "anging": 4076,
      "Ġkitchen": 4077,
      "ĠTwo": 4078,
      "ourney": 4079,
      "itude": 4080,
      "Ġsetting": 4081,
      "Ġ@": 4082,
      "rem": 4083,
      "Ġmovement": 4084,
      "ifying": 4085,
      "Ġcontinued": 4086,
      "ĠFrench": 4087,
      "Ġadjust": 4088,
      "Ġhusband": 4089,
      "ĠTop": 4090,
      "ĠSam": 4091,
      "encies": 4092,
      "ĠApple": 4093,
      "Ġcompl": 4094,
      "Ġappoint": 4095,
      "ech": 4096,
      "Ġhelping": 4097,
      "Ġappropriate": 4098,
      "Ġweather": 4099,
      "Ġopening": 4100,
      "itect": 4101,
      "Ġ2006": 4102,
      "Ġextremely": 4103,
      "ĠUnder": 4104,
      "ĠThom": 4105,
      "ĠLook": 4106,
      "ss": 4107,
      "Ġstructure": 4108,
      "Ġcharacters": 4109,
      "90": 4110,
      "Ġpopulation": 4111,
      "28": 4112,
      "Ġbreat": 4113,
      "Ġbrain": 4114,
      "hens": 4115,
      "ady": 4116,
      "acity": 4117,
      "Ġreplace": 4118,
      "ĠClass": 4119,
      "iced": 4120,
      "Ġeconomy": 4121,
      "ĠMary": 4122,
      "Ġcollabor": 4123,
      "Ġlength": 4124,
      "Ġvirt": 4125,
      "IV": 4126,
      "Ġcamera": 4127,
      "friend": 4128,
      "ĠOF": 4129,
      "asy": 4130,
      "ĠLear": 4131,
      "Ġsuff": 4132,
      "Ġgift": 4133,
      "Ġsatisf": 4134,
      "Ġpros": 4135,
      "rey": 4136,
      "Ġlock": 4137,
      "Ġadvantage": 4138,
      "leg": 4139,
      "ĠMag": 4140,
      "Ġseeing": 4141,
      "Ġexisting": 4142,
      "Ġcho": 4143,
      "Ġprotection": 4144,
      "ĠAustralia": 4145,
      "ker": 4146,
      "Ġworkers": 4147,
      "Ġtrain": 4148,
      "care": 4149,
      "Ġhomes": 4150,
      "Ġfant": 4151,
      "eds": 4152,
      "Ġwat": 4153,
      "ST": 4154,
      "ĠFind": 4155,
      "ĠHel": 4156,
      "Ġtransport": 4157,
      "Ġpieces": 4158,
      "ĠDirector": 4159,
      "Ġadop": 4160,
      "ĠIT": 4161,
      "ĠJer": 4162,
      "Ġplus": 4163,
      "Ġrepe": 4164,
      "ĠMicro": 4165,
      "100": 4166,
      "ampions": 4167,
      "ĠLord": 4168,
      "lying": 4169,
      "imal": 4170,
      "ĠTime": 4171,
      "Ġboy": 4172,
      "Ġreb": 4173,
      "Ġafford": 4174,
      "aming": 4175,
      "Ġdrug": 4176,
      "ĠLife": 4177,
      "ption": 4178,
      "Ġcritical": 4179,
      "Ġcontinu": 4180,
      "ado": 4181,
      "Ġesc": 4182,
      "rig": 4183,
      "Ġhom": 4184,
      "Ġdisapp": 4185,
      "Ġgenerally": 4186,
      "Ġincome": 4187,
      "ologies": 4188,
      "unte": 4189,
      "Ġwear": 4190,
      "ĠDown": 4191,
      "DA": 4192,
      "ĠRoad": 4193,
      "Ġbackground": 4194,
      "raw": 4195,
      "Ġguarant": 4196,
      "ĠTwitter": 4197,
      "Ġwouldn": 4198,
      "usion": 4199,
      "ĠClub": 4200,
      "Ġleader": 4201,
      "ĠPC": 4202,
      "Ġknows": 4203,
      "Ġlarger": 4204,
      "ĠVis": 4205,
      "Ġfigure": 4206,
      "Ġarr": 4207,
      "Ġexperienced": 4208,
      "Ġgun": 4209,
      "dule": 4210,
      "Ġbiggest": 4211,
      "Ġaudience": 4212,
      "Ġir": 4213,
      "ĠBank": 4214,
      "Ġpayment": 4215,
      "Ġvill": 4216,
      "Ġreality": 4217,
      "Ġmechan": 4218,
      "Ġestablished": 4219,
      "using": 4220,
      "gn": 4221,
      "Ġdemonstr": 4222,
      "Ġorganizations": 4223,
      "Ġonto": 4224,
      "Ġthank": 4225,
      "Ġanti": 4226,
      "ĠPlan": 4227,
      "ĠRob": 4228,
      "Ġpassed": 4229,
      "Ġmission": 4230,
      "75": 4231,
      "Ġharm": 4232,
      "Ġprimary": 4233,
      "lands": 4234,
      "IP": 4235,
      "Ġbeg": 4236,
      "Ġentertain": 4237,
      "Ġcreative": 4238,
      "ĠBen": 4239,
      "Ġhaven": 4240,
      "Ġincred": 4241,
      "sey": 4242,
      "Ġ80": 4243,
      "Ġtend": 4244,
      "Ġcommit": 4245,
      "Ġrequires": 4246,
      "eria": 4247,
      "phone": 4248,
      "Ġdriving": 4249,
      "Ġcivil": 4250,
      "Ġdied": 4251,
      "ĠTom": 4252,
      "Ġpsych": 4253,
      "Ġcalls": 4254,
      "ĠWindows": 4255,
      "ĠHist": 4256,
      "Ġconnection": 4257,
      "Ġnames": 4258,
      "Ġexhib": 4259,
      "Ġtoward": 4260,
      "iled": 4261,
      "ĠPhil": 4262,
      "RA": 4263,
      "Ġfear": 4264,
      "Ġcentury": 4265,
      "rowd": 4266,
      "33": 4267,
      "ĠThank": 4268,
      "Ġiniti": 4269,
      "pective": 4270,
      "udd": 4271,
      "Ġactual": 4272,
      "ĠCare": 4273,
      "Ġcompleted": 4274,
      "Ġhighest": 4275,
      "riage": 4276,
      "29": 4277,
      "65": 4278,
      "Ġstatus": 4279,
      "Ġruns": 4280,
      "CC": 4281,
      "Ġheavy": 4282,
      "Ġnovel": 4283,
      "ĠCommission": 4284,
      "ĠBack": 4285,
      "Ġstorage": 4286,
      "ĠFam": 4287,
      "ĠPress": 4288,
      "Ġstream": 4289,
      "gency": 4290,
      "ĠChild": 4291,
      "Ġcomfortable": 4292,
      "Ġmethods": 4293,
      "ĠJew": 4294,
      "ipped": 4295,
      "icine": 4296,
      "ĠSun": 4297,
      "rees": 4298,
      "Ġreviews": 4299,
      "Ġmist": 4300,
      "Ġmill": 4301,
      "ĠWin": 4302,
      "Ġuseful": 4303,
      "ym": 4304,
      "Ġolder": 4305,
      "ae": 4306,
      "Ġbath": 4307,
      "lies": 4308,
      "ĠHave": 4309,
      "Ġestablish": 4310,
      "Ġscore": 4311,
      "Ġfan": 4312,
      "unately": 4313,
      "Ġorigin": 4314,
      "Ġtherefore": 4315,
      "estival": 4316,
      "Ġcolle": 4317,
      "ij": 4318,
      "ĠHum": 4319,
      "ĠDet": 4320,
      "Ġcoffee": 4321,
      "Ġfinding": 4322,
      "Ġbow": 4323,
      "Ġconference": 4324,
      "Ġchann": 4325,
      "ĠFlorida": 4326,
      "ander": 4327,
      "Ġ31": 4328,
      "ĠCamp": 4329,
      "odes": 4330,
      "Ġsto": 4331,
      "ĠPet": 4332,
      "porary": 4333,
      "Ġproduced": 4334,
      "Ġelectric": 4335,
      "ios": 4336,
      "ĠRock": 4337,
      "Ġchallenges": 4338,
      "ĠSl": 4339,
      "Ġsecret": 4340,
      "Ġresist": 4341,
      "Ġwhatever": 4342,
      "ervation": 4343,
      "Ġguid": 4344,
      "Ġscene": 4345,
      "rian": 4346,
      "ĠDec": 4347,
      "Ġdoctor": 4348,
      "atically": 4349,
      "gal": 4350,
      "Ġmaster": 4351,
      "ĠMatt": 4352,
      "Ġmeant": 4353,
      "ĠMiss": 4354,
      "itar": 4355,
      "ĠBay": 4356,
      "aven": 4357,
      "ĠInformation": 4358,
      "Ġdaughter": 4359,
      "Ġcards": 4360,
      "ĠTO": 4361,
      "Ġmanager": 4362,
      "Ġexperiences": 4363,
      "Ġtom": 4364,
      "Ġshared": 4365,
      "Ġprec": 4366,
      "Ġmanufacture": 4367,
      "nding": 4368,
      "Ġmodels": 4369,
      "ĠWhere": 4370,
      "ĠBer": 4371,
      "oos": 4372,
      "Ġlimit": 4373,
      "MS": 4374,
      "Ġcommunities": 4375,
      "Ġscen": 4376,
      "itness": 4377,
      "Ġcitiz": 4378,
      "iques": 4379,
      "osure": 4380,
      "Ġfactors": 4381,
      "ĠOnline": 4382,
      "Ġunit": 4383,
      "ression": 4384,
      "Ġhappens": 4385,
      "asure": 4386,
      "Ġacadem": 4387,
      "Ġrefer": 4388,
      "Ġretail": 4389,
      "Ġlegisl": 4390,
      "Ġstandards": 4391,
      "text": 4392,
      "roud": 4393,
      "Ġ90": 4394,
      "vere": 4395,
      "enses": 4396,
      "Ġsolid": 4397,
      "Ġremind": 4398,
      "ĠSal": 4399,
      "Ġremains": 4400,
      "ona": 4401,
      "iller": 4402,
      "works": 4403,
      "Ġparties": 4404,
      "500": 4405,
      "ĠSum": 4406,
      "Ġsecure": 4407,
      "itors": 4408,
      "Ġutil": 4409,
      "Â®": 4410,
      "Ġowner": 4411,
      "acing": 4412,
      "ĠStr": 4413,
      "last": 4414,
      "Ġtim": 4415,
      "Ġjourney": 4416,
      "ĠUSA": 4417,
      "ĠCongress": 4418,
      "Ġton": 4419,
      "ipe": 4420,
      "Ġargu": 4421,
      "Ġplaced": 4422,
      "Ġcovered": 4423,
      "Ġteaching": 4424,
      "gment": 4425,
      "Ġviews": 4426,
      "ĠBre": 4427,
      "ĠInstitute": 4428,
      "Ġdiet": 4429,
      "ĠManagement": 4430,
      "Ġstreet": 4431,
      "entially": 4432,
      "ĠSa": 4433,
      "Ġtraffic": 4434,
      "ĠEngland": 4435,
      "Ġpray": 4436,
      "Ġepis": 4437,
      "za": 4438,
      "TS": 4439,
      "hem": 4440,
      "orial": 4441,
      "umn": 4442,
      "anta": 4443,
      "Ġearth": 4444,
      "âĢĿ,": 4445,
      "ĠIns": 4446,
      "Ġmanage": 4447,
      "Ġcells": 4448,
      "uty": 4449,
      "Ġpool": 4450,
      "iation": 4451,
      "ĠLou": 4452,
      "Ġfiles": 4453,
      "ĠSmith": 4454,
      "inese": 4455,
      "vention": 4456,
      "OL": 4457,
      "Ġhospital": 4458,
      "ota": 4459,
      "standing": 4460,
      "Ġshowed": 4461,
      "Ġdrop": 4462,
      "ĠRiver": 4463,
      "Ġevening": 4464,
      "Ġrare": 4465,
      "ĠWater": 4466,
      "Ġessay": 4467,
      "Ġhar": 4468,
      "men": 4469,
      "ĠCap": 4470,
      "ucky": 4471,
      "Ġguess": 4472,
      "Ġbecomes": 4473,
      "Ġfashion": 4474,
      "____": 4475,
      "Ġforeign": 4476,
      "Ġforms": 4477,
      "ĠFore": 4478,
      "box": 4479,
      "icks": 4480,
      "Ġ2005": 4481,
      "Ġlands": 4482,
      "yer": 4483,
      "Ġbatter": 4484,
      "ĠStar": 4485,
      "soft": 4486,
      "ĠEducation": 4487,
      "Ġthanks": 4488,
      "azine": 4489,
      "Ġcompetition": 4490,
      "?\"": 4491,
      "Ġmemory": 4492,
      "Ġselection": 4493,
      "Ġgrant": 4494,
      "Ġwaiting": 4495,
      "Ġrich": 4496,
      "oe": 4497,
      "ĠMex": 4498,
      "Ġbalance": 4499,
      "Ġcontinues": 4500,
      "ĠBet": 4501,
      "Ġtips": 4502,
      "oyal": 4503,
      "Ġelements": 4504,
      "ĠAlex": 4505,
      "UR": 4506,
      "rab": 4507,
      "Ġclaims": 4508,
      "Ġeth": 4509,
      "ĠLove": 4510,
      "Ġ35": 4511,
      "Ġdetermine": 4512,
      "know": 4513,
      "overy": 4514,
      "Ġspring": 4515,
      "Ġrob": 4516,
      "ĠDemocr": 4517,
      "look": 4518,
      "ĠChic": 4519,
      "Ġdeveloping": 4520,
      "Ġstation": 4521,
      "Ġofficials": 4522,
      "Ġexercise": 4523,
      "Ġfunds": 4524,
      "Ġlinks": 4525,
      "Ġmatt": 4526,
      "Ġseemed": 4527,
      "Ġsenior": 4528,
      "ula": 4529,
      "ading": 4530,
      "Ġwindow": 4531,
      "Ġgain": 4532,
      "ĠTake": 4533,
      "ĠSing": 4534,
      "fast": 4535,
      "ĠBur": 4536,
      "Ġ70": 4537,
      "Ġbeat": 4538,
      "ads": 4539,
      "free": 4540,
      "Ġjournal": 4541,
      "IL": 4542,
      "Ġcoach": 4543,
      "Ġmajority": 4544,
      "Ġkeeping": 4545,
      "roid": 4546,
      "Ġimpl": 4547,
      "ĠProfess": 4548,
      "Ġfish": 4549,
      "Ġearn": 4550,
      "ented": 4551,
      "Ġwine": 4552,
      "Ġprepared": 4553,
      "Ġcasino": 4554,
      "osition": 4555,
      "IM": 4556,
      "ĠPower": 4557,
      "lig": 4558,
      "Ġpassion": 4559,
      "Ġfurn": 4560,
      "Ġideal": 4561,
      "apers": 4562,
      "Ġdescribed": 4563,
      "Ġlose": 4564,
      "uled": 4565,
      "Ġmentioned": 4566,
      "Ġice": 4567,
      "ki": 4568,
      "PA": 4569,
      "amin": 4570,
      "azon": 4571,
      "Ġdirection": 4572,
      "Ġopened": 4573,
      "ĠYear": 4574,
      "Ġcommunication": 4575,
      "Ġoperations": 4576,
      "Ġflav": 4577,
      "Ġclearly": 4578,
      "EM": 4579,
      "Ġsession": 4580,
      "Ġthousands": 4581,
      "ette": 4582,
      "osis": 4583,
      "ĠVe": 4584,
      "ĠBrown": 4585,
      "Ġpresented": 4586,
      "iers": 4587,
      "ĠSil": 4588,
      "Ġexclus": 4589,
      "ĠAtt": 4590,
      "Ġwatching": 4591,
      "Ġrelax": 4592,
      "hy": 4593,
      "Ġvote": 4594,
      "Ġjump": 4595,
      "ĠStep": 4596,
      "Ġtechnical": 4597,
      "Ġunc": 4598,
      "ĠMil": 4599,
      "ĠOpen": 4600,
      "Ġassign": 4601,
      "Ġwedding": 4602,
      "semb": 4603,
      "edy": 4604,
      "ĠLake": 4605,
      "ĠTheir": 4606,
      "ĠGeorge": 4607,
      "ĠVir": 4608,
      "Ġrap": 4609,
      "Ġreli": 4610,
      "Ġcris": 4611,
      "OM": 4612,
      "ĠForm": 4613,
      "Ġvideos": 4614,
      "Ġtesting": 4615,
      "Ġplenty": 4616,
      "ĠVol": 4617,
      "ĠCall": 4618,
      "Ġlaunch": 4619,
      "miss": 4620,
      "Ġposted": 4621,
      "Ġsexual": 4622,
      "Ġcrowd": 4623,
      "Ġcatch": 4624,
      "orney": 4625,
      "Ġrecords": 4626,
      "Ġcaused": 4627,
      "Ġ196": 4628,
      "Ġfol": 4629,
      "Ġforget": 4630,
      "Ġspending": 4631,
      "NA": 4632,
      "Ġsym": 4633,
      "Ġlaws": 4634,
      "berg": 4635,
      "Ġcentral": 4636,
      "Ġpolic": 4637,
      "ĠScience": 4638,
      "itz": 4639,
      "icon": 4640,
      "ĠMal": 4641,
      "night": 4642,
      "ĠMount": 4643,
      "Ġbecoming": 4644,
      "Ġcounter": 4645,
      "Ġwinter": 4646,
      "olly": 4647,
      "Ġotherwise": 4648,
      "Ġclasses": 4649,
      "ooper": 4650,
      "inct": 4651,
      "44": 4652,
      "lor": 4653,
      "Ġdat": 4654,
      "Ġvalues": 4655,
      "Ġflu": 4656,
      "Ġingred": 4657,
      "enture": 4658,
      "Ġestim": 4659,
      "Ġtrial": 4660,
      "ipp": 4661,
      "Ġleaving": 4662,
      "Ġbutton": 4663,
      "iture": 4664,
      "Ġadding": 4665,
      "actions": 4666,
      "Ġboo": 4667,
      "Ġwilling": 4668,
      "ĠBefore": 4669,
      "win": 4670,
      "Ġappears": 4671,
      "ka": 4672,
      "Ġfootball": 4673,
      "Ġestate": 4674,
      "Ġstarts": 4675,
      "Ġfill": 4676,
      "nect": 4677,
      "\",": 4678,
      "Ġagency": 4679,
      "Ġvision": 4680,
      "ĠFood": 4681,
      "95": 4682,
      "Ġindependent": 4683,
      "Ġartist": 4684,
      "Ġdecide": 4685,
      "ĠAfrica": 4686,
      "Ġthus": 4687,
      "Ġadvance": 4688,
      "OW": 4689,
      "Ġpaint": 4690,
      "ĠProject": 4691,
      "Ġapprox": 4692,
      "Ġsustain": 4693,
      "Ġsand": 4694,
      "Ġexcited": 4695,
      "CA": 4696,
      "ror": 4697,
      "Ġdespite": 4698,
      "outhern": 4699,
      "Ġleadership": 4700,
      "Ġtask": 4701,
      "Ġsources": 4702,
      "Ġconven": 4703,
      "Ġdiscover": 4704,
      "ception": 4705,
      "Ġefficient": 4706,
      "ĠChinese": 4707,
      "Ġgraph": 4708,
      "Ġshape": 4709,
      "Ġbehavior": 4710,
      "Ġremove": 4711,
      "osh": 4712,
      "ĠBoth": 4713,
      "antic": 4714,
      "ĠCommittee": 4715,
      "Ġflex": 4716,
      "ĠSocial": 4717,
      "ĠAP": 4718,
      "Ġvir": 4719,
      "Ġcapacity": 4720,
      "Ġrank": 4721,
      "Ġvictim": 4722,
      "ĠGlo": 4723,
      "Ġegg": 4724,
      "estic": 4725,
      "Ġclosed": 4726,
      "Ġmicro": 4727,
      "Ġagreement": 4728,
      "ĠCustom": 4729,
      "IA": 4730,
      "ĠView": 4731,
      "ĠGovernment": 4732,
      "roy": 4733,
      "Ġshowing": 4734,
      "Ġhandle": 4735,
      "Ġwelcome": 4736,
      "Ġanimals": 4737,
      "Ġsch": 4738,
      "oop": 4739,
      "ĠScott": 4740,
      ");": 4741,
      "Ġship": 4742,
      "ellow": 4743,
      "mail": 4744,
      "log": 4745,
      "Ġsumm": 4746,
      "iliar": 4747,
      "iency": 4748,
      "Ġschedule": 4749,
      "Ġrule": 4750,
      "Re": 4751,
      "Ġcraft": 4752,
      "Ġpractices": 4753,
      "Ġraised": 4754,
      "ĠChicago": 4755,
      "Ġtree": 4756,
      "Ġproud": 4757,
      "abilities": 4758,
      "Ġended": 4759,
      "Ġfamous": 4760,
      "ga": 4761,
      "ĠFollow": 4762,
      "Ġpair": 4763,
      "Ġtransl": 4764,
      "Ġmail": 4765,
      "ĠLu": 4766,
      "ĠWood": 4767,
      "Ġhonest": 4768,
      "ags": 4769,
      "Ġplants": 4770,
      "state": 4771,
      "gery": 4772,
      "ĠMain": 4773,
      "how": 4774,
      "esome": 4775,
      "Ġloan": 4776,
      "Ġfacilities": 4777,
      "fit": 4778,
      "Ġdedicated": 4779,
      "Ġactions": 4780,
      "Ġshopping": 4781,
      "Ġlisted": 4782,
      "Ġdecisions": 4783,
      "Ġopinion": 4784,
      "Ġvs": 4785,
      "Ġincor": 4786,
      "Ġminute": 4787,
      "Ġcontains": 4788,
      "ishes": 4789,
      "Ġrelevant": 4790,
      "arge": 4791,
      "Ġdepartment": 4792,
      "asp": 4793,
      "Ġsty": 4794,
      "BS": 4795,
      "Ġkid": 4796,
      "tenance": 4797,
      "Ġpresence": 4798,
      "aked": 4799,
      "Ġarm": 4800,
      "ĠSomet": 4801,
      "ĠPay": 4802,
      "Ġresidents": 4803,
      "ste": 4804,
      "Ġcab": 4805,
      "ĠAND": 4806,
      "Ġrestaurant": 4807,
      "Ġvolunte": 4808,
      "ctors": 4809,
      "Ġmort": 4810,
      "cel": 4811,
      "Ġdiscussion": 4812,
      "ĠDevelopment": 4813,
      "Ġseparate": 4814,
      "Ġign": 4815,
      "ĠSpecial": 4816,
      "Ġchanging": 4817,
      "Ġsugar": 4818,
      "Ġnotes": 4819,
      "ĠCarol": 4820,
      "point": 4821,
      "Ġsched": 4822,
      "ugg": 4823,
      "ĠHy": 4824,
      "Ġtaste": 4825,
      "Ġthrow": 4826,
      "Ġsnow": 4827,
      "ĠMot": 4828,
      "Ġemp": 4829,
      "Ġrelationships": 4830,
      "Ġsem": 4831,
      "bing": 4832,
      "Ġthoughts": 4833,
      "36": 4834,
      "Ġupdate": 4835,
      "Ġidentify": 4836,
      "ĠHill": 4837,
      "ternal": 4838,
      "Ġnumerous": 4839,
      "ĠGra": 4840,
      "Ġwhom": 4841,
      "Ġbright": 4842,
      "going": 4843,
      "CH": 4844,
      "Ġcore": 4845,
      "Ġwaste": 4846,
      "Ġsmaller": 4847,
      "ĠBlue": 4848,
      "ĠAmericans": 4849,
      "Ġbrief": 4850,
      "Ġbon": 4851,
      "Ġpoll": 4852,
      "Ġfocused": 4853,
      "active": 4854,
      "Ġcars": 4855,
      "craft": 4856,
      "Ġcircum": 4857,
      "oma": 4858,
      "ĠEnter": 4859,
      "Ġcorner": 4860,
      "Ġbul": 4861,
      "ucle": 4862,
      "Ġdriver": 4863,
      "Ġrat": 4864,
      "Ġleaves": 4865,
      "Ġcloud": 4866,
      "Ġprinci": 4867,
      "Ġtrail": 4868,
      "Ġbought": 4869,
      "Ġexperts": 4870,
      "gl": 4871,
      "Ġdiagn": 4872,
      "ĠCommunity": 4873,
      "Ġmental": 4874,
      "Ġmarkets": 4875,
      "ĠShow": 4876,
      "Ġpreviously": 4877,
      "Ġspect": 4878,
      "icken": 4879,
      "press": 4880,
      "ĠDiv": 4881,
      "Ġmanaged": 4882,
      "Ġselected": 4883,
      "ĠCentral": 4884,
      "Ġdefense": 4885,
      "Ġdinner": 4886,
      "Ġconcerns": 4887,
      "Ġreached": 4888,
      "Ġmostly": 4889,
      "Ġ2000": 4890,
      "ulated": 4891,
      "Ġfunding": 4892,
      "ĠDistrict": 4893,
      "door": 4894,
      "Ġinitial": 4895,
      "ĠFire": 4896,
      "Ġbuying": 4897,
      "Ġtemperature": 4898,
      "ixt": 4899,
      "ĠTimes": 4900,
      "Ġspecies": 4901,
      "Ġoperating": 4902,
      "ĠTrump": 4903,
      "ĠCD": 4904,
      "Ġchair": 4905,
      "pan": 4906,
      "Ġdocuments": 4907,
      "ĠFrank": 4908,
      "Ġeating": 4909,
      "38": 4910,
      "ĠTur": 4911,
      "unction": 4912,
      "Ġworry": 4913,
      "ĠConst": 4914,
      "Ġinjury": 4915,
      "outs": 4916,
      "Ġteachers": 4917,
      "rehens": 4918,
      "ĠArch": 4919,
      "Ġputting": 4920,
      "ĠTim": 4921,
      "Ġenvironmental": 4922,
      "Ġconcent": 4923,
      "inn": 4924,
      "Ġmotor": 4925,
      "ENT": 4926,
      "ĠStart": 4927,
      "Ġeventually": 4928,
      "uries": 4929,
      "ĠJud": 4930,
      "ĠMcC": 4931,
      "esterday": 4932,
      "Ġcoverage": 4933,
      "Ġdecor": 4934,
      "reek": 4935,
      "Ġsector": 4936,
      "isco": 4937,
      "Ġap": 4938,
      "Ġfreed": 4939,
      "illa": 4940,
      "ĠRobert": 4941,
      "Ġsouth": 4942,
      "ĠMad": 4943,
      "ĠOnly": 4944,
      "Ġasking": 4945,
      "Ġride": 4946,
      "Ġwalking": 4947,
      "ĠFranc": 4948,
      "Ġsmooth": 4949,
      "ĠFoundation": 4950,
      "Ġrain": 4951,
      "Ġwinning": 4952,
      "Ġadvanced": 4953,
      "Ġsitu": 4954,
      "Ġhearing": 4955,
      "Ġbattle": 4956,
      "life": 4957,
      "Ġlisten": 4958,
      "Ġ2004": 4959,
      "Ġfabric": 4960,
      "umber": 4961,
      "BA": 4962,
      "Ġartists": 4963,
      "rd": 4964,
      "ĠJournal": 4965,
      "Ġradio": 4966,
      "Ġnor": 4967,
      "ĠMass": 4968,
      "Ġcream": 4969,
      "Ġrid": 4970,
      "ĠIts": 4971,
      "cket": 4972,
      "Ġteacher": 4973,
      "ĠGrand": 4974,
      "Ġbrings": 4975,
      "ferences": 4976,
      "If": 4977,
      "Ġneighbor": 4978,
      "Ġmap": 4979,
      "Ġholiday": 4980,
      "ĠIsland": 4981,
      "Ġshut": 4982,
      "!âĢĿ": 4983,
      "ĠMer": 4984,
      "ano": 4985,
      "ĠHol": 4986,
      "Ġbeauty": 4987,
      "Ġabsolutely": 4988,
      "Ġexplore": 4989,
      "48": 4990,
      "Ġfeels": 4991,
      "Ġspl": 4992,
      "Ġadministration": 4993,
      "Ġresponsibility": 4994,
      "Ġadapt": 4995,
      "Ġlabor": 4996,
      "llig": 4997,
      "ĠFort": 4998,
      "Ġvisual": 4999,
      "ĠReal": 5000,
      "ĠPeter": 5001,
      "ĠTor": 5002,
      "ĠLat": 5003,
      "Ġarchitect": 5004,
      "Ġsharing": 5005,
      "Ġsongs": 5006,
      "Ġslightly": 5007,
      "Ġdelic": 5008,
      "Ġkick": 5009,
      "ĠElect": 5010,
      "ushing": 5011,
      "isation": 5012,
      "Ġclassic": 5013,
      "cipe": 5014,
      "Ġcompar": 5015,
      "Ġsympt": 5016,
      "Ġsounds": 5017,
      "ection": 5018,
      "55": 5019,
      "Ġcombination": 5020,
      "Ġsea": 5021,
      "Ġencourage": 5022,
      "Ġconnected": 5023,
      "Ġmo": 5024,
      "Ġalternative": 5025,
      "Ġindic": 5026,
      "Ġarrest": 5027,
      "Ġcolors": 5028,
      "ĠThose": 5029,
      "Ġmur": 5030,
      "ront": 5031,
      "ĠAmazon": 5032,
      "no": 5033,
      "igr": 5034,
      "Ġunless": 5035,
      "but": 5036,
      "Ġgarden": 5037,
      "Ġarticles": 5038,
      "Ġbird": 5039,
      "ĠWomen": 5040,
      "ĠLong": 5041,
      "ĠMusic": 5042,
      "ĠProduct": 5043,
      "Ġpolicies": 5044,
      "Ġposts": 5045,
      "Ġdu": 5046,
      "Ġfee": 5047,
      "Ġmetal": 5048,
      "ĠJim": 5049,
      "Ġfriendly": 5050,
      "Ġdoubt": 5051,
      "ĠColor": 5052,
      "ĠData": 5053,
      "alls": 5054,
      "Ġlaun": 5055,
      "ĠUN": 5056,
      "Ġallowing": 5057,
      "Ġfilled": 5058,
      "ĠDri": 5059,
      "Ġkilled": 5060,
      "Ġreturned": 5061,
      "word": 5062,
      "ograp": 5063,
      "hone": 5064,
      "Ġthr": 5065,
      "rolled": 5066,
      "water": 5067,
      "while": 5068,
      "coh": 5069,
      "Ġveget": 5070,
      "Ġmarried": 5071,
      "ĠLeague": 5072,
      "ĠTeam": 5073,
      "Ġmedium": 5074,
      "Ġdebt": 5075,
      "ructure": 5076,
      "Ġexpensive": 5077,
      "32": 5078,
      "Ġsurvey": 5079,
      "ĠÃ": 5080,
      "Ġsigned": 5081,
      "ĠExper": 5082,
      "ĠJul": 5083,
      "atures": 5084,
      "Ġmouth": 5085,
      "Ġentry": 5086,
      "Ġseek": 5087,
      "ĠWil": 5088,
      "Ġnorth": 5089,
      "ĠDig": 5090,
      "orter": 5091,
      "Ġsequ": 5092,
      "Ġnegative": 5093,
      "Ġweap": 5094,
      "bl": 5095,
      "known": 5096,
      "34": 5097,
      "Ġdistance": 5098,
      "spe": 5099,
      "Ġpackage": 5100,
      "fin": 5101,
      "idential": 5102,
      "Ġclimate": 5103,
      "Ġproceed": 5104,
      "Ġselling": 5105,
      "igan": 5106,
      "Ġaccompl": 5107,
      "Ġoptim": 5108,
      "Ġtechniques": 5109,
      "ĠMedia": 5110,
      "noon": 5111,
      "ĠMike": 5112,
      "ĠQue": 5113,
      "Ġexciting": 5114,
      "pet": 5115,
      "Ġgeneration": 5116,
      "Ġleads": 5117,
      "pond": 5118,
      "37": 5119,
      "Ġfemale": 5120,
      "ĠWhether": 5121,
      "Ġban": 5122,
      "Ġguests": 5123,
      "ulate": 5124,
      "ĠEarth": 5125,
      "Ġprofessionals": 5126,
      "ĠStand": 5127,
      "Ġconsid": 5128,
      "Ġmarriage": 5129,
      "Ġminor": 5130,
      "Ġinfluence": 5131,
      "hab": 5132,
      "Ġdisp": 5133,
      "Ġpal": 5134,
      "eed": 5135,
      "ĠMel": 5136,
      "Ġcommitted": 5137,
      "ĠBuild": 5138,
      "Ġ45": 5139,
      "ĠUnion": 5140,
      "ĠFamily": 5141,
      "unning": 5142,
      "ocolate": 5143,
      "ĠList": 5144,
      "fortunately": 5145,
      "Ġoperation": 5146,
      "ommod": 5147,
      "ĠEngine": 5148,
      "tered": 5149,
      "ĠContact": 5150,
      "Ġplays": 5151,
      "Ġcontext": 5152,
      "Ġcart": 5153,
      "tion": 5154,
      "ushed": 5155,
      "Ġju": 5156,
      "ĠTre": 5157,
      "ini": 5158,
      "Ġassistance": 5159,
      "Ġbrows": 5160,
      "orthern": 5161,
      "net": 5162,
      "Ġjoint": 5163,
      "uce": 5164,
      "Ġtypically": 5165,
      "What": 5166,
      "Ġproperties": 5167,
      "ĠOrgan": 5168,
      "Ġfees": 5169,
      "ulture": 5170,
      "Ġjoined": 5171,
      "Ġcities": 5172,
      "Ġrooms": 5173,
      "ĠRad": 5174,
      "ĠAS": 5175,
      "osen": 5176,
      "Ġdepos": 5177,
      "Ġsteel": 5178,
      "Ġforces": 5179,
      "Ġclim": 5180,
      "zen": 5181,
      "Ġrise": 5182,
      "ius": 5183,
      "Ġdistrict": 5184,
      "top": 5185,
      "oles": 5186,
      "iminal": 5187,
      "Ġnoted": 5188,
      "ĠKeep": 5189,
      "Ġfuel": 5190,
      "essions": 5191,
      "ĠLight": 5192,
      "isher": 5193,
      "Ġcorporate": 5194,
      "ĠAtl": 5195,
      "icians": 5196,
      "Ġprocesses": 5197,
      "Ġflat": 5198,
      "ĠMicrosoft": 5199,
      "ya": 5200,
      "Ġconversation": 5201,
      "ĠRE": 5202,
      "Ġfourth": 5203,
      "Ġcheap": 5204,
      "ĠAcadem": 5205,
      "Ġmeasures": 5206,
      "ĠSecurity": 5207,
      "ii": 5208,
      "ĠParty": 5209,
      "ĠSociety": 5210,
      "ĠThomas": 5211,
      "eal": 5212,
      "ĠVirgin": 5213,
      "ĠOffic": 5214,
      "ĠSign": 5215,
      "Ġtight": 5216,
      "what": 5217,
      "Ġyouth": 5218,
      "ĠNext": 5219,
      "ĠMont": 5220,
      "Ġedge": 5221,
      "ĠTest": 5222,
      "Ġintellig": 5223,
      "ĠID": 5224,
      "ĠGerman": 5225,
      "Ġapplied": 5226,
      "Ġperformed": 5227,
      "cher": 5228,
      "ĠChris": 5229,
      "ĠNov": 5230,
      "Ġsitting": 5231,
      "Ġhelpful": 5232,
      "Ġalle": 5233,
      "Ġconsumers": 5234,
      "Ġreaders": 5235,
      "ĠCEO": 5236,
      "Ġsoul": 5237,
      "ups": 5238,
      "Ġelection": 5239,
      "ĠOld": 5240,
      "ĠLos": 5241,
      "lla": 5242,
      "Ġdiscount": 5243,
      "ĠCard": 5244,
      "Ġourselves": 5245,
      "Ġraise": 5246,
      "Ġtells": 5247,
      "Ġmulti": 5248,
      "Ġcitizens": 5249,
      "Ġappeared": 5250,
      "bre": 5251,
      "ĠWestern": 5252,
      "ĠReport": 5253,
      "ship": 5254,
      "Ġlived": 5255,
      "odies": 5256,
      "Ġimportance": 5257,
      "Ġplastic": 5258,
      "88": 5259,
      "Ġbeach": 5260,
      "ĠHam": 5261,
      "Ġpun": 5262,
      "ĠPerson": 5263,
      "Ġfacility": 5264,
      "nel": 5265,
      "Ġprofile": 5266,
      "Ġwriter": 5267,
      "Ġsport": 5268,
      "Ġenjoyed": 5269,
      "Ġminimum": 5270,
      "Ġwire": 5271,
      "Ġthick": 5272,
      "istan": 5273,
      "poses": 5274,
      "Ġscale": 5275,
      "cient": 5276,
      "Ġholding": 5277,
      "ĠJoe": 5278,
      "ĠPub": 5279,
      "ait": 5280,
      "ordin": 5281,
      "Ġconflic": 5282,
      "Ġstated": 5283,
      "Ġtheme": 5284,
      "with": 5285,
      "Ġfif": 5286,
      "ifts": 5287,
      "ivered": 5288,
      "Ġ500": 5289,
      "Ġstores": 5290,
      "Ġsav": 5291,
      "Ġanimal": 5292,
      "ĠFrance": 5293,
      "Ġchemical": 5294,
      "arrant": 5295,
      "47": 5296,
      "ĠOk": 5297,
      "ĠInstead": 5298,
      "IR": 5299,
      "Ġmanner": 5300,
      "Ġvalid": 5301,
      "**": 5302,
      "ĠIll": 5303,
      "Ġfamiliar": 5304,
      "ena": 5305,
      "Ġforg": 5306,
      "Ġpossibly": 5307,
      "ĠFil": 5308,
      "Ġshipping": 5309,
      "Ġtopic": 5310,
      "Ġtough": 5311,
      "Ġsets": 5312,
      "Ġder": 5313,
      "ĠValley": 5314,
      "rier": 5315,
      "Ġexchange": 5316,
      "Ġdyn": 5317,
      "Ġpush": 5318,
      "den": 5319,
      "anda": 5320,
      "ĠHead": 5321,
      "Ġspons": 5322,
      "39": 5323,
      "Ġnine": 5324,
      "Ġresearc": 5325,
      "ĠBeach": 5326,
      "otic": 5327,
      "Ġteach": 5328,
      "Ġcourses": 5329,
      "Ġtrees": 5330,
      "Ġexplain": 5331,
      "Ġcalling": 5332,
      "Ġcharges": 5333,
      "Ġpredict": 5334,
      "Ġconv": 5335,
      "Ġrepair": 5336,
      "Ġbusy": 5337,
      "49": 5338,
      "ev": 5339,
      "ĠWall": 5340,
      "Ĥ¬": 5341,
      "iance": 5342,
      "Ġingredients": 5343,
      "ĠNY": 5344,
      "Ġaccident": 5345,
      "okes": 5346,
      "Ġapparent": 5347,
      "po": 5348,
      "Ġstre": 5349,
      "Ġconfidence": 5350,
      "Ġfailed": 5351,
      "Ġdatab": 5352,
      "uable": 5353,
      "Ġvisitors": 5354,
      "Ġafternoon": 5355,
      "Ġinternal": 5356,
      "Ġwebsites": 5357,
      "CT": 5358,
      "Ġsupposed": 5359,
      "Ġswitch": 5360,
      "ĠCanad": 5361,
      "Ġrecommended": 5362,
      "Ġgall": 5363,
      "ĠAfrican": 5364,
      "Ġseconds": 5365,
      "yan": 5366,
      "Ġcultural": 5367,
      "Ġarg": 5368,
      "Ġmovies": 5369,
      "Ġmissing": 5370,
      "ĠNote": 5371,
      "phas": 5372,
      "Ġmaintenance": 5373,
      "gers": 5374,
      "Ġtransform": 5375,
      "ulty": 5376,
      "idden": 5377,
      "ĠWilliam": 5378,
      "Ġstret": 5379,
      "ĠGermany": 5380,
      "ĠLo": 5381,
      "ĠGen": 5382,
      "Ġcircumst": 5383,
      "Ġformat": 5384,
      "rooms": 5385,
      "Ġcombined": 5386,
      "Ġ2003": 5387,
      "Ġpanel": 5388,
      "which": 5389,
      "Ġcommand": 5390,
      "Ġdefend": 5391,
      "Ġath": 5392,
      "Ġenhance": 5393,
      "Ġserving": 5394,
      "Ġupgr": 5395,
      "Ġment": 5396,
      "ĠWord": 5397,
      "Ġdur": 5398,
      "ĠDou": 5399,
      "Ġintended": 5400,
      "Ġproperly": 5401,
      "Ġpregn": 5402,
      "olars": 5403,
      "Ġdesk": 5404,
      "Ġacademic": 5405,
      "Ġunits": 5406,
      "Ġmale": 5407,
      "Ġdesire": 5408,
      "ĠSand": 5409,
      "ĠId": 5410,
      "ĠSecond": 5411,
      "ĠMedical": 5412,
      "DF": 5413,
      "Ġinterests": 5414,
      "Ġpurposes": 5415,
      "Ġseat": 5416,
      "fol": 5417,
      "omin": 5418,
      "Ġtotally": 5419,
      "Ġaccommod": 5420,
      "Ġran": 5421,
      "Ġremoved": 5422,
      "ĠDi": 5423,
      "Ġchief": 5424,
      "Ġsalt": 5425,
      "Ġphil": 5426,
      "SA": 5427,
      "cean": 5428,
      "Ġtow": 5429,
      "Ġdie": 5430,
      "ĠLouis": 5431,
      "ĠThrough": 5432,
      "Ġspecifically": 5433,
      "Ġannounce": 5434,
      "ingly": 5435,
      "Ġviolence": 5436,
      "ĠNor": 5437,
      "Ġserver": 5438,
      "cipl": 5439,
      "Ġdetect": 5440,
      "ĠAward": 5441,
      "Ġprison": 5442,
      "Ġcaught": 5443,
      "Ġsymptoms": 5444,
      "Ġinstance": 5445,
      "ĠMaybe": 5446,
      "ĠNOT": 5447,
      "ĠSecret": 5448,
      "Ġquiet": 5449,
      "ĠBi": 5450,
      "Ġlocations": 5451,
      "ye": 5452,
      "ĠPolice": 5453,
      "Ġmotiv": 5454,
      "Ġsigns": 5455,
      "Ġreference": 5456,
      "Ġswim": 5457,
      "ĠTechnology": 5458,
      "Ġlibrary": 5459,
      "Ġcontem": 5460,
      "prise": 5461,
      "Ġproposed": 5462,
      "Ġadults": 5463,
      "kins": 5464,
      "Ġbond": 5465,
      "ĠTri": 5466,
      "ĠBob": 5467,
      "Ġoccup": 5468,
      "ĠYOU": 5469,
      "cont": 5470,
      "Ġconsumer": 5471,
      "Ġpromote": 5472,
      "Ġseeking": 5473,
      "Ġdance": 5474,
      "Ġforced": 5475,
      "oses": 5476,
      "Ġreligious": 5477,
      "UT": 5478,
      "Ġeffic": 5479,
      "Ġyes": 5480,
      "rical": 5481,
      "Ġhun": 5482,
      "ĠSupport": 5483,
      "Ġvan": 5484,
      "Ġapproximately": 5485,
      "Ġwitness": 5486,
      "Ġburn": 5487,
      "umin": 5488,
      "Ġli": 5489,
      "ita": 5490,
      "Ġlandsc": 5491,
      "ĠJose": 5492,
      "Ġcleaning": 5493,
      "Ġexecutive": 5494,
      "ideo": 5495,
      "ĠAT": 5496,
      "Ġuns": 5497,
      "ĠVer": 5498,
      "Ġfreedom": 5499,
      "cles": 5500,
      "ĠNE": 5501,
      "Ġstanding": 5502,
      "Ġquant": 5503,
      "uts": 5504,
      "Ġdollars": 5505,
      "ĠProv": 5506,
      "Ġeditor": 5507,
      "arsh": 5508,
      "Ġintroduced": 5509,
      "rehensive": 5510,
      "ums": 5511,
      "Ġdogs": 5512,
      "Ġjudge": 5513,
      "rad": 5514,
      "asks": 5515,
      "Ġconsequ": 5516,
      "ĠAuthor": 5517,
      "Ġrecip": 5518,
      "ĠKnow": 5519,
      "ĠJeff": 5520,
      "Ġsupported": 5521,
      "aser": 5522,
      "mes": 5523,
      "ĠFull": 5524,
      "Ġassum": 5525,
      "Ġkill": 5526,
      "oor": 5527,
      "Ġapproved": 5528,
      "rim": 5529,
      "Ġbringing": 5530,
      "Ġrom": 5531,
      "cohol": 5532,
      "kin": 5533,
      "ĠLead": 5534,
      "Ġamb": 5535,
      "Ġrealize": 5536,
      "erry": 5537,
      "46": 5538,
      "ĠDen": 5539,
      "Ġfruit": 5540,
      "Ġarrange": 5541,
      "Ġdepending": 5542,
      "Ġmaximum": 5543,
      "Ġtelevision": 5544,
      "Ġvolume": 5545,
      "Ġorders": 5546,
      "ĠGame": 5547,
      "Ġrapid": 5548,
      "Ġdetailed": 5549,
      "ĠInvest": 5550,
      "Ġmir": 5551,
      "ĠCy": 5552,
      "Ġdiscovered": 5553,
      "tra": 5554,
      "Ġterror": 5555,
      "Ġemployee": 5556,
      "iat": 5557,
      "Ġdecades": 5558,
      "arp": 5559,
      "ĠJohnson": 5560,
      "list": 5561,
      "bour": 5562,
      "aks": 5563,
      "Ġdelivered": 5564,
      "ulations": 5565,
      "iration": 5566,
      "Ġdrugs": 5567,
      "ĠGar": 5568,
      "Ġsuit": 5569,
      "fection": 5570,
      "LC": 5571,
      "Ġquot": 5572,
      "ĠProte": 5573,
      "âĢľ": 5574,
      "Ġconcerned": 5575,
      "Ġextensive": 5576,
      "van": 5577,
      "ĠHuman": 5578,
      "ĠWatch": 5579,
      "Ġfactor": 5580,
      "Ġbegins": 5581,
      "met": 5582,
      "Ġanywhere": 5583,
      "Ġbask": 5584,
      "Ġune": 5585,
      "Ġprop": 5586,
      "agram": 5587,
      "Ġprocessing": 5588,
      "bu": 5589,
      "There": 5590,
      "Ġrub": 5591,
      "dden": 5592,
      "Ġbutter": 5593,
      "ĠVict": 5594,
      "Ġconstit": 5595,
      "lines": 5596,
      "ĠCath": 5597,
      "Ġlunch": 5598,
      "Ġmenu": 5599,
      "Ġimproved": 5600,
      "ĠDoes": 5601,
      "Ġgreatest": 5602,
      ".âĢĻ": 5603,
      "rag": 5604,
      "ĠMa": 5605,
      "ĠNetwork": 5606,
      "ĠDan": 5607,
      "ĠCorpor": 5608,
      "Ġtun": 5609,
      "Ġgather": 5610,
      "ola": 5611,
      "ĠMS": 5612,
      "Ġstopped": 5613,
      "Ġsides": 5614,
      "Ġrecipe": 5615,
      "Ġupdated": 5616,
      "Ġaspects": 5617,
      "Ġaccounts": 5618,
      "ĠSet": 5619,
      "OP": 5620,
      "related": 5621,
      "ensions": 5622,
      "iest": 5623,
      "Ġrevenue": 5624,
      "ĠMaster": 5625,
      "Ġliber": 5626,
      "Ġbound": 5627,
      "Ġtests": 5628,
      "Ġfold": 5629,
      "Ġfailure": 5630,
      "Ġspeech": 5631,
      "Ġdraft": 5632,
      "ĠBas": 5633,
      "rastructure": 5634,
      "equ": 5635,
      "Ġelement": 5636,
      "Ġagreed": 5637,
      "Ġdetermined": 5638,
      "pected": 5639,
      "Ġhero": 5640,
      "ician": 5641,
      "Ġhundreds": 5642,
      "Ġstrategies": 5643,
      "Ġroof": 5644,
      "Ġarrived": 5645,
      "Ġawesome": 5646,
      "ifications": 5647,
      "Ġemergency": 5648,
      "LA": 5649,
      "Ġsurgery": 5650,
      "Ġcrisis": 5651,
      "Ġworse": 5652,
      "Ġturns": 5653,
      "ĠiPhone": 5654,
      "Ġappearance": 5655,
      "Ġweak": 5656,
      "Ġsquare": 5657,
      "Ġfle": 5658,
      "Ġoccasion": 5659,
      "ĠKore": 5660,
      "Ġvehicles": 5661,
      "erg": 5662,
      "Ġcauses": 5663,
      "ĠSeries": 5664,
      "ĠWeek": 5665,
      "orry": 5666,
      "Ġsudden": 5667,
      "Ġcoast": 5668,
      "??": 5669,
      "ĠTown": 5670,
      "Ġdecre": 5671,
      "CE": 5672,
      "Ġcommitment": 5673,
      "Ġyesterday": 5674,
      "31": 5675,
      "Ġhttps": 5676,
      "Ġstars": 5677,
      "Ġadvertising": 5678,
      "avig": 5679,
      "Ġfaster": 5680,
      "Ġmine": 5681,
      "iveness": 5682,
      "Ġcalcul": 5683,
      "Ġincorpor": 5684,
      "Ġcop": 5685,
      "Ġfavour": 5686,
      "eper": 5687,
      "ĠCre": 5688,
      "Ġaid": 5689,
      "Ġbroken": 5690,
      "Ġeducational": 5691,
      "Ġtro": 5692,
      "Ġflight": 5693,
      "Ġsister": 5694,
      "ogue": 5695,
      "lets": 5696,
      "Ġparticipants": 5697,
      "uclear": 5698,
      "Ġuniversity": 5699,
      "encing": 5700,
      "Ġtwice": 5701,
      "Ġdial": 5702,
      "ĠRev": 5703,
      "hand": 5704,
      "Ġresol": 5705,
      "Ġpoly": 5706,
      "Ġpaying": 5707,
      "burg": 5708,
      "oston": 5709,
      "azz": 5710,
      "Ġapps": 5711,
      "ĠFund": 5712,
      "ĠOper": 5713,
      "Ġchat": 5714,
      "ario": 5715,
      "ĠMuseum": 5716,
      "Ġagent": 5717,
      "Ġprovider": 5718,
      "ĠWay": 5719,
      "ĠON": 5720,
      "Ġshock": 5721,
      "Ġtheory": 5722,
      "ĠLim": 5723,
      "nergy": 5724,
      "Ġcarried": 5725,
      "ĠMen": 5726,
      "ossible": 5727,
      "Ġtelling": 5728,
      "UN": 5729,
      "Ġepisode": 5730,
      "Ġtables": 5731,
      "ĠDownload": 5732,
      "ria": 5733,
      "Ġprepare": 5734,
      "Ġhousing": 5735,
      "Ġlabel": 5736,
      "ht": 5737,
      "ĠJones": 5738,
      "Ġworksh": 5739,
      "Ġhyd": 5740,
      "ĠWal": 5741,
      "Ġfantastic": 5742,
      "Ġtechnologies": 5743,
      "Ġelimin": 5744,
      "Ġliqu": 5745,
      "ĠCup": 5746,
      "Ġdesigns": 5747,
      "Ġpure": 5748,
      "ownt": 5749,
      "nov": 5750,
      "ĠInte": 5751,
      "alled": 5752,
      "ĠJapanese": 5753,
      "oration": 5754,
      "77": 5755,
      "Ġbrown": 5756,
      "kes": 5757,
      "ĠMur": 5758,
      "Ġ32": 5759,
      "ĠAdv": 5760,
      "Ġofficer": 5761,
      "Ġlaunched": 5762,
      "!)": 5763,
      "luding": 5764,
      "Ġring": 5765,
      "Ġinspired": 5766,
      "ĠCA": 5767,
      "Ġcomplic": 5768,
      "Ġbike": 5769,
      "ĠFederal": 5770,
      "!\"": 5771,
      "Ġfly": 5772,
      "Ġang": 5773,
      "Ġsymb": 5774,
      "Ġparking": 5775,
      "Ġcomponents": 5776,
      "Ġmilk": 5777,
      "âĦ": 5778,
      "ĠAngeles": 5779,
      "ĠAud": 5780,
      "ĠÂ©": 5781,
      "hetic": 5782,
      "Ġboost": 5783,
      "oti": 5784,
      "Ġtrading": 5785,
      "Ġveter": 5786,
      "ef": 5787,
      "Ġec": 5788,
      "Ġremark": 5789,
      "ĠLink": 5790,
      "Ġreduced": 5791,
      "elines": 5792,
      "ĠUsing": 5793,
      "een": 5794,
      "Ġchoices": 5795,
      "ems": 5796,
      "Ġmode": 5797,
      "Ġherself": 5798,
      "Ġbigger": 5799,
      "Ġtast": 5800,
      "Ġpu": 5801,
      "Ġadministr": 5802,
      "Ġneck": 5803,
      "Ġtherapy": 5804,
      "irty": 5805,
      "Ġkinds": 5806,
      "Ġperspective": 5807,
      "ibilities": 5808,
      "Ġsam": 5809,
      "ĠCas": 5810,
      "ĠHen": 5811,
      "Ġaffected": 5812,
      "Ġrot": 5813,
      "ĠSar": 5814,
      "Ġsupporting": 5815,
      "Ġconcern": 5816,
      "Ġbreast": 5817,
      "Ġbelong": 5818,
      "ĠGlobal": 5819,
      "alian": 5820,
      "Ġbelief": 5821,
      "Ġforest": 5822,
      "ĠPlus": 5823,
      "Ġcrime": 5824,
      "ĠMartin": 5825,
      "ĠLab": 5826,
      "reens": 5827,
      "ĠPan": 5828,
      "Ġmatters": 5829,
      "ĠEconom": 5830,
      "Ġsac": 5831,
      "Ġtrouble": 5832,
      "ĠHaw": 5833,
      "Ġexplained": 5834,
      "Ġhighlight": 5835,
      "eah": 5836,
      "FL": 5837,
      "ĠWild": 5838,
      "Ġremote": 5839,
      "ĠMinister": 5840,
      "01": 5841,
      "ĠIP": 5842,
      "Ġrecovery": 5843,
      "Ġinvestigation": 5844,
      "Ġphotograph": 5845,
      "Ġaudio": 5846,
      "ĠDid": 5847,
      "ĠGal": 5848,
      "Ġpm": 5849,
      "Ġcreation": 5850,
      "ultural": 5851,
      "ĠJon": 5852,
      "As": 5853,
      "road": 5854,
      "xy": 5855,
      "Ġclinical": 5856,
      "Ġteen": 5857,
      "ĠHistory": 5858,
      "ĠExt": 5859,
      "ĠCam": 5860,
      "col": 5861,
      "Ġmeat": 5862,
      "Ġvary": 5863,
      "Ġemphas": 5864,
      ":||": 5865,
      "Ġ2001": 5866,
      "Ġwearing": 5867,
      "ĠChief": 5868,
      "Ġregister": 5869,
      "orough": 5870,
      "Ġidentified": 5871,
      "ĠCharl": 5872,
      "Ġadvoc": 5873,
      "Ġlux": 5874,
      "Ġunivers": 5875,
      "Ġpractical": 5876,
      "ĠMexico": 5877,
      "aren": 5878,
      "irmed": 5879,
      "Ġspeaking": 5880,
      "gage": 5881,
      "Ġconsidering": 5882,
      "aped": 5883,
      "ulous": 5884,
      "Ġfunctions": 5885,
      "ĠIndust": 5886,
      "Ġends": 5887,
      "Ġneighborhood": 5888,
      "ĠCH": 5889,
      "Ġexamples": 5890,
      "IF": 5891,
      "ĠFurther": 5892,
      "Ġsad": 5893,
      "Ġtreated": 5894,
      "Ġcritic": 5895,
      "Ġmere": 5896,
      "Ġplanned": 5897,
      "âĦ¢": 5898,
      "Ġ<": 5899,
      "Ġsole": 5900,
      "78": 5901,
      "Ġcommission": 5902,
      "Ġremaining": 5903,
      "Ġregistered": 5904,
      "Ġgoods": 5905,
      "05": 5906,
      "Ġpicked": 5907,
      "real": 5908,
      "ĠIra": 5909,
      "Ġagencies": 5910,
      "Ġ2002": 5911,
      "Ġcategory": 5912,
      "Ġmeal": 5913,
      "Ġfilms": 5914,
      "Ġcounty": 5915,
      "Ġcloser": 5916,
      "Ġfeedback": 5917,
      "Ġissued": 5918,
      "Ġanx": 5919,
      "Ġentirely": 5920,
      "Ġindustrial": 5921,
      "Ġscr": 5922,
      "ilit": 5923,
      "ĠAdminist": 5924,
      "ĠRussia": 5925,
      "itionally": 5926,
      "Ġprotein": 5927,
      "Ġparticipate": 5928,
      "Ġfollows": 5929,
      "Ġcircumstances": 5930,
      "ĠJun": 5931,
      "ĠMic": 5932,
      "rate": 5933,
      "Ġupdates": 5934,
      "Ġeffectively": 5935,
      "under": 5936,
      "Ġodd": 5937,
      "hi": 5938,
      "ĠDespite": 5939,
      "rick": 5940,
      "igration": 5941,
      "osoph": 5942,
      "Ġbuildings": 5943,
      "Ġtruck": 5944,
      "arian": 5945,
      "aded": 5946,
      "ĠYet": 5947,
      "Ġfoods": 5948,
      "iams": 5949,
      "ĠRussian": 5950,
      "Ġjoy": 5951,
      "ĠSteve": 5952,
      "Ġgro": 5953,
      "ĠSqu": 5954,
      "Ġadvis": 5955,
      "Ġauthority": 5956,
      "mosp": 5957,
      "Ġrough": 5958,
      "ĠRichard": 5959,
      "ĠPenn": 5960,
      "ĠBoston": 5961,
      "Ġsignificantly": 5962,
      "erves": 5963,
      "Ġ36": 5964,
      "ĠMo": 5965,
      "hew": 5966,
      "Ġimagine": 5967,
      "OD": 5968,
      "Ġknowing": 5969,
      "Ġemotional": 5970,
      "atre": 5971,
      "Ġmut": 5972,
      "Ġsevere": 5973,
      "Ġmoments": 5974,
      "Ġcrew": 5975,
      "ĠSP": 5976,
      "Ġbattery": 5977,
      "lastname": 5978,
      "ĠAndroid": 5979,
      "ighter": 5980,
      "Ġcentre": 5981,
      "paper": 5982,
      "Ġerror": 5983,
      "ĠCreat": 5984,
      "Ġmassive": 5985,
      "Ġtickets": 5986,
      "Sh": 5987,
      "Ġscientific": 5988,
      "edia": 5989,
      "ĠHD": 5990,
      "ĠBrand": 5991,
      "gas": 5992,
      "ĠWel": 5993,
      "ĠRight": 5994,
      "Ġboys": 5995,
      "Ġrelatively": 5996,
      "pass": 5997,
      "ĠVirginia": 5998,
      "Ġconstruct": 5999,
      "ĠChildren": 6000,
      "west": 6001,
      "SP": 6002,
      "Ġunf": 6003,
      "Ġtea": 6004,
      "Ġlit": 6005,
      "Ġperman": 6006,
      "Ġaccepted": 6007,
      "ĠHand": 6008,
      "ĠLand": 6009,
      "ĠConference": 6010,
      "Ġusual": 6011,
      "Ġproviders": 6012,
      "ias": 6013,
      "Ġbrands": 6014,
      "Ġoblig": 6015,
      "Ġlicense": 6016,
      "ĠMax": 6017,
      "rome": 6018,
      "pret": 6019,
      "Ġchosen": 6020,
      "Ġresource": 6021,
      "Ġinvestors": 6022,
      "Ġdiss": 6023,
      "Ġcharged": 6024,
      "Ġwealth": 6025,
      "Ġfields": 6026,
      "Ġcolour": 6027,
      "ĠContin": 6028,
      "Ġtrib": 6029,
      "VID": 6030,
      "ĠDev": 6031,
      "Ġrevealed": 6032,
      "Ġdangerous": 6033,
      "ĠArts": 6034,
      "Ġven": 6035,
      "ĠDef": 6036,
      "ĠPosted": 6037,
      "Ġchain": 6038,
      "Ġautomatically": 6039,
      "Ġinvolve": 6040,
      "No": 6041,
      "Ġsample": 6042,
      "ĠCat": 6043,
      "Ġenem": 6044,
      "Ġdistribution": 6045,
      "ĠSometimes": 6046,
      "never": 6047,
      "appy": 6048,
      "And": 6049,
      "Ġchart": 6050,
      "ĠPac": 6051,
      "Ġmagn": 6052,
      "Ġfort": 6053,
      "merce": 6054,
      "ĠPack": 6055,
      "Ġsurprise": 6056,
      "Ġconfirm": 6057,
      "ĠCir": 6058,
      "hent": 6059,
      "Ġcomprehensive": 6060,
      "ĠCanadian": 6061,
      "Ġ2021": 6062,
      "Ġnone": 6063,
      "estyle": 6064,
      "ĠBow": 6065,
      "Ġsan": 6066,
      "ĠThough": 6067,
      "Ġcompetitive": 6068,
      "cknow": 6069,
      "Ġofficers": 6070,
      "Ġexcess": 6071,
      "Ġvit": 6072,
      "Ġcriminal": 6073,
      "Ġobvious": 6074,
      "irms": 6075,
      "AG": 6076,
      "ĠLee": 6077,
      "Ġking": 6078,
      "Ġcutting": 6079,
      "Ġboat": 6080,
      "ĠAccess": 6081,
      "ĠIsl": 6082,
      "Ġreceiving": 6083,
      "Ġmal": 6084,
      "Ġbread": 6085,
      "Ġvictory": 6086,
      "Ġwal": 6087,
      "ĠEnd": 6088,
      "ĠÂ·": 6089,
      "TH": 6090,
      "apes": 6091,
      "respond": 6092,
      "ĠTem": 6093,
      "Ġsubstant": 6094,
      "Ġok": 6095,
      "Ġpurchased": 6096,
      "ĠLittle": 6097,
      "Ġaf": 6098,
      "Ġinstallation": 6099,
      "Ġcooking": 6100,
      "Ġanswers": 6101,
      "Ġnurs": 6102,
      "Ġrecorded": 6103,
      "CS": 6104,
      "Ġworldwide": 6105,
      "Ġtopics": 6106,
      "Ġ300": 6107,
      "ĠIraq": 6108,
      "Ġinstalled": 6109,
      "Ġattacks": 6110,
      "ĠLearn": 6111,
      "wing": 6112,
      "Ġtaught": 6113,
      "Ġidentity": 6114,
      "rics": 6115,
      "prene": 6116,
      "Ġhappening": 6117,
      "Ġhistorical": 6118,
      "Ġvaluable": 6119,
      "MP": 6120,
      "Ġspiritual": 6121,
      "Ġperfectly": 6122,
      "ĠYoung": 6123,
      "eless": 6124,
      "Ġequal": 6125,
      "ĠPage": 6126,
      "anged": 6127,
      "Ġrestrict": 6128,
      "Ġhur": 6129,
      "ĠCook": 6130,
      "mond": 6131,
      "jo": 6132,
      "Ġfurniture": 6133,
      "Ġinnovative": 6134,
      "cuit": 6135,
      "ĠOR": 6136,
      "ĠFour": 6137,
      "Ġkeeps": 6138,
      "Ġguest": 6139,
      ".'": 6140,
      "ĠDani": 6141,
      "uated": 6142,
      "ĠPR": 6143,
      "ĠDu": 6144,
      "hus": 6145,
      "Ġfulf": 6146,
      "Ġmissed": 6147,
      "Ġplate": 6148,
      "Ġinstitutions": 6149,
      "ĠCarolina": 6150,
      "Ġmel": 6151,
      "ĠAD": 6152,
      "Ġprocedure": 6153,
      "ĠEnergy": 6154,
      "Ġchannel": 6155,
      "Ġaccurate": 6156,
      "reprene": 6157,
      "Ġiron": 6158,
      "Ġhousehold": 6159,
      "ĠSports": 6160,
      "Ġcandidates": 6161,
      "Ġwindows": 6162,
      "Ġmotion": 6163,
      "Ġisland": 6164,
      "ĠUpd": 6165,
      "Ġwarrant": 6166,
      "Ġbasket": 6167,
      "ĠRest": 6168,
      "Ġhonor": 6169,
      "ĠLive": 6170,
      "Ġabuse": 6171,
      "ĠTit": 6172,
      "Ġdoors": 6173,
      "ĠIran": 6174,
      "Ġunlike": 6175,
      "Ġcro": 6176,
      "icit": 6177,
      "Ġconstantly": 6178,
      "Ġresearchers": 6179,
      "Ġcontrast": 6180,
      "ĠSenate": 6181,
      "rete": 6182,
      "Ġfro": 6183,
      "ĠEr": 6184,
      "Ġelectronic": 6185,
      "Ġrand": 6186,
      "Ġvoc": 6187,
      "Ġchocolate": 6188,
      "ĠAustralian": 6189,
      "Ġillustr": 6190,
      "ĠThree": 6191,
      "Ġportion": 6192,
      "Ġexpertise": 6193,
      "inch": 6194,
      "Ġconfig": 6195,
      "ĠCost": 6196,
      "ĠÐ": 6197,
      "luded": 6198,
      "Ġarms": 6199,
      "Ġdisappoint": 6200,
      "ien": 6201,
      "Ġgrown": 6202,
      "ĠFOR": 6203,
      "Ġ48": 6204,
      "Ġmessages": 6205,
      "Ġfeatured": 6206,
      "Ġ195": 6207,
      "Ġenable": 6208,
      "Ġpositions": 6209,
      "Ġholds": 6210,
      "Ġlaugh": 6211,
      "Ġinfrastructure": 6212,
      "Ġrestaurants": 6213,
      ".|": 6214,
      "Ġemployment": 6215,
      "ĠWhich": 6216,
      "ĠMat": 6217,
      "pot": 6218,
      "ampionship": 6219,
      "Ġreform": 6220,
      "Ġtrend": 6221,
      "ĠFinally": 6222,
      "66": 6223,
      "ĠAri": 6224,
      "oga": 6225,
      "Ġgrade": 6226,
      "Ġshares": 6227,
      "olar": 6228,
      "ĠHotel": 6229,
      "Ġregularly": 6230,
      "Ġsimpl": 6231,
      "Ġlights": 6232,
      "Ġoutdoor": 6233,
      "!!!": 6234,
      "ĠGall": 6235,
      "ĠSpring": 6236,
      "ĠOrig": 6237,
      "Ġpump": 6238,
      "Ġstone": 6239,
      "iors": 6240,
      "Ġfixed": 6241,
      "Ġhorse": 6242,
      "Ġregional": 6243,
      "EE": 6244,
      "ĠFair": 6245,
      "Ġdatabase": 6246,
      "Ġstorm": 6247,
      "ĠWilliams": 6248,
      "ĠAff": 6249,
      "ora": 6250,
      "Ġdomestic": 6251,
      "Ġgrew": 6252,
      "ĠLibrary": 6253,
      "loc": 6254,
      "II": 6255,
      "Ġcommittee": 6256,
      "Ġwinner": 6257,
      "acks": 6258,
      "ĠSearch": 6259,
      "Ġmeetings": 6260,
      "Ġcontro": 6261,
      "Ġconducted": 6262,
      "oster": 6263,
      "Ġassets": 6264,
      "erts": 6265,
      "ĠMiddle": 6266,
      "ĠLog": 6267,
      "Ġclothes": 6268,
      "ĠParis": 6269,
      "Ġatmosp": 6270,
      "ĠWalk": 6271,
      "Ġforth": 6272,
      "Ġguard": 6273,
      "Ġfellow": 6274,
      "Ġscript": 6275,
      "arrow": 6276,
      "ĠMichigan": 6277,
      "illy": 6278,
      "Ġlovely": 6279,
      "Ġcheese": 6280,
      "ĠManager": 6281,
      "Ġbreakfast": 6282,
      "Ġmonit": 6283,
      "Ġstudio": 6284,
      "Ġinput": 6285,
      "ĠKey": 6286,
      "Ġcampus": 6287,
      "ĠTherefore": 6288,
      "Ġacknow": 6289,
      "lymp": 6290,
      "Ġsick": 6291,
      "osite": 6292,
      "gend": 6293,
      "hors": 6294,
      "Ġrenew": 6295,
      "Ġfolks": 6296,
      "ĠDate": 6297,
      "abet": 6298,
      "Ġchapter": 6299,
      "icial": 6300,
      "Ġdram": 6301,
      "ĠCentre": 6302,
      "Ġmanufacturing": 6303,
      "ĠGeorg": 6304,
      "Ġroute": 6305,
      "Ġspr": 6306,
      "Ġincredible": 6307,
      "Ġshooting": 6308,
      "sm": 6309,
      "Ġcandidate": 6310,
      "weight": 6311,
      "Ġelig": 6312,
      "Ġalcohol": 6313,
      "Ġrisks": 6314,
      "Ġturning": 6315,
      "Ġacid": 6316,
      "Ġprotected": 6317,
      "Ġprocedures": 6318,
      "VD": 6319,
      "ĠWH": 6320,
      "Ġengineering": 6321,
      "Ġfrequently": 6322,
      "Ġshoes": 6323,
      "ĠGirl": 6324,
      "Ġrandom": 6325,
      "Ġenforce": 6326,
      "Ġsettings": 6327,
      "ansion": 6328,
      "Ġben": 6329,
      "eries": 6330,
      "comm": 6331,
      "sembly": 6332,
      "ĠCopy": 6333,
      "Ġhurt": 6334,
      "Ġriver": 6335,
      "Ġreasonable": 6336,
      "Ġbelieved": 6337,
      "cribe": 6338,
      "ugh": 6339,
      "Ġextended": 6340,
      "Ġnative": 6341,
      "GB": 6342,
      "Ġdeals": 6343,
      "rum": 6344,
      "Ġdim": 6345,
      "Ġcycle": 6346,
      "Ġlosing": 6347,
      "Ġtail": 6348,
      "Ġsuitable": 6349,
      "ployment": 6350,
      "Ġdestroy": 6351,
      "Ġworst": 6352,
      "Ġattorney": 6353,
      "OC": 6354,
      "abled": 6355,
      "Ġmonthly": 6356,
      "Ġgrab": 6357,
      "Ġexpression": 6358,
      "Ġreput": 6359,
      "Ġhouses": 6360,
      "Ġfirstname": 6361,
      "ĠEU": 6362,
      "ĠPrice": 6363,
      "Ġscheduled": 6364,
      "ta": 6365,
      "anges": 6366,
      "Ġvisiting": 6367,
      "ĠKen": 6368,
      "Ġjustice": 6369,
      "Ġchicken": 6370,
      "ĠDigital": 6371,
      "ĠAgain": 6372,
      "Ġfighting": 6373,
      "Ġnoticed": 6374,
      "hered": 6375,
      "Ġregulations": 6376,
      "Ġguarantee": 6377,
      "Ġdebate": 6378,
      "orders": 6379,
      "Ġwalls": 6380,
      "Ġrecognized": 6381,
      "Ġped": 6382,
      "Ġcovers": 6383,
      "Ġdegrees": 6384,
      "Ġyards": 6385,
      "Ġtalent": 6386,
      "Ġaffordable": 6387,
      "ĠSoft": 6388,
      "oking": 6389,
      "ĠEqu": 6390,
      "Ġearned": 6391,
      "Ġmusical": 6392,
      "Ġsuggested": 6393,
      "Ġvillage": 6394,
      "Ġentertainment": 6395,
      "Ġindeed": 6396,
      "Ġleague": 6397,
      "42": 6398,
      "Ġinches": 6399,
      "Ġinfo": 6400,
      "ĠMid": 6401,
      "Ġdish": 6402,
      "Ġhook": 6403,
      "Ġfacts": 6404,
      "ĠJackson": 6405,
      "Ġappreciate": 6406,
      "Ġpayments": 6407,
      "ensity": 6408,
      "Ġowned": 6409,
      "Ġtack": 6410,
      "Ġbless": 6411,
      "Is": 6412,
      "Ġappeal": 6413,
      "ĠTru": 6414,
      "race": 6415,
      "ournament": 6416,
      "ache": 6417,
      "Ġcarbon": 6418,
      "inet": 6419,
      "Ġorganic": 6420,
      "Ġmagazine": 6421,
      "MA": 6422,
      "ĠStill": 6423,
      "ĠAsia": 6424,
      "ĠHaving": 6425,
      "Ġentered": 6426,
      "ua": 6427,
      "Ġathlet": 6428,
      "ras": 6429,
      "ĠBible": 6430,
      "Ġwalked": 6431,
      "Ġassessment": 6432,
      "achel": 6433,
      "ĠAcademy": 6434,
      "anish": 6435,
      "Ġreliable": 6436,
      "ĠMP": 6437,
      "TA": 6438,
      "ĠColumb": 6439,
      "ĠAR": 6440,
      "Ġvirtual": 6441,
      "Ġmedicine": 6442,
      "Ġsituations": 6443,
      "Ġengage": 6444,
      "vy": 6445,
      "08": 6446,
      "ĠOpt": 6447,
      "Ġoutput": 6448,
      "Ġdistinct": 6449,
      "Ġdrivers": 6450,
      "uting": 6451,
      "ĠPlace": 6452,
      "Ġregistration": 6453,
      "oosing": 6454,
      "Ġsupports": 6455,
      "Ġrow": 6456,
      "ĠQual": 6457,
      "pes": 6458,
      "ĠTour": 6459,
      "ĠItalian": 6460,
      "ĠArab": 6461,
      "Ġstands": 6462,
      "cers": 6463,
      "ĠFestival": 6464,
      "can": 6465,
      "eration": 6466,
      "Ġsin": 6467,
      "ĠQuest": 6468,
      "ansas": 6469,
      "Ġtypical": 6470,
      "Ġupcoming": 6471,
      "ĠEp": 6472,
      "Ġsyn": 6473,
      "âĢĻ.": 6474,
      "ĠHope": 6475,
      "ĠSaf": 6476,
      "Ġimpossible": 6477,
      "alse": 6478,
      "you": 6479,
      "Ġfacing": 6480,
      "host": 6481,
      "Ġcarefully": 6482,
      "writ": 6483,
      "Ġreturns": 6484,
      "Ġille": 6485,
      "inations": 6486,
      "astern": 6487,
      "ĠColl": 6488,
      "Ġresolution": 6489,
      "ĠStudents": 6490,
      "Ġinstructions": 6491,
      "ĠApplic": 6492,
      "inder": 6493,
      "AY": 6494,
      "agon": 6495,
      "Ġjack": 6496,
      "Ġscored": 6497,
      "Ġwid": 6498,
      "ĠControl": 6499,
      "ĠMean": 6500,
      "ĠCe": 6501,
      "ĠVideo": 6502,
      "ĠTrust": 6503,
      "ATION": 6504,
      "Ġplug": 6505,
      "ĠRepublican": 6506,
      "Ġfuck": 6507,
      "Ġincl": 6508,
      "Ġpresentation": 6509,
      "Ġpil": 6510,
      "ĠKh": 6511,
      "Ġupper": 6512,
      "Ġbirthday": 6513,
      "ala": 6514,
      "omy": 6515,
      "ĠCast": 6516,
      "Don": 6517,
      "Ġcontest": 6518,
      "Ġcompens": 6519,
      "ĠOlymp": 6520,
      "43": 6521,
      "icing": 6522,
      "Ġincreases": 6523,
      "ÃŃ": 6524,
      "Ġmillions": 6525,
      "Ġsusp": 6526,
      "ĠOhio": 6527,
      "ĠHelp": 6528,
      "tr": 6529,
      "inos": 6530,
      "ĠVictor": 6531,
      "ĠMult": 6532,
      "Ġadm": 6533,
      "Ġspoke": 6534,
      "utional": 6535,
      "emic": 6536,
      "Ġsurrounding": 6537,
      "Ġdefined": 6538,
      "Ġsessions": 6539,
      "Ġunable": 6540,
      "Ġchallenging": 6541,
      "Ġdepth": 6542,
      "Ġsymbol": 6543,
      "Ġformed": 6544,
      "ĠMeet": 6545,
      "Ġnegoti": 6546,
      "Ġauthorities": 6547,
      "Ġawareness": 6548,
      "Ġaffili": 6549,
      "ĠHon": 6550,
      "rible": 6551,
      "They": 6552,
      "Ġcounsel": 6553,
      "Ġconclus": 6554,
      "Ġpulled": 6555,
      "eline": 6556,
      "Ġrealized": 6557,
      "Ġprompt": 6558,
      "ĠCode": 6559,
      "ĠHard": 6560,
      "85": 6561,
      "Ġefficiency": 6562,
      "iety": 6563,
      "ĠLt": 6564,
      "ingu": 6565,
      "Ġsurf": 6566,
      "Ġpublish": 6567,
      "Ġroot": 6568,
      "anger": 6569,
      "Ġretire": 6570,
      "Ġstim": 6571,
      "Ġpremium": 6572,
      "Ġdump": 6573,
      "Ġtiss": 6574,
      "Ġkne": 6575,
      "bi": 6576,
      "ĠVan": 6577,
      "Ġdecade": 6578,
      "Ġroutine": 6579,
      "Ġ75": 6580,
      "ĠPass": 6581,
      "Ġwheel": 6582,
      "cking": 6583,
      "Ġhate": 6584,
      "oman": 6585,
      "Ġdelay": 6586,
      "ĠSon": 6587,
      "Ġprofit": 6588,
      "Ġsauce": 6589,
      "Ġflowers": 6590,
      "Ġedition": 6591,
      "gent": 6592,
      "law": 6593,
      "inding": 6594,
      "Ġdelight": 6595,
      "ĠAndrew": 6596,
      "Ġexpectations": 6597,
      "Ġnom": 6598,
      "Ġpolitics": 6599,
      "agues": 6600,
      "Ġslowly": 6601,
      "Ġbonus": 6602,
      "Ġsubmit": 6603,
      "Ġprove": 6604,
      "Ġvul": 6605,
      "Ġcrazy": 6606,
      "Ġfigures": 6607,
      "worth": 6608,
      "ĠJustice": 6609,
      "Ġsurprised": 6610,
      "Ġcapable": 6611,
      "comes": 6612,
      "ĠCross": 6613,
      "SS": 6614,
      "Pro": 6615,
      "Ġbear": 6616,
      "Ġdiscussed": 6617,
      "ĠRa": 6618,
      "Ġbeer": 6619,
      "Ġfairly": 6620,
      "iner": 6621,
      "ĠNever": 6622,
      "Ġnavig": 6623,
      "Ġloans": 6624,
      "Ġicon": 6625,
      "Ġplanet": 6626,
      "ĠHor": 6627,
      "Ġnuclear": 6628,
      "ĠPrem": 6629,
      "Ġincident": 6630,
      "Ġdescription": 6631,
      "away": 6632,
      "owing": 6633,
      "Ġyounger": 6634,
      "Ġtaxes": 6635,
      "Ġpossibility": 6636,
      "Ġdropped": 6637,
      "ĠBal": 6638,
      "Ġdelicious": 6639,
      "awn": 6640,
      "ĠRights": 6641,
      "41": 6642,
      "Ġtwe": 6643,
      "Ġvast": 6644,
      "Ġadds": 6645,
      "Ġticket": 6646,
      "ospit": 6647,
      "Ġprivacy": 6648,
      "Ġast": 6649,
      "ĠCurrent": 6650,
      "ollywood": 6651,
      "Ġoriginally": 6652,
      "Ġfunny": 6653,
      "Ġmountain": 6654,
      "ĠChair": 6655,
      "Ġdifferences": 6656,
      "ĠBuy": 6657,
      "Ġongoing": 6658,
      "PR": 6659,
      "Ġlayer": 6660,
      "Ġconfirmed": 6661,
      "ĠCharles": 6662,
      "ints": 6663,
      "ca": 6664,
      "oty": 6665,
      "Ġcock": 6666,
      "Ġimpressive": 6667,
      "ĠMov": 6668,
      "Ġseriously": 6669,
      "Ġvacc": 6670,
      "Ġinvent": 6671,
      "Ġconver": 6672,
      "Ġserves": 6673,
      "Ġletters": 6674,
      "Ġbanks": 6675,
      "Ġpatterns": 6676,
      "TC": 6677,
      "ayer": 6678,
      "ĠJewish": 6679,
      "isk": 6680,
      "ĠInf": 6681,
      "Ġcorrespond": 6682,
      "Ġphotograp": 6683,
      "Ġphase": 6684,
      "ERS": 6685,
      "rency": 6686,
      "ĠSite": 6687,
      "ĠPoint": 6688,
      "Ġexclusive": 6689,
      "uction": 6690,
      "ĠTerm": 6691,
      "Ġtrig": 6692,
      "Ġrelief": 6693,
      "Ġsuccessfully": 6694,
      "Ġskill": 6695,
      "Ġmachines": 6696,
      "My": 6697,
      "eding": 6698,
      "Ġreporting": 6699,
      "Ġteeth": 6700,
      "ĠWrit": 6701,
      "greg": 6702,
      "ĠKim": 6703,
      "ĠUnfortunately": 6704,
      "ĠArmy": 6705,
      "Ġrecognize": 6706,
      "Ġinstruct": 6707,
      "Ġfoundation": 6708,
      "Ġdiverse": 6709,
      "ml": 6710,
      "inem": 6711,
      "Ġexternal": 6712,
      "aturally": 6713,
      "REE": 6714,
      "otal": 6715,
      "ĠSpirit": 6716,
      "Ġreward": 6717,
      "Ġrein": 6718,
      "Ġsuc": 6719,
      "person": 6720,
      "ĠMuslim": 6721,
      "ĠThus": 6722,
      "ĠLow": 6723,
      "long": 6724,
      "ĠFarm": 6725,
      "Ġloves": 6726,
      "Ġbodies": 6727,
      "Ġagents": 6728,
      "Ġconsistent": 6729,
      "nic": 6730,
      "Ġheight": 6731,
      "09": 6732,
      "lights": 6733,
      "Ġfeelings": 6734,
      "Ġenthus": 6735,
      "Ġshift": 6736,
      "Ġinterior": 6737,
      "Ġinnovation": 6738,
      "car": 6739,
      "ĠSupp": 6740,
      "EST": 6741,
      "Ġtested": 6742,
      "Ġlistening": 6743,
      "ĠNon": 6744,
      "Ġmixed": 6745,
      "Ġbare": 6746,
      "Ġscholars": 6747,
      "BI": 6748,
      "Ġimprovement": 6749,
      "va": 6750,
      "ether": 6751,
      "ĠFrancisco": 6752,
      "07": 6753,
      "Ġslot": 6754,
      "Ġtasks": 6755,
      "ĠSouthern": 6756,
      "Ġsight": 6757,
      "ĠPot": 6758,
      "Ġtomorrow": 6759,
      "Ġcooper": 6760,
      "Ġsilver": 6761,
      "liance": 6762,
      "Ġlegislation": 6763,
      "ĠIre": 6764,
      "ĠDisc": 6765,
      "Ġsolar": 6766,
      "Ġguitar": 6767,
      "Ġliked": 6768,
      "Ġpartnership": 6769,
      "Ġprepar": 6770,
      "ĠEll": 6771,
      "Ġhealthcare": 6772,
      "born": 6773,
      "ĠTry": 6774,
      "ĠNight": 6775,
      "Ġsmell": 6776,
      "Ġgod": 6777,
      "ĠSup": 6778,
      "oral": 6779,
      "earing": 6780,
      "tle": 6781,
      "Cl": 6782,
      "ĠSher": 6783,
      "iverse": 6784,
      "Ġnetworks": 6785,
      "ĠHospital": 6786,
      "ĠUlt": 6787,
      "Ġtiny": 6788,
      "Ġrail": 6789,
      "ĠRoyal": 6790,
      "But": 6791,
      "Ġsmile": 6792,
      "Ġempt": 6793,
      "ĠCoast": 6794,
      "ĠScot": 6795,
      "Ġmuscle": 6796,
      "Ġbowl": 6797,
      "Ġnormally": 6798,
      "Ġthin": 6799,
      "Ġtransition": 6800,
      "ĠAssist": 6801,
      "ĠExecutive": 6802,
      "Ġid": 6803,
      "Ġtalked": 6804,
      "ĠUt": 6805,
      "ĠDC": 6806,
      "Ġpassing": 6807,
      "ĠKn": 6808,
      "Ġyellow": 6809,
      "Ġpod": 6810,
      "Ġpapers": 6811,
      "Ġstatements": 6812,
      "à¤": 6813,
      "Ġultimately": 6814,
      "berry": 6815,
      "Ġclosely": 6816,
      "Ġpersonally": 6817,
      "ĠCert": 6818,
      "ppers": 6819,
      "Ġages": 6820,
      "06": 6821,
      "itage": 6822,
      "ĠFriend": 6823,
      "Ġbes": 6824,
      "cling": 6825,
      "That": 6826,
      "Ġstretch": 6827,
      "aints": 6828,
      "Ġarts": 6829,
      "inton": 6830,
      "pat": 6831,
      "lete": 6832,
      "Ġimmediate": 6833,
      "Ġsky": 6834,
      "Ġconvenient": 6835,
      "Ġfo": 6836,
      "Ġhang": 6837,
      "Ġfeaturing": 6838,
      "stone": 6839,
      "Ġstruggle": 6840,
      "ĠExpl": 6841,
      "Ġancient": 6842,
      "ih": 6843,
      "Ġliquid": 6844,
      "Ġdates": 6845,
      "ĠCra": 6846,
      "uls": 6847,
      "ĠBox": 6848,
      "Ġauthors": 6849,
      "ĠBush": 6850,
      "Ġindex": 6851,
      "yard": 6852,
      "ican": 6853,
      "uling": 6854,
      "ĠFun": 6855,
      "ailability": 6856,
      "Ġlicens": 6857,
      "New": 6858,
      "Ġconflict": 6859,
      "Ġvital": 6860,
      "owntown": 6861,
      "Ġbreath": 6862,
      "Ġcake": 6863,
      "Ġgraduate": 6864,
      "Ġlegs": 6865,
      "alog": 6866,
      "Ġgolf": 6867,
      "ĠMrs": 6868,
      "entle": 6869,
      "Ġbelieves": 6870,
      "ĠLin": 6871,
      "rid": 6872,
      "Ġentr": 6873,
      "ĠSpanish": 6874,
      "Ġoperate": 6875,
      "Ġhits": 6876,
      "ĠDivision": 6877,
      "Ġ38": 6878,
      "Ġeveryday": 6879,
      "ĠConnect": 6880,
      "Ġblogg": 6881,
      "ĠCatholic": 6882,
      "ĠTurn": 6883,
      "Ġstreets": 6884,
      "Ġpainting": 6885,
      "Ġphen": 6886,
      "ĠGuide": 6887,
      "ĠWr": 6888,
      "igned": 6889,
      "Ġexposure": 6890,
      "Ġprospect": 6891,
      "ĠComple": 6892,
      "ĠSn": 6893,
      "Ġfiled": 6894,
      "Ġcollected": 6895,
      "Ġtut": 6896,
      "Ġsucceed": 6897,
      "ixture": 6898,
      "etime": 6899,
      "ĠProfessor": 6900,
      "endar": 6901,
      "Ġappointment": 6902,
      "Ġwet": 6903,
      "Ġobjects": 6904,
      "Ġobtained": 6905,
      "Ġalleged": 6906,
      "ĠDaniel": 6907,
      "Ġdealing": 6908,
      "Ġdescribe": 6909,
      "ellect": 6910,
      "secut": 6911,
      "ĠRyan": 6912,
      "gypt": 6913,
      "Ġthorough": 6914,
      "Ġdiam": 6915,
      "ĠSky": 6916,
      "Ġtrained": 6917,
      "Ġinformed": 6918,
      "ĠSH": 6919,
      "Ġapproval": 6920,
      "Ġhall": 6921,
      "Ġconfident": 6922,
      "that": 6923,
      "Ġwarn": 6924,
      "Ġsufficient": 6925,
      "ographic": 6926,
      "ĠPerhaps": 6927,
      "ĠJac": 6928,
      "ĠSel": 6929,
      "isters": 6930,
      "Ġadventure": 6931,
      "Ġlikes": 6932,
      "pel": 6933,
      "Ġexecut": 6934,
      "Ġpromise": 6935,
      "Ġhell": 6936,
      "98": 6937,
      "rage": 6938,
      "ĠEnvironment": 6939,
      "ĠCa": 6940,
      "Ġcable": 6941,
      "Ġhasn": 6942,
      "ĠRay": 6943,
      "VE": 6944,
      "Ġmand": 6945,
      "cover": 6946,
      "Â°": 6947,
      "ĠCB": 6948,
      "Ġwest": 6949,
      "Ġanticip": 6950,
      "96": 6951,
      "DS": 6952,
      "ba": 6953,
      "Ġphilosoph": 6954,
      "Ġprinciples": 6955,
      "Ġtalks": 6956,
      "Ġthread": 6957,
      "Ġauthent": 6958,
      "ĠConf": 6959,
      "ĠOil": 6960,
      "Ġsuggests": 6961,
      "ĠJoin": 6962,
      "Ġabsor": 6963,
      "ĠShould": 6964,
      "mar": 6965,
      "Ġhoping": 6966,
      "Ġnearby": 6967,
      "ĠEs": 6968,
      "Ġapartment": 6969,
      "Ġguidance": 6970,
      "Ġordered": 6971,
      "Ġproof": 6972,
      "Ġpharm": 6973,
      "Ġcreates": 6974,
      "ĠKenn": 6975,
      "Ġinjuries": 6976,
      "ĠGames": 6977,
      "Ġtag": 6978,
      "Ġtechnique": 6979,
      "Ã¡": 6980,
      "Ġdomain": 6981,
      "iser": 6982,
      "Ġpitch": 6983,
      "Ġhardware": 6984,
      "ðŁ": 6985,
      "lements": 6986,
      "ĠDie": 6987,
      "ĠColorado": 6988,
      "For": 6989,
      "Ġdiscl": 6990,
      "Ġbasically": 6991,
      "bles": 6992,
      "profit": 6993,
      "Ġ37": 6994,
      "An": 6995,
      "dy": 6996,
      "stream": 6997,
      "Ġspaces": 6998,
      "Ġinterpret": 6999,
      "Ġbrowser": 7000,
      "redit": 7001,
      "cue": 7002,
      "Ġsizes": 7003,
      "Ġflood": 7004,
      "Ġlessons": 7005,
      "Ġcelebrate": 7006,
      "ĠBon": 7007,
      "Ġsoil": 7008,
      "Ġpersons": 7009,
      "sters": 7010,
      "resents": 7011,
      "whel": 7012,
      "Ġconserv": 7013,
      "Ġobviously": 7014,
      "Ġurban": 7015,
      "ĠItaly": 7016,
      "ĠThink": 7017,
      "Ġsubsequ": 7018,
      "ĠLocal": 7019,
      "Ġmoves": 7020,
      "Ġsomewhere": 7021,
      "uine": 7022,
      "ĠDar": 7023,
      "HS": 7024,
      "Ġsomewhat": 7025,
      "Ġdiscipl": 7026,
      "Ġerr": 7027,
      "Ġglad": 7028,
      "Ġresistance": 7029,
      "Ġhumans": 7030,
      "Ġaside": 7031,
      "Ġattrib": 7032,
      "ĠSmall": 7033,
      "grad": 7034,
      "Ġnarr": 7035,
      "ĠFre": 7036,
      "Ġintent": 7037,
      "rip": 7038,
      "ĠRequ": 7039,
      "Ġvend": 7040,
      "asters": 7041,
      "ĠGeorgia": 7042,
      "ĠStat": 7043,
      "zil": 7044,
      "Ġauto": 7045,
      "Ġexpressed": 7046,
      "Ġatmosphere": 7047,
      "Ġtall": 7048,
      "Ġargument": 7049,
      "Ġfinds": 7050,
      "Ġillness": 7051,
      "Ġ33": 7052,
      "atoes": 7053,
      "ĠBeing": 7054,
      "Ġreligion": 7055,
      "Ġdining": 7056,
      "Ġaccessible": 7057,
      "Ġimproving": 7058,
      "Ġsuffering": 7059,
      "alle": 7060,
      "Ġentreprene": 7061,
      "itution": 7062,
      "Ġamend": 7063,
      "Ġmainly": 7064,
      "Ġcrucial": 7065,
      "ĠSU": 7066,
      "Ġfaculty": 7067,
      "ĠTay": 7068,
      "Ġborder": 7069,
      "Ġgrass": 7070,
      "Ġbedroom": 7071,
      "isms": 7072,
      "Ġtrick": 7073,
      "02": 7074,
      "Ġhabit": 7075,
      "Ġintegrated": 7076,
      "Ġsuspect": 7077,
      "ĠSanta": 7078,
      "onym": 7079,
      "Ġprecise": 7080,
      "ĠHun": 7081,
      "AA": 7082,
      "nam": 7083,
      "Ġrecording": 7084,
      "umes": 7085,
      "Ġestimated": 7086,
      "ĠSecretary": 7087,
      "Ġwithd": 7088,
      "Ġconstant": 7089,
      "Ġzone": 7090,
      "ashed": 7091,
      "Ġlighting": 7092,
      "Ġexplains": 7093,
      "Tube": 7094,
      "lyn": 7095,
      "ĠFar": 7096,
      "Ġrose": 7097,
      "Ġnecessarily": 7098,
      "ĠPriv": 7099,
      "Ġ?": 7100,
      "Ġsupplies": 7101,
      "Ġfacilit": 7102,
      "Ġchose": 7103,
      "she": 7104,
      "Ġevol": 7105,
      "Ġlifestyle": 7106,
      "Ġcontemporary": 7107,
      "sell": 7108,
      "ĠPut": 7109,
      "rich": 7110,
      "ĠRose": 7111,
      "Ġcommunications": 7112,
      "Ġrear": 7113,
      "Ġcollaboration": 7114,
      "Ġlad": 7115,
      "Ġextent": 7116,
      "04": 7117,
      "ĠAC": 7118,
      "Ġspin": 7119,
      "Ġelev": 7120,
      "folio": 7121,
      "Ġbottle": 7122,
      "oned": 7123,
      "urning": 7124,
      "aze": 7125,
      "Ġreferred": 7126,
      "Ġ1999": 7127,
      "Ġlie": 7128,
      "Ġmini": 7129,
      "utch": 7130,
      "Ġshots": 7131,
      "Ġacts": 7132,
      "rition": 7133,
      "Ġresulting": 7134,
      "pons": 7135,
      "Ġsustainable": 7136,
      "Ġpounds": 7137,
      "Ġshel": 7138,
      "Ġmuseum": 7139,
      "ĠMach": 7140,
      "ĠBlo": 7141,
      "Ġsignal": 7142,
      "Ġsheet": 7143,
      "ĠAsh": 7144,
      "otton": 7145,
      "Ġweapons": 7146,
      "Ġintelligence": 7147,
      "Ġpursu": 7148,
      "umps": 7149,
      "Ġheav": 7150,
      "Ġlinked": 7151,
      "RI": 7152,
      "Ġcontribute": 7153,
      "Ġpit": 7154,
      "bel": 7155,
      "elly": 7156,
      "Ġweekly": 7157,
      "Ġease": 7158,
      "Ġreader": 7159,
      "Ġmonitor": 7160,
      "Ġpleased": 7161,
      "Ġincreasingly": 7162,
      "ĠPacific": 7163,
      "Ġexperiment": 7164,
      "Ġwriters": 7165,
      "âĢĻ,": 7166,
      "Ġinstrument": 7167,
      "Ġtonight": 7168,
      "Ġrepresents": 7169,
      "LY": 7170,
      "ĠSuch": 7171,
      "ĠFed": 7172,
      "ĠFinancial": 7173,
      "97": 7174,
      "weet": 7175,
      "Ġmic": 7176,
      "Ġduty": 7177,
      "Ġvulner": 7178,
      "Ġoutstanding": 7179,
      "Ġreplacement": 7180,
      "PM": 7181,
      "orable": 7182,
      "ampion": 7183,
      "enger": 7184,
      "Ġjun": 7185,
      "Ġanyway": 7186,
      "Ġlandscape": 7187,
      "Ġbroadcast": 7188,
      "ĠJob": 7189,
      "Ġorganized": 7190,
      "Ġexec": 7191,
      "ĠLeg": 7192,
      "ouch": 7193,
      "Americ": 7194,
      "ĠEst": 7195,
      "ĠHa": 7196,
      "neys": 7197,
      "Ġhat": 7198,
      "zer": 7199,
      "Ġpra": 7200,
      "ĠEgypt": 7201,
      "Ġmembership": 7202,
      "Ex": 7203,
      "Ġpleasure": 7204,
      "Ġattached": 7205,
      "86": 7206,
      "Ġnarrow": 7207,
      "Ġentit": 7208,
      "class": 7209,
      "Ġcouncil": 7210,
      "Ġheads": 7211,
      "Ġdomin": 7212,
      "Ġwidely": 7213,
      "bar": 7214,
      "Ġdirected": 7215,
      "Ġmonitoring": 7216,
      "Ġfalse": 7217,
      "cons": 7218,
      "ĠSus": 7219,
      "Ġclothing": 7220,
      "Ġbat": 7221,
      "iana": 7222,
      "ĠPS": 7223,
      "ĠVery": 7224,
      "Ġ55": 7225,
      "Ġvacation": 7226,
      "asant": 7227,
      "Ġexceed": 7228,
      "ĠNeed": 7229,
      "ran": 7230,
      "ghan": 7231,
      "Ġunderst": 7232,
      "Ġgay": 7233,
      "PC": 7234,
      "ĠRemember": 7235,
      "ĠHim": 7236,
      "uster": 7237,
      "celer": 7238,
      "raid": 7239,
      "ĠPhys": 7240,
      "ĠDaily": 7241,
      "Ġstrategic": 7242,
      "Ġstrange": 7243,
      "Ġwatched": 7244,
      "ĠAccount": 7245,
      "quir": 7246,
      "03": 7247,
      "Ġtab": 7248,
      "ĠMill": 7249,
      "Ġ1990": 7250,
      "ĠCopyright": 7251,
      "ĠCOVID": 7252,
      "ĠPerform": 7253,
      "Ġtech": 7254,
      "Ġpercentage": 7255,
      "sue": 7256,
      "ĠIreland": 7257,
      "Ġweren": 7258,
      "amber": 7259,
      "plate": 7260,
      "Ġfirms": 7261,
      "ĠLtd": 7262,
      "Ġproven": 7263,
      "Ġreaction": 7264,
      "Ġdrinking": 7265,
      "Ġluck": 7266,
      "rm": 7267,
      "Ġhole": 7268,
      "lder": 7269,
      "Ġprimarily": 7270,
      "Ġmanaging": 7271,
      "Ġprotest": 7272,
      "Ġconscious": 7273,
      "Ġrepeated": 7274,
      "Ġflour": 7275,
      "Ġforever": 7276,
      "idays": 7277,
      "Ġtrends": 7278,
      "Ġnoise": 7279,
      "Ġsurprising": 7280,
      "Ġfasc": 7281,
      "adel": 7282,
      "ĠOl": 7283,
      "Ġplot": 7284,
      "iable": 7285,
      "ĠVill": 7286,
      "ĠPolicy": 7287,
      "Ġdrawing": 7288,
      "Ġclar": 7289,
      "ĠKat": 7290,
      "ĠKar": 7291,
      "ĠHell": 7292,
      "made": 7293,
      "Ġroles": 7294,
      "Ġgender": 7295,
      "Ġacting": 7296,
      "ĠRoman": 7297,
      "Ġbathroom": 7298,
      "ennis": 7299,
      "teen": 7300,
      "Ġma": 7301,
      "yers": 7302,
      "anna": 7303,
      "Ġfaces": 7304,
      "front": 7305,
      "ument": 7306,
      "Ġinvited": 7307,
      "abetes": 7308,
      "Ġ2022": 7309,
      "Ġcompr": 7310,
      "ĠStan": 7311,
      "Ġclaimed": 7312,
      "Ġmanual": 7313,
      "ificate": 7314,
      "Ġattended": 7315,
      "Ġremained": 7316,
      "Ġpin": 7317,
      "ĠRam": 7318,
      "Ġsoph": 7319,
      "FC": 7320,
      "Ġextract": 7321,
      "ĠField": 7322,
      "Ġproposal": 7323,
      "Ġengagement": 7324,
      "Ġknock": 7325,
      "Ġtwenty": 7326,
      "Ġseed": 7327,
      "obby": 7328,
      "ĠJoseph": 7329,
      "Ġplatforms": 7330,
      "ĠPen": 7331,
      "Ġperforming": 7332,
      "lly": 7333,
      "Ġcomponent": 7334,
      "So": 7335,
      "onna": 7336,
      "ĠTable": 7337,
      "Ġpipe": 7338,
      "ĠOrder": 7339,
      "ĠPract": 7340,
      "Ġtradition": 7341,
      "ĠFox": 7342,
      "ĠPak": 7343,
      "ĠBuilding": 7344,
      "Ġvictims": 7345,
      "pir": 7346,
      "Ġstood": 7347,
      "arters": 7348,
      "Ġengaged": 7349,
      "Ġachieved": 7350,
      "Ġtip": 7351,
      "ifies": 7352,
      "ĠLiber": 7353,
      "Ġ65": 7354,
      "star": 7355,
      "Ġpermanent": 7356,
      "TER": 7357,
      "Ġprofessor": 7358,
      "ĠType": 7359,
      "Ġgear": 7360,
      "Ġagric": 7361,
      "When": 7362,
      "ĠAriz": 7363,
      "iece": 7364,
      "Ġcapture": 7365,
      "ura": 7366,
      "Ġdefinition": 7367,
      "cked": 7368,
      "Ġhire": 7369,
      "ĠSummer": 7370,
      "Ġalive": 7371,
      "ĠWorks": 7372,
      "adium": 7373,
      "ML": 7374,
      "ĠPop": 7375,
      "Ġsharp": 7376,
      "Ġversions": 7377,
      "Ġvisited": 7378,
      "Ġqualified": 7379,
      "ilst": 7380,
      "Ġsubmitted": 7381,
      "ĠTravel": 7382,
      "Ġdivision": 7383,
      "foot": 7384,
      "Ġ150": 7385,
      "Ġje": 7386,
      "level": 7387,
      "Ġisol": 7388,
      "ĠRon": 7389,
      "ĠLind": 7390,
      "Ġairport": 7391,
      "ĠRod": 7392,
      "Ġoverwhel": 7393,
      "athy": 7394,
      "ĠHeart": 7395,
      "ĠOS": 7396,
      "Ġhopes": 7397,
      "Ġfavourite": 7398,
      "Ġlucky": 7399,
      "ĠJersey": 7400,
      "Ġsearching": 7401,
      "ĠKent": 7402,
      "ĠInstagram": 7403,
      "Ġoffices": 7404,
      "Ġaggress": 7405,
      "zing": 7406,
      "isa": 7407,
      "Ġmoist": 7408,
      "ĠFather": 7409,
      "Ġdust": 7410,
      "ĠJenn": 7411,
      "Ġfitness": 7412,
      "Ġhistoric": 7413,
      "Ġoven": 7414,
      "Ġinspiration": 7415,
      "EG": 7416,
      "Ġtank": 7417,
      "ĠStudies": 7418,
      "Ġ400": 7419,
      "Ġdefault": 7420,
      "ĠMs": 7421,
      "Ġdesigner": 7422,
      "ĠHarr": 7423,
      "Ġgenerate": 7424,
      "Ġ34": 7425,
      "ventional": 7426,
      "Ġdivid": 7427,
      "Ġsaved": 7428,
      "Com": 7429,
      "ĠMarketing": 7430,
      "Ġevil": 7431,
      "ureau": 7432,
      "Ġstyles": 7433,
      "ĠYouTube": 7434,
      "ĠDVD": 7435,
      "ĠCorporation": 7436,
      "Ġcategories": 7437,
      "Ġguidelines": 7438,
      "How": 7439,
      "ĠEss": 7440,
      "Ġrig": 7441,
      "cipal": 7442,
      "Ġmagic": 7443,
      "ĠWelcome": 7444,
      "Ġopposite": 7445,
      "Ġrevolution": 7446,
      "Ġwra": 7447,
      "Ġ)": 7448,
      "Ġsuffe": 7449,
      "ĠTax": 7450,
      "ione": 7451,
      "ĠTraining": 7452,
      "Ġinner": 7453,
      "ĠDog": 7454,
      "asts": 7455,
      "lessly": 7456,
      "Ġlargely": 7457,
      "ĠTer": 7458,
      "ĠAsk": 7459,
      "Ðµ": 7460,
      "ĠSpace": 7461,
      "ĠSat": 7462,
      "Ġneither": 7463,
      "ĠCond": 7464,
      "Ġflash": 7465,
      "ĠHenry": 7466,
      "raction": 7467,
      "Ġbroke": 7468,
      "Ġtracks": 7469,
      "ĠArea": 7470,
      "iot": 7471,
      "Ġfilter": 7472,
      "Ġrental": 7473,
      "Ġreputation": 7474,
      "ĠLabor": 7475,
      "Ġshouldn": 7476,
      "Ġdip": 7477,
      "ikes": 7478,
      "uter": 7479,
      "Ġhidden": 7480,
      "Ġstrike": 7481,
      "case": 7482,
      "Ġsending": 7483,
      "amental": 7484,
      "Ġmurder": 7485,
      "Ġoccurred": 7486,
      "Ġimplementation": 7487,
      "Ġpossess": 7488,
      "300": 7489,
      "VER": 7490,
      "ĠEnt": 7491,
      "Ġeligible": 7492,
      "Ġcos": 7493,
      "Ġdeposit": 7494,
      "Ġapparently": 7495,
      "ĠSenior": 7496,
      "Con": 7497,
      "alty": 7498,
      "Ġinterface": 7499,
      "racy": 7500,
      "Ġfing": 7501,
      "Ġbridge": 7502,
      "rated": 7503,
      "ĠÂ»": 7504,
      "ĠPo": 7505,
      "holders": 7506,
      "Ġchoosing": 7507,
      "Ġamounts": 7508,
      "Ġaccomplish": 7509,
      "Ġreplaced": 7510,
      "Ġ;": 7511,
      "Ġformal": 7512,
      "ĠRef": 7513,
      "ĠRun": 7514,
      "Ġmile": 7515,
      "ĠCarl": 7516,
      "erate": 7517,
      "Ġpace": 7518,
      "Ġeast": 7519,
      "ogether": 7520,
      "nce": 7521,
      "Ġprogramme": 7522,
      "Ġpill": 7523,
      "adow": 7524,
      "stein": 7525,
      "ĠMobile": 7526,
      "nda": 7527,
      "izz": 7528,
      "ĠLy": 7529,
      "Ġcontinuing": 7530,
      "ĠPersonal": 7531,
      "ĠBa": 7532,
      "Ġbrill": 7533,
      "Ġfounded": 7534,
      "Ġcapabilities": 7535,
      "Ġscientists": 7536,
      "Ġbab": 7537,
      "Ġrecy": 7538,
      "ĠPhoto": 7539,
      "Ġsavings": 7540,
      "Ġgenuine": 7541,
      "ĠLooking": 7542,
      "ĠSystems": 7543,
      "Ġstuck": 7544,
      "ults": 7545,
      "ĠSupreme": 7546,
      "ĠBall": 7547,
      "cia": 7548,
      "Ġexpenses": 7549,
      "Ġreduction": 7550,
      "Ġera": 7551,
      "Ġjew": 7552,
      "Ġoppon": 7553,
      "%.": 7554,
      "Ġsoci": 7555,
      "Ġpermission": 7556,
      "ambling": 7557,
      "amps": 7558,
      "aping": 7559,
      "inent": 7560,
      "Ġhosting": 7561,
      "Ġincredibly": 7562,
      "Ġcuts": 7563,
      "urb": 7564,
      "Ġcausing": 7565,
      "ĠStore": 7566,
      "ĠFord": 7567,
      "ressed": 7568,
      "Ġbags": 7569,
      "Ġexception": 7570,
      "ĠKevin": 7571,
      "Ġfindings": 7572,
      "Ġpotentially": 7573,
      "Ġillegal": 7574,
      "aine": 7575,
      "Ġultimate": 7576,
      "ĠAdam": 7577,
      "anned": 7578,
      "Ġsees": 7579,
      "Ġmemories": 7580,
      "lled": 7581,
      "Ġterrit": 7582,
      "Ġreject": 7583,
      "Ġlimits": 7584,
      "Ġrecommendations": 7585,
      "ĠProm": 7586,
      "ĠHoly": 7587,
      "76": 7588,
      "essel": 7589,
      "anny": 7590,
      "Ġgifts": 7591,
      "ĠDisney": 7592,
      "och": 7593,
      "ĠProdu": 7594,
      "ĠPrin": 7595,
      "SE": 7596,
      "coin": 7597,
      "Ġempty": 7598,
      "Ġyield": 7599,
      "Ġdoctors": 7600,
      "Ġlies": 7601,
      "ĠSection": 7602,
      "Ġobserved": 7603,
      "oured": 7604,
      "Ġfishing": 7605,
      "Ġeggs": 7606,
      "ĠFact": 7607,
      "Ġads": 7608,
      "Ġpowder": 7609,
      "Ġunus": 7610,
      "inte": 7611,
      "Ġdestination": 7612,
      "Ġregions": 7613,
      "ĠNorthern": 7614,
      "oes": 7615,
      "ogen": 7616,
      "Ġafraid": 7617,
      "ĠTaylor": 7618,
      "Ġunw": 7619,
      "Ġdepends": 7620,
      "Ġhospit": 7621,
      "Ġchances": 7622,
      "Ġmortgage": 7623,
      "Ġcoal": 7624,
      "Ġforum": 7625,
      "Ġcontrolled": 7626,
      "Ġinvolves": 7627,
      "Ġstake": 7628,
      "Ġrating": 7629,
      "Ġ~": 7630,
      "arks": 7631,
      "ĠBroad": 7632,
      "ĠStock": 7633,
      "Ġdevelopers": 7634,
      "Ġphr": 7635,
      "Ġexistence": 7636,
      "ĠZeal": 7637,
      "Ġcoc": 7638,
      "ĠClean": 7639,
      "making": 7640,
      "ĠBrazil": 7641,
      "ati": 7642,
      "ĠBrad": 7643,
      "RS": 7644,
      "bridge": 7645,
      "ĠMA": 7646,
      "igure": 7647,
      "acle": 7648,
      "âĢ¦.": 7649,
      "ĠWebs": 7650,
      "Ġluxury": 7651,
      "ĠClin": 7652,
      "Ġreducing": 7653,
      "Ġfestival": 7654,
      "ĠSav": 7655,
      "ĠBru": 7656,
      "Ġdynamic": 7657,
      "ATE": 7658,
      "Ġflexible": 7659,
      "ppy": 7660,
      "ĠForce": 7661,
      "800": 7662,
      "Ġrequests": 7663,
      "ĠFred": 7664,
      "Ġfinance": 7665,
      "ĠAsian": 7666,
      "des": 7667,
      "Ġlawyer": 7668,
      "Ġtransportation": 7669,
      "ĠMir": 7670,
      "Ġtub": 7671,
      "Ġscheme": 7672,
      "Ġconsideration": 7673,
      "Ġdreams": 7674,
      "ĠWithout": 7675,
      "Ġanxiety": 7676,
      "Ġmerch": 7677,
      "bell": 7678,
      "bury": 7679,
      "Ġinvolving": 7680,
      "ĠOK": 7681,
      "ĠSea": 7682,
      "iversary": 7683,
      "Ġcontrols": 7684,
      "Ġexpansion": 7685,
      "Ġsensitive": 7686,
      "âĢĺ": 7687,
      "phy": 7688,
      "Ġenforcement": 7689,
      "ĠAvenue": 7690,
      "ologist": 7691,
      "then": 7692,
      "Ġawards": 7693,
      "Ġmanufacturer": 7694,
      "rog": 7695,
      "ĠAdministration": 7696,
      "aska": 7697,
      "Ġsolve": 7698,
      "Ġraw": 7699,
      "Ġ1998": 7700,
      "uration": 7701,
      "ĠPDF": 7702,
      "page": 7703,
      "ĠRoll": 7704,
      "Ġintellect": 7705,
      "Ġcolumn": 7706,
      "Ġpriority": 7707,
      "iano": 7708,
      "etry": 7709,
      "inois": 7710,
      "Ġphotography": 7711,
      "Ġdebut": 7712,
      "ĠArizona": 7713,
      "liament": 7714,
      "ystem": 7715,
      "ĠHou": 7716,
      "Ġvo": 7717,
      "riers": 7718,
      "Ġlapt": 7719,
      "ĠCON": 7720,
      "ĠFREE": 7721,
      "Ġspokes": 7722,
      "aper": 7723,
      "iami": 7724,
      "Ġflavor": 7725,
      "ĠAL": 7726,
      "Ġinteract": 7727,
      "ILL": 7728,
      "ĠSC": 7729,
      "ĠCountry": 7730,
      "iform": 7731,
      "Ġmarked": 7732,
      "56": 7733,
      "Ġintroduction": 7734,
      "ĠCase": 7735,
      "Ġeverywhere": 7736,
      "issions": 7737,
      "Ġalongside": 7738,
      "Ġprinted": 7739,
      "Ġdriven": 7740,
      "Ġcoordin": 7741,
      "Ġheaded": 7742,
      "Ġscenes": 7743,
      "âĤ¬": 7744,
      "Ġproducing": 7745,
      "Ġnewly": 7746,
      "Ġdad": 7747,
      "ĠSelect": 7748,
      "Ġsplit": 7749,
      "cific": 7750,
      "Ġwash": 7751,
      "Ġneighb": 7752,
      "ĠHollywood": 7753,
      "ĠZealand": 7754,
      "Ġanymore": 7755,
      "Ġpink": 7756,
      "Ġblind": 7757,
      "ĠEvent": 7758,
      "Ð¾": 7759,
      "Ġquote": 7760,
      "Ġarrested": 7761,
      "izer": 7762,
      "iger": 7763,
      "Ġpublication": 7764,
      "Ġending": 7765,
      "Ġbreaking": 7766,
      "lers": 7767,
      "ĠDO": 7768,
      "inson": 7769,
      "ĠMountain": 7770,
      "Ġdesired": 7771,
      "Ġcarrying": 7772,
      "Ġbatt": 7773,
      "tw": 7774,
      "Ġliterally": 7775,
      "ĠDun": 7776,
      "Ġgiant": 7777,
      "Ġfalling": 7778,
      "Be": 7779,
      "Ġconcrete": 7780,
      "uing": 7781,
      "Ġbehalf": 7782,
      "ĠMembers": 7783,
      "Ġmeals": 7784,
      "ĠSilver": 7785,
      "Ġshops": 7786,
      "ĠLA": 7787,
      "Ġwhenever": 7788,
      "Ġconsumption": 7789,
      "Ġbutt": 7790,
      "Ġfifth": 7791,
      "uct": 7792,
      "].": 7793,
      "oup": 7794,
      "ava": 7795,
      "ĠAp": 7796,
      "ĠArticle": 7797,
      "Ġregardless": 7798,
      "ĠBrian": 7799,
      "Ġcomparison": 7800,
      "Ġgentle": 7801,
      "including": 7802,
      "uous": 7803,
      "Ġtransp": 7804,
      "Ġreserved": 7805,
      "Ġmatches": 7806,
      "Ġrecognition": 7807,
      "ĠNick": 7808,
      "Ar": 7809,
      "Ġlau": 7810,
      "ĠBritain": 7811,
      "Ġwins": 7812,
      "Ġforgot": 7813,
      "Ġsuddenly": 7814,
      "Ġliterature": 7815,
      "Ġsupplement": 7816,
      "Ã¢": 7817,
      "Ġmood": 7818,
      "Ġharder": 7819,
      "Ġseasons": 7820,
      "Ġtreatments": 7821,
      "iti": 7822,
      "Ġcharm": 7823,
      "Ġstronger": 7824,
      "friendly": 7825,
      "ĠTele": 7826,
      "leep": 7827,
      "Ġleather": 7828,
      "Ġtum": 7829,
      "ĠMeanwhile": 7830,
      "Ġrecon": 7831,
      "Ġarrive": 7832,
      "etary": 7833,
      "stery": 7834,
      "Ġtournament": 7835,
      "ĠAmong": 7836,
      "Ġcareful": 7837,
      "Ġportfolio": 7838,
      "CD": 7839,
      "icted": 7840,
      "lose": 7841,
      "Ġrecover": 7842,
      "Ġexperim": 7843,
      "ĠIrish": 7844,
      "letter": 7845,
      "Ġtitles": 7846,
      "rieved": 7847,
      "Ġpresents": 7848,
      "Ġdiseases": 7849,
      "swe": 7850,
      "EA": 7851,
      "ĠSafety": 7852,
      "Ġstead": 7853,
      "ĠBoy": 7854,
      "Ġconnections": 7855,
      "Ġmob": 7856,
      "ĠCR": 7857,
      "ĠFall": 7858,
      "Ġundert": 7859,
      "anted": 7860,
      "Ġintense": 7861,
      "Ġstunning": 7862,
      "Ġdecent": 7863,
      "ĠMD": 7864,
      "onto": 7865,
      "Ġescape": 7866,
      "Ġvisible": 7867,
      "Pl": 7868,
      "Ġalt": 7869,
      "----": 7870,
      "ESS": 7871,
      "ĠRoom": 7872,
      ".;": 7873,
      "Ġreact": 7874,
      "Ġoutcome": 7875,
      "All": 7876,
      "Ġchannels": 7877,
      "cular": 7878,
      "Ġfinger": 7879,
      "Ġloud": 7880,
      "Ġeverybody": 7881,
      "Ġpersonality": 7882,
      "Ġpreparation": 7883,
      "ĠEnjoy": 7884,
      "Ġparam": 7885,
      "pack": 7886,
      "Ġnaturally": 7887,
      "Ġstrict": 7888,
      "Ġgaming": 7889,
      "ĠCN": 7890,
      "intage": 7891,
      "Ġlists": 7892,
      "iler": 7893,
      "ĠEveryone": 7894,
      "Ġlaid": 7895,
      "Ġrising": 7896,
      "Ġexplan": 7897,
      "abeth": 7898,
      "ĠWould": 7899,
      "athan": 7900,
      "ruption": 7901,
      "Ġbars": 7902,
      "ĠJr": 7903,
      "Ġexposed": 7904,
      "ĠTech": 7905,
      "ĠMedicine": 7906,
      "Ġvirus": 7907,
      "Ġresidential": 7908,
      "Ġshower": 7909,
      "Ġsaving": 7910,
      "Ġcommonly": 7911,
      ")||": 7912,
      "ĠTal": 7913,
      "ĠEric": 7914,
      "Ġmixture": 7915,
      "ĠProper": 7916,
      "Al": 7917,
      "ĠBeaut": 7918,
      "ounter": 7919,
      "remony": 7920,
      "Ġthinks": 7921,
      "Ġsynt": 7922,
      "ĠNO": 7923,
      "xic": 7924,
      "roke": 7925,
      "Ġindustries": 7926,
      "bration": 7927,
      "Ġattractive": 7928,
      "anes": 7929,
      "Ġcookies": 7930,
      "ĠPrime": 7931,
      "atics": 7932,
      "Ġcopyright": 7933,
      "stra": 7934,
      "ceived": 7935,
      "Ġencouraged": 7936,
      "Ġdrawn": 7937,
      "Ġupload": 7938,
      "Ġavailability": 7939,
      "oken": 7940,
      "Ġwrites": 7941,
      "olit": 7942,
      "Ġseats": 7943,
      "izza": 7944,
      "ĠCru": 7945,
      "Ġrelative": 7946,
      "Ġunderstood": 7947,
      "Ġequival": 7948,
      "Ġtor": 7949,
      "ĠFoot": 7950,
      "haust": 7951,
      "ĠName": 7952,
      "Ġpubl": 7953,
      "Ġcolleagues": 7954,
      "ĠIllinois": 7955,
      "Ġgranted": 7956,
      "ĠCommon": 7957,
      "ĠPur": 7958,
      "ĠDub": 7959,
      "irts": 7960,
      "Ġstructures": 7961,
      "Ġrice": 7962,
      "ĠAwards": 7963,
      "vard": 7964,
      "Ġbunch": 7965,
      "ensus": 7966,
      "ĠBell": 7967,
      "Ġpreferred": 7968,
      "ĠCab": 7969,
      "Ġextension": 7970,
      "ĠShare": 7971,
      "ĠTreat": 7972,
      "Ġunex": 7973,
      "ĠNFL": 7974,
      "Ġnic": 7975,
      "bits": 7976,
      "ĠHas": 7977,
      "Ġcommunicate": 7978,
      "Ġlatter": 7979,
      "Ġfundamental": 7980,
      "Un": 7981,
      "Ġassume": 7982,
      "ĠHarry": 7983,
      "inity": 7984,
      "Ġcute": 7985,
      "Ġjoining": 7986,
      "ĠAdditionally": 7987,
      "Ġru": 7988,
      "Ġinch": 7989,
      "icide": 7990,
      "ĠDrive": 7991,
      "Ġcompliance": 7992,
      "ilty": 7993,
      "Ġmarks": 7994,
      "Ġeleg": 7995,
      "ĠNumber": 7996,
      "aron": 7997,
      "Ġsuffered": 7998,
      "CO": 7999,
      "ĠDemocratic": 8000,
      "Ġtact": 8001,
      "Ġtired": 8002,
      "Ġsubjects": 8003,
      "ĠEth": 8004,
      "ĠDavis": 8005,
      "Ġphones": 8006,
      "Ġbasketball": 8007,
      "Ġconsequences": 8008,
      "ĠMiller": 8009,
      "sts": 8010,
      "quality": 8011,
      "uties": 8012,
      "Ġconcert": 8013,
      "Ġfraud": 8014,
      "Ġaccord": 8015,
      "Ġinsight": 8016,
      "Ġsamples": 8017,
      "ĠED": 8018,
      "Ġhandling": 8019,
      "ĠRand": 8020,
      "TV": 8021,
      "Ġconcerning": 8022,
      "Ġwave": 8023,
      "nell": 8024,
      "ĠNic": 8025,
      "ĠRadio": 8026,
      "Ġbench": 8027,
      "ĠSS": 8028,
      "Ġfaced": 8029,
      "Ġenterprise": 8030,
      "Ġ($": 8031,
      "iac": 8032,
      "Ġblocks": 8033,
      "Ð°": 8034,
      "Ġborrow": 8035,
      "ĠLED": 8036,
      "Ġdrag": 8037,
      "Ġcertified": 8038,
      "Ġtissue": 8039,
      "EP": 8040,
      "Ġbull": 8041,
      "missions": 8042,
      "iki": 8043,
      "adelph": 8044,
      "season": 8045,
      "tes": 8046,
      "Ġbills": 8047,
      "Ġmerely": 8048,
      "iking": 8049,
      "imize": 8050,
      "iate": 8051,
      "acc": 8052,
      "Ġtone": 8053,
      "ĠHold": 8054,
      "Ġconvin": 8055,
      "Ġmanagers": 8056,
      "Ġbact": 8057,
      "Ġlady": 8058,
      "ĠMiami": 8059,
      "64": 8060,
      "Ġjuice": 8061,
      "Ġtrave": 8062,
      "Ġcontained": 8063,
      "Ġuncom": 8064,
      "Ġevaluation": 8065,
      "Ġcompare": 8066,
      "Ġputs": 8067,
      "Ġlogo": 8068,
      "ĠIII": 8069,
      "Ġcontrovers": 8070,
      "Ġpepper": 8071,
      "ĠUk": 8072,
      "Ġstaying": 8073,
      "Ġprohib": 8074,
      "ĠCapt": 8075,
      "isdom": 8076,
      "ĠClinton": 8077,
      "59": 8078,
      "ĠAction": 8079,
      "Ġawarded": 8080,
      "MM": 8081,
      ".||": 8082,
      "ĠPow": 8083,
      "ĠCivil": 8084,
      "ĠMade": 8085,
      "ĠLas": 8086,
      "Ġkm": 8087,
      "ership": 8088,
      "ĠProfessional": 8089,
      "ĠSales": 8090,
      "wart": 8091,
      "Fi": 8092,
      "ĠAvailable": 8093,
      "Ġboss": 8094,
      "Ġarchitecture": 8095,
      "Ġbirds": 8096,
      "ĠRos": 8097,
      "Ġcrypt": 8098,
      "enth": 8099,
      "ĠFollowing": 8100,
      "ulum": 8101,
      "Ġlets": 8102,
      "Ġsacr": 8103,
      "ĠFa": 8104,
      "Ġsections": 8105,
      "annel": 8106,
      "ĠCredit": 8107,
      "lude": 8108,
      "ĠMah": 8109,
      "ĠEastern": 8110,
      "Ġblank": 8111,
      "Ġinfection": 8112,
      "Ġtraveling": 8113,
      "ĠSmart": 8114,
      "Ġnewspaper": 8115,
      "Ġzero": 8116,
      "ĠPsych": 8117,
      "Ġrequirement": 8118,
      "Ġmac": 8119,
      "allas": 8120,
      "Ġshoulder": 8121,
      "dri": 8122,
      "Ġgotten": 8123,
      "Ġyard": 8124,
      "ĠBit": 8125,
      "Ġpassword": 8126,
      "Ġdeeply": 8127,
      "Ġdemands": 8128,
      "Ġspark": 8129,
      "Ġcovering": 8130,
      "Ġadequ": 8131,
      "ington": 8132,
      "words": 8133,
      "Ġopinions": 8134,
      "adelphia": 8135,
      "ĠWi": 8136,
      "chester": 8137,
      "Ġcenters": 8138,
      "zed": 8139,
      "Ġmanufacturers": 8140,
      "claim": 8141,
      "Ġ>>": 8142,
      "ĠEmer": 8143,
      "ĠðŁ": 8144,
      "Ġenjoying": 8145,
      "Ġvessel": 8146,
      "Ġpointed": 8147,
      "ĠEliz": 8148,
      "ĠQueen": 8149,
      "hire": 8150,
      "ĠGM": 8151,
      "Ġscan": 8152,
      "Ġconsists": 8153,
      "Ġhung": 8154,
      "ĠNAS": 8155,
      "ĠMess": 8156,
      "ĠLearning": 8157,
      "Ġrecipes": 8158,
      "Ġspots": 8159,
      "Ġgenerated": 8160,
      "Ġunion": 8161,
      "ds": 8162,
      "fall": 8163,
      "atell": 8164,
      "ĠGarden": 8165,
      "oto": 8166,
      "Ġhel": 8167,
      "Ġcolon": 8168,
      "Ġinstant": 8169,
      "Ġnights": 8170,
      "ĠSir": 8171,
      "oted": 8172,
      "ila": 8173,
      "Ġlect": 8174,
      "Ġpowers": 8175,
      "icious": 8176,
      "ormal": 8177,
      "Ġforecast": 8178,
      "Ġvent": 8179,
      "ĠSteel": 8180,
      "Ġelected": 8181,
      "Ġmm": 8182,
      "Ġheaven": 8183,
      "ĠRecent": 8184,
      "ĠCut": 8185,
      "Ġ||": 8186,
      "ĠLew": 8187,
      "Ġvice": 8188,
      "Ġaircraft": 8189,
      "Ġhealing": 8190,
      "sen": 8191,
      "Ġframework": 8192,
      "Ġobst": 8193,
      "ĠAnth": 8194,
      "ĠVisit": 8195,
      "ĠUr": 8196,
      "Ġcomplicated": 8197,
      "ateful": 8198,
      "erman": 8199,
      "print": 8200,
      "Ġbomb": 8201,
      "Ġsuperior": 8202,
      "ĠAge": 8203,
      "ĠCro": 8204,
      "orses": 8205,
      "Ġpand": 8206,
      "run": 8207,
      "ĠEngineering": 8208,
      "Ġthousand": 8209,
      "Ġentitled": 8210,
      "Ġol": 8211,
      "ĠCome": 8212,
      "Ġrural": 8213,
      "ĠThings": 8214,
      "rett": 8215,
      "Ġcriteria": 8216,
      "Ġretirement": 8217,
      "nders": 8218,
      "Ġmaintaining": 8219,
      "ifer": 8220,
      "ĠInsurance": 8221,
      "Ġ1980": 8222,
      "Ġinitially": 8223,
      "ĠStudent": 8224,
      "cm": 8225,
      "ĠPalest": 8226,
      "ilipp": 8227,
      "epend": 8228,
      "ĠStandard": 8229,
      "Ġequally": 8230,
      "Ġorient": 8231,
      "ocracy": 8232,
      "ĠCP": 8233,
      "Ġ42": 8234,
      "Ġstored": 8235,
      "Ġindicate": 8236,
      "Ġvoters": 8237,
      "Ġsought": 8238,
      "Ġprogramming": 8239,
      "Ġassault": 8240,
      "Ġassistant": 8241,
      "ĠPRO": 8242,
      "Ġaband": 8243,
      "ĠDam": 8244,
      "ĠLine": 8245,
      "acon": 8246,
      "ĠShort": 8247,
      "Ġ39": 8248,
      "Ġbaseball": 8249,
      "Ġassociation": 8250,
      "ĠWilson": 8251,
      "ulating": 8252,
      "ĠNatural": 8253,
      "Ġinstruction": 8254,
      "ped": 8255,
      "ĠSpain": 8256,
      "Ġ1997": 8257,
      "days": 8258,
      "Ġtie": 8259,
      "Ġdispos": 8260,
      "ĠMother": 8261,
      "Ġexhibition": 8262,
      "Ġinjured": 8263,
      "Ġopposition": 8264,
      "usive": 8265,
      "usal": 8266,
      "Ġadopted": 8267,
      "Ġwarning": 8268,
      ")|": 8269,
      "stal": 8270,
      "ĠCub": 8271,
      "acher": 8272,
      "________": 8273,
      "orgeous": 8274,
      "ĠSource": 8275,
      "ĠIde": 8276,
      "Ġinitiative": 8277,
      "Ġevolution": 8278,
      "Ġparticipation": 8279,
      "nesota": 8280,
      "ĠHappy": 8281,
      "Ġoutcomes": 8282,
      "Ġremoval": 8283,
      "ĠHouston": 8284,
      "AB": 8285,
      "Le": 8286,
      "ĠVegas": 8287,
      "57": 8288,
      "inter": 8289,
      "Ġmeets": 8290,
      "Ġsuffer": 8291,
      "Ġclosing": 8292,
      "ashes": 8293,
      "Ġsuggestions": 8294,
      "ĠAfghan": 8295,
      "Ġreturning": 8296,
      "vas": 8297,
      "igation": 8298,
      "rug": 8299,
      "Ġclassroom": 8300,
      "regon": 8301,
      "books": 8302,
      "Ġham": 8303,
      "Ġobjective": 8304,
      "ĠDemocrats": 8305,
      "ĠEX": 8306,
      "Ġacceler": 8307,
      "87": 8308,
      "67": 8309,
      "ĠTony": 8310,
      "Ġstayed": 8311,
      "Ġvibr": 8312,
      "ĠAgency": 8313,
      "Ġrum": 8314,
      "Ġsentence": 8315,
      "xual": 8316,
      "Ġoccurs": 8317,
      "war": 8318,
      "ĠUSB": 8319,
      "Ġlegit": 8320,
      "Ġapplicable": 8321,
      "itis": 8322,
      "Ġstrongly": 8323,
      "Ġkilling": 8324,
      "UL": 8325,
      "aters": 8326,
      "Ġheading": 8327,
      "alysis": 8328,
      "oked": 8329,
      "yes": 8330,
      "Ġfunctional": 8331,
      "cut": 8332,
      "ĠStory": 8333,
      "Ġnations": 8334,
      "orous": 8335,
      "Ġattempts": 8336,
      "Ġflying": 8337,
      "Ġ1996": 8338,
      "vania": 8339,
      "ERE": 8340,
      "ounded": 8341,
      "Ġphenomen": 8342,
      "Ġwake": 8343,
      "Ġgained": 8344,
      "ĠSarah": 8345,
      "Ġuncertain": 8346,
      "Ġstable": 8347,
      "Ġusage": 8348,
      "ervations": 8349,
      "Ġdollar": 8350,
      "ĠShop": 8351,
      "ĠGolden": 8352,
      "Ġcalendar": 8353,
      "ĠPolit": 8354,
      "Ġcompat": 8355,
      "iah": 8356,
      "eling": 8357,
      "Ġrely": 8358,
      "ĠKingdom": 8359,
      "iders": 8360,
      "wan": 8361,
      "Ġposting": 8362,
      "being": 8363,
      "Ġtill": 8364,
      "ĠMos": 8365,
      "Ġdeeper": 8366,
      "On": 8367,
      "Ġboxes": 8368,
      "ught": 8369,
      "Ġpp": 8370,
      "Ġloose": 8371,
      "Ġlesson": 8372,
      "Ġwithdraw": 8373,
      "ĠGive": 8374,
      "Ġvolunteers": 8375,
      "pending": 8376,
      "Ġchildhood": 8377,
      "Ġdiversity": 8378,
      "ĠJord": 8379,
      "Ġkit": 8380,
      "tics": 8381,
      "Ġocean": 8382,
      "Ġemployer": 8383,
      "Ġrepresented": 8384,
      "othe": 8385,
      "Ġplain": 8386,
      "rogen": 8387,
      "ĠChapter": 8388,
      "Ġjur": 8389,
      "Ġwanting": 8390,
      "Ġrefund": 8391,
      "Ġriding": 8392,
      "uma": 8393,
      "bow": 8394,
      "ĠSoftware": 8395,
      "Ġtransaction": 8396,
      "Ġapproaches": 8397,
      "Ġmole": 8398,
      "Ġunknown": 8399,
      "Ġpocket": 8400,
      "ĠGuard": 8401,
      "Ġpersonnel": 8402,
      "ĠStephen": 8403,
      "AND": 8404,
      "Ġimper": 8405,
      "olis": 8406,
      "Ġcasual": 8407,
      "Ġoffensive": 8408,
      "brid": 8409,
      "Ġentering": 8410,
      "Ġfrustr": 8411,
      "Ġtied": 8412,
      "Ġchest": 8413,
      "Ġtracking": 8414,
      "ĠSwed": 8415,
      "Ġelectrical": 8416,
      "Ġdepression": 8417,
      "elry": 8418,
      "ĠCL": 8419,
      "ĠLiving": 8420,
      "Ġdivor": 8421,
      "Ġasks": 8422,
      "ĠLLC": 8423,
      "ĠEasy": 8424,
      "Ġlip": 8425,
      "ĠâĢĻ": 8426,
      "Ġfru": 8427,
      "burgh": 8428,
      "ools": 8429,
      "Ġmistake": 8430,
      "Ġscores": 8431,
      "Ġcompensation": 8432,
      "icket": 8433,
      "ĠDark": 8434,
      "bered": 8435,
      "from": 8436,
      "ĠBE": 8437,
      "alo": 8438,
      "ĠBern": 8439,
      "ĠOwn": 8440,
      "Ġhyper": 8441,
      "rection": 8442,
      "Ġrequested": 8443,
      "Ġbone": 8444,
      "Ġlegend": 8445,
      "52": 8446,
      "Ġsorry": 8447,
      "Ġpreparing": 8448,
      "char": 8449,
      "ĠBased": 8450,
      "Ġworkshop": 8451,
      "gor": 8452,
      "Ġdowntown": 8453,
      "Ġcomputers": 8454,
      "htt": 8455,
      "ials": 8456,
      "ĠSteven": 8457,
      "Ġrapidly": 8458,
      "ĠOak": 8459,
      "Ġenables": 8460,
      "Ġresident": 8461,
      "Ġattitude": 8462,
      "Ġcharacteristics": 8463,
      "Ã³": 8464,
      "Ġplane": 8465,
      "Ġcontributions": 8466,
      "ĠCamer": 8467,
      "Ġarmy": 8468,
      "ĠMinnesota": 8469,
      "ĠSep": 8470,
      "ador": 8471,
      "eness": 8472,
      "ardens": 8473,
      "ĠWant": 8474,
      "RL": 8475,
      "Ġstir": 8476,
      "Ġimprovements": 8477,
      "liers": 8478,
      "Ġgreatly": 8479,
      "'.": 8480,
      "cker": 8481,
      "ĠBrook": 8482,
      "Ġminister": 8483,
      "ĠCapital": 8484,
      "ĠHi": 8485,
      "Ġpurchasing": 8486,
      "Ġjudgment": 8487,
      "Ġdispl": 8488,
      "ĠKorea": 8489,
      "ĠPhiladelphia": 8490,
      "heast": 8491,
      "Ġstages": 8492,
      "89": 8493,
      "ĠGreek": 8494,
      "Ġconcepts": 8495,
      "ashing": 8496,
      "Ġreveal": 8497,
      "ĠPu": 8498,
      "ulpt": 8499,
      "Ġstom": 8500,
      "umer": 8501,
      "Ġensuring": 8502,
      "Ġfarmers": 8503,
      "Ġdrinks": 8504,
      "ja": 8505,
      "ĠLi": 8506,
      "Ġlin": 8507,
      "Ġloving": 8508,
      "ĠInterest": 8509,
      "Ġsmoke": 8510,
      "Ġcourts": 8511,
      "2013": 8512,
      "Ġcombat": 8513,
      "Ġloyal": 8514,
      "Ġtape": 8515,
      "ho": 8516,
      "Ġopens": 8517,
      "ylvania": 8518,
      "ĠCand": 8519,
      "Ġseeds": 8520,
      "Ġintention": 8521,
      "Ġessentially": 8522,
      "phones": 8523,
      "Ġconsent": 8524,
      "ĠDave": 8525,
      "ĠRog": 8526,
      "Ġexhaust": 8527,
      "ĠIce": 8528,
      "ĠTen": 8529,
      "irus": 8530,
      "Ġfewer": 8531,
      "zes": 8532,
      "ĠFilm": 8533,
      "Ġacquis": 8534,
      "Ġrepresentative": 8535,
      "Ġconclusion": 8536,
      "Ġceremony": 8537,
      "ĠTalk": 8538,
      "Ġequipped": 8539,
      "Ġgap": 8540,
      "Ġracing": 8541,
      "Ġgate": 8542,
      "Ġopposed": 8543,
      "ĠBes": 8544,
      "Ġlift": 8545,
      "xx": 8546,
      "Ġroads": 8547,
      "una": 8548,
      "Ġerrors": 8549,
      "ali": 8550,
      "Ġwireless": 8551,
      "ĠPrint": 8552,
      "Ġfalls": 8553,
      "wear": 8554,
      "ĠDream": 8555,
      "ĠPA": 8556,
      "Ġadmit": 8557,
      "Ġokay": 8558,
      "2012": 8559,
      "Ġcalm": 8560,
      "isted": 8561,
      "ĠBase": 8562,
      "Ġcontaining": 8563,
      "Ġflag": 8564,
      "ĠChall": 8565,
      "Ġly": 8566,
      "Ġindicated": 8567,
      "Ġrespectively": 8568,
      "400": 8569,
      "Ġchecking": 8570,
      "Ġgym": 8571,
      "ĠGro": 8572,
      "pson": 8573,
      "Ġpermit": 8574,
      "ĠEmail": 8575,
      "Ġsingles": 8576,
      "Ġmoral": 8577,
      "eties": 8578,
      "bro": 8579,
      "Ġunusual": 8580,
      "Ġbaking": 8581,
      "Ġpig": 8582,
      "ĠColumbia": 8583,
      "jection": 8584,
      "Ġdefensive": 8585,
      "Ġsoldiers": 8586,
      "ĠQuality": 8587,
      "Ġreaching": 8588,
      "eb": 8589,
      "Ġpoker": 8590,
      "ĠEverything": 8591,
      "ĠCS": 8592,
      "swered": 8593,
      "Ġgrace": 8594,
      "month": 8595,
      "GA": 8596,
      "ĠToronto": 8597,
      "Ġintegration": 8598,
      "ĠLar": 8599,
      "ĠOfficer": 8600,
      "icking": 8601,
      "Ġupgrade": 8602,
      "mates": 8603,
      "ĠChange": 8604,
      "Ġinterviews": 8605,
      "Bl": 8606,
      "ĠEffect": 8607,
      "Ġstruck": 8608,
      "Ġelectricity": 8609,
      "ĠBudd": 8610,
      "Ġcann": 8611,
      "Ġsurve": 8612,
      "ĠOregon": 8613,
      "ĠBad": 8614,
      "Ġ49": 8615,
      "Ġaccessories": 8616,
      "ĠRepublicans": 8617,
      "ĠBed": 8618,
      "Ġgene": 8619,
      "da": 8620,
      "ilton": 8621,
      "ludes": 8622,
      "ĠElizabeth": 8623,
      "Ġstring": 8624,
      "Ġdisplayed": 8625,
      "ĠiPad": 8626,
      "ĠOx": 8627,
      "Ġemotions": 8628,
      "Ġdental": 8629,
      "ĠJosh": 8630,
      "Ġblow": 8631,
      "Ġgovernments": 8632,
      "Ġcorn": 8633,
      "igen": 8634,
      "Ġdrama": 8635,
      "Ġvegetables": 8636,
      "Ġinstitution": 8637,
      "Ġwaters": 8638,
      "Ġresort": 8639,
      "Ġactor": 8640,
      "ĠSize": 8641,
      "ĠVen": 8642,
      "upid": 8643,
      "Ġequivalent": 8644,
      "ĠDallas": 8645,
      "ĠJam": 8646,
      "GE": 8647,
      "âĢ³": 8648,
      "ĠMember": 8649,
      "Ġraising": 8650,
      "ifting": 8651,
      "Ġapplying": 8652,
      "Ġoffense": 8653,
      "ĠViet": 8654,
      "ĠFac": 8655,
      "Ġfranch": 8656,
      "Ġswimming": 8657,
      "HA": 8658,
      "hour": 8659,
      "ĠGrow": 8660,
      "Ġinvestments": 8661,
      "Ġbuyers": 8662,
      "oir": 8663,
      "Ġminimal": 8664,
      "Ġexists": 8665,
      "ĠSeattle": 8666,
      "Ġemails": 8667,
      "iour": 8668,
      "iary": 8669,
      "ĠBarb": 8670,
      "Ã¼": 8671,
      "ĠProcess": 8672,
      "Ġsubstantial": 8673,
      "Ġperformances": 8674,
      "Ġdanger": 8675,
      "Ġorganis": 8676,
      "ĠTR": 8677,
      "ccer": 8678,
      "ĠAng": 8679,
      "ĠAh": 8680,
      "ĠJason": 8681,
      "ĠStaff": 8682,
      "58": 8683,
      "ller": 8684,
      "Ġhosted": 8685,
      "site": 8686,
      "ĠWorking": 8687,
      "Ġlifetime": 8688,
      "Ġspeaker": 8689,
      "Ġprivile": 8690,
      "ĠGreg": 8691,
      "ĠDead": 8692,
      "ĠJay": 8693,
      "Press": 8694,
      ",'": 8695,
      "fa": 8696,
      "ĠBang": 8697,
      "Ġprayer": 8698,
      "ĠDiego": 8699,
      "Ġdecline": 8700,
      "Ġworried": 8701,
      "Ġpacked": 8702,
      "Se": 8703,
      "ĠTenn": 8704,
      "Ġremem": 8705,
      "aza": 8706,
      "Ġcircuit": 8707,
      "ĠMatthew": 8708,
      "Ġstudied": 8709,
      "Ġske": 8710,
      "intend": 8711,
      "FA": 8712,
      "Ġsomehow": 8713,
      "Ġphilosophy": 8714,
      "Ġweird": 8715,
      "Ġhaz": 8716,
      "Ġdescribes": 8717,
      "ĠBat": 8718,
      "ĠBrother": 8719,
      "rer": 8720,
      "Ġfits": 8721,
      "odge": 8722,
      "Ġgarage": 8723,
      "Ġarray": 8724,
      "Ġtap": 8725,
      "ĠWebsite": 8726,
      "inating": 8727,
      "Ġorange": 8728,
      "Ġpricing": 8729,
      "Ġauthentic": 8730,
      "Ġenemy": 8731,
      "Ġdiabetes": 8732,
      "Ġfounder": 8733,
      "urities": 8734,
      "ĠHistor": 8735,
      "makers": 8736,
      "Ġneut": 8737,
      "Ġcontribution": 8738,
      "lections": 8739,
      "OO": 8740,
      "sylvania": 8741,
      "aka": 8742,
      "Ġkiss": 8743,
      "angers": 8744,
      "Ġadmitted": 8745,
      "UD": 8746,
      "Ġattach": 8747,
      "Ġ1995": 8748,
      "lls": 8749,
      "erving": 8750,
      "ART": 8751,
      "sect": 8752,
      "ĠCustomer": 8753,
      "Ġadvent": 8754,
      "%,": 8755,
      "ĠSem": 8756,
      "Ġcm": 8757,
      "ĠRub": 8758,
      "Ġtemporary": 8759,
      "Ġstruggling": 8760,
      "Ġ46": 8761,
      "ĠAtlanta": 8762,
      "df": 8763,
      "Ġhadn": 8764,
      "Ġguilty": 8765,
      "ĠRegist": 8766,
      "ĠBand": 8767,
      "aret": 8768,
      "Ġcontracts": 8769,
      "ĠSEO": 8770,
      "gged": 8771,
      "roller": 8772,
      "Ġstations": 8773,
      "ortion": 8774,
      "Ġsegment": 8775,
      "Ġaccused": 8776,
      "Ġpushed": 8777,
      "ĠDNA": 8778,
      "Ġprinting": 8779,
      "Ġantib": 8780,
      "Ġcameras": 8781,
      "Ġnose": 8782,
      "Ġcomprom": 8783,
      "Ġwise": 8784,
      "amsung": 8785,
      "Ġanswered": 8786,
      "Ġprovision": 8787,
      "power": 8788,
      "Ġsurvive": 8789,
      "Ġblend": 8790,
      "ĠMom": 8791,
      "looking": 8792,
      "Ġtrips": 8793,
      "Ġmaintained": 8794,
      "heim": 8795,
      "Ġfocusing": 8796,
      "Ġsouthern": 8797,
      "MC": 8798,
      "ĠNation": 8799,
      "ĠStone": 8800,
      "Ġengaging": 8801,
      "Ġflower": 8802,
      "Ġlake": 8803,
      "ificial": 8804,
      "ĠMarc": 8805,
      "Ġclock": 8806,
      "ĠBooks": 8807,
      "Ġlens": 8808,
      "Ġpregnancy": 8809,
      "Ġbid": 8810,
      "ĠForest": 8811,
      "WS": 8812,
      "charge": 8813,
      "Ġgraphics": 8814,
      "apore": 8815,
      "kel": 8816,
      "Ġchronic": 8817,
      "ĠDoc": 8818,
      "lee": 8819,
      "Ġpandemic": 8820,
      "Ġdishes": 8821,
      "Ġsecondary": 8822,
      "Ġaddresses": 8823,
      "iley": 8824,
      "Ġcam": 8825,
      "Ġspecialist": 8826,
      "Ġgorgeous": 8827,
      "rets": 8828,
      "Ġsatisfaction": 8829,
      "Ġtrem": 8830,
      "je": 8831,
      "Ġbrilliant": 8832,
      "ĠBull": 8833,
      "ĠMotor": 8834,
      "Ġrestrictions": 8835,
      "ĠVers": 8836,
      "onsin": 8837,
      "Ġpride": 8838,
      "Ġinspe": 8839,
      "Ġlisting": 8840,
      "etch": 8841,
      "Ġspray": 8842,
      "Ġproved": 8843,
      "Ġvolunteer": 8844,
      "ĠPakistan": 8845,
      "ĠAB": 8846,
      "Ġsubsid": 8847,
      "Ġpul": 8848,
      "ĠSure": 8849,
      "Ġstudying": 8850,
      "isconsin": 8851,
      "Ġbuff": 8852,
      "Ġmuscles": 8853,
      "urse": 8854,
      "ĠPhone": 8855,
      "wich": 8856,
      "eters": 8857,
      "Ġalter": 8858,
      "ĠLatin": 8859,
      "Ġintellectual": 8860,
      "ĠContent": 8861,
      "ĠKansas": 8862,
      "Ġvisits": 8863,
      "athered": 8864,
      "Ġcoat": 8865,
      "American": 8866,
      "Ġdismiss": 8867,
      "ckets": 8868,
      "Our": 8869,
      "Ġlean": 8870,
      "ĠMagazine": 8871,
      "ĠSE": 8872,
      "53": 8873,
      "Ġproducer": 8874,
      "iffe": 8875,
      "ĠProtection": 8876,
      "Ġcrash": 8877,
      "Ġdeploy": 8878,
      "ĠGi": 8879,
      "ira": 8880,
      "Ġenthusi": 8881,
      "ĠExperience": 8882,
      "ĠRetrieved": 8883,
      "quis": 8884,
      "RC": 8885,
      "Ġspa": 8886,
      "Ġsomebody": 8887,
      "Ġfocuses": 8888,
      "style": 8889,
      "Ġcups": 8890,
      "Ġprize": 8891,
      "Ġintroduce": 8892,
      "Ġlanguages": 8893,
      "Ġtort": 8894,
      "dis": 8895,
      "ĠFA": 8896,
      "Ġinteractive": 8897,
      "Ġattending": 8898,
      "ĠCloud": 8899,
      "Ġminds": 8900,
      "ĠMu": 8901,
      "Ġwondering": 8902,
      "Ġaccuracy": 8903,
      "Ġratio": 8904,
      "Ġfilling": 8905,
      "ĠEver": 8906,
      "ĠCasino": 8907,
      "Ġheavily": 8908,
      "Ġhighlights": 8909,
      "iag": 8910,
      "wr": 8911,
      "ĠJane": 8912,
      "Ġtherap": 8913,
      "ĠMaterial": 8914,
      "ĠCreate": 8915,
      "Ġphotographs": 8916,
      "Ġdeck": 8917,
      "Ġalarm": 8918,
      "Ġcombine": 8919,
      "ko": 8920,
      "theless": 8921,
      "Ġassigned": 8922,
      "Ġinteraction": 8923,
      "Ġtransactions": 8924,
      "ĠConsult": 8925,
      "Ġcompete": 8926,
      "Ġpasses": 8927,
      "Ġemotion": 8928,
      "Ġfactory": 8929,
      "ĠModern": 8930,
      "Ad": 8931,
      "ibl": 8932,
      "onic": 8933,
      "ĠProducts": 8934,
      "Ġconventional": 8935,
      "obe": 8936,
      "Ġ120": 8937,
      "Ġlosses": 8938,
      "Ġcelebration": 8939,
      "Ġscope": 8940,
      "child": 8941,
      "She": 8942,
      "Ġmedication": 8943,
      "riculum": 8944,
      "market": 8945,
      "ĠEN": 8946,
      "usher": 8947,
      "ĠPast": 8948,
      "ĠCancer": 8949,
      "tery": 8950,
      "ĠLevel": 8951,
      "ĠJordan": 8952,
      "step": 8953,
      "Ġjail": 8954,
      "Ġtoler": 8955,
      "ĠCry": 8956,
      "Ġpackages": 8957,
      "Ġsevent": 8958,
      "Ġexceptional": 8959,
      "Ġpregnant": 8960,
      "Ġtelephone": 8961,
      "ockey": 8962,
      "Ġrarely": 8963,
      "olt": 8964,
      "ĠStudy": 8965,
      "Ġdemonstrate": 8966,
      "ĠSound": 8967,
      "atin": 8968,
      "unes": 8969,
      "ĠExam": 8970,
      "Ġsed": 8971,
      "Ġwhilst": 8972,
      "Ġinfect": 8973,
      "ĠExpress": 8974,
      "Ġdesper": 8975,
      "Ġappointed": 8976,
      "ĠDom": 8977,
      "Ġhotels": 8978,
      "ĠFive": 8979,
      "Ġcul": 8980,
      "Ġacquired": 8981,
      "Ġuniverse": 8982,
      "Ġunexpected": 8983,
      "ĠTrade": 8984,
      "Ġelectron": 8985,
      "ĠPennsylvania": 8986,
      "To": 8987,
      "ĠLady": 8988,
      "ainless": 8989,
      "proof": 8990,
      "iscal": 8991,
      "ĠAustin": 8992,
      "ipt": 8993,
      "ĠVice": 8994,
      "uten": 8995,
      "ĠAirport": 8996,
      "Ġrecre": 8997,
      "ĠPhilipp": 8998,
      "Ġ1970": 8999,
      "viously": 9000,
      "Ġhanging": 9001,
      "App": 9002,
      "tail": 9003,
      "De": 9004,
      "Ġhide": 9005,
      "Ġtrim": 9006,
      "ĠSeason": 9007,
      "ĠDeb": 9008,
      "Ġsatisfied": 9009,
      "ĠHay": 9010,
      "ĠSeveral": 9011,
      "ĠâĢĿ": 9012,
      "Ġexport": 9013,
      "criptions": 9014,
      "ĠBry": 9015,
      "Ġprime": 9016,
      "Ġflexibility": 9017,
      "68": 9018,
      "ĠTheatre": 9019,
      "Ġchecked": 9020,
      "Ġofficially": 9021,
      "Man": 9022,
      "Ġswing": 9023,
      "Ġhearts": 9024,
      "Ġtestim": 9025,
      "visor": 9026,
      "Ġsinging": 9027,
      "Ġtargeted": 9028,
      "high": 9029,
      "Ġparticipating": 9030,
      "Ġemployed": 9031,
      "anguage": 9032,
      "Ġfur": 9033,
      "Ġ44": 9034,
      "fers": 9035,
      ",âĢĻ": 9036,
      "ĠCreek": 9037,
      "Ġvenue": 9038,
      "Ġdose": 9039,
      "ĠBul": 9040,
      "Ġanniversary": 9041,
      "Ġcow": 9042,
      "Ġemerging": 9043,
      "ĠSquare": 9044,
      "stract": 9045,
      "verty": 9046,
      "ĠÎ": 9047,
      "ĠFL": 9048,
      "Ġresponses": 9049,
      "Ġdamaged": 9050,
      "Ġtooth": 9051,
      "Ġentrance": 9052,
      "agan": 9053,
      "ĠMcG": 9054,
      "Ġmassage": 9055,
      "Ġclubs": 9056,
      "Ġwestern": 9057,
      "ĠArm": 9058,
      "cribed": 9059,
      "Ġperm": 9060,
      "ĠMoreover": 9061,
      "ĠAllen": 9062,
      "vals": 9063,
      "Ġregulatory": 9064,
      "Ġadvantages": 9065,
      "Ġporn": 9066,
      "Ġpromoting": 9067,
      "ĠAnnual": 9068,
      "ĠTam": 9069,
      "Ġterrible": 9070,
      "Ġsinger": 9071,
      "ĠMethod": 9072,
      "Ġ64": 9073,
      "Ġgrateful": 9074,
      "ĠAutom": 9075,
      "Ġholidays": 9076,
      "Ġsolo": 9077,
      "79": 9078,
      "Ġexplos": 9079,
      "Ġhip": 9080,
      "Ġtalented": 9081,
      "Ġelections": 9082,
      "ĠModel": 9083,
      "54": 9084,
      "ĠBridge": 9085,
      "ĠScotland": 9086,
      "Ġ(âĢľ": 9087,
      "Ġnerv": 9088,
      "Ġshirt": 9089,
      "Ġmistakes": 9090,
      "Ġchampion": 9091,
      "abil": 9092,
      "eping": 9093,
      "Ġbranch": 9094,
      "Ġpoverty": 9095,
      "roit": 9096,
      "Ġdefine": 9097,
      "Ġmild": 9098,
      "Ġcotton": 9099,
      "ĠWisconsin": 9100,
      "ĠKids": 9101,
      "Ġcorrectly": 9102,
      "Ġannouncement": 9103,
      "ĠContinue": 9104,
      "Ġlaptop": 9105,
      "PD": 9106,
      "Ġfest": 9107,
      "ĠNob": 9108,
      "flow": 9109,
      "Ġownership": 9110,
      "ĠRick": 9111,
      "Ġprinciple": 9112,
      "Ġfingers": 9113,
      "ĠMoney": 9114,
      "Ġque": 9115,
      "Ġencounter": 9116,
      "Ġtargets": 9117,
      "Ġliability": 9118,
      "Ġholes": 9119,
      "oom": 9120,
      "low": 9121,
      "Ġproport": 9122,
      "awa": 9123,
      "Ġdivided": 9124,
      "raine": 9125,
      "Ġguaranteed": 9126,
      "unicip": 9127,
      "Ġboards": 9128,
      "Ġmyth": 9129,
[...]
